#ifndef MODEL_TFLITE_FLOAT_H
#define MODEL_TFLITE_FLOAT_H


unsigned int model_tflite_float_len = 12216;
unsigned char model_tflite_float[] = {
 0x1c, 0x00, 0x00, 0x00, 0x54, 0x46, 0x4c, 0x33, 0x14, 0x00, 0x20, 0x00,
  0x1c, 0x00, 0x18, 0x00, 0x14, 0x00, 0x10, 0x00, 0x0c, 0x00, 0x00, 0x00,
  0x08, 0x00, 0x04, 0x00, 0x14, 0x00, 0x00, 0x00, 0x1c, 0x00, 0x00, 0x00,
  0x80, 0x00, 0x00, 0x00, 0xd8, 0x00, 0x00, 0x00, 0x5c, 0x22, 0x00, 0x00,
  0x6c, 0x22, 0x00, 0x00, 0x14, 0x2f, 0x00, 0x00, 0x03, 0x00, 0x00, 0x00,
  0x01, 0x00, 0x00, 0x00, 0x04, 0x00, 0x00, 0x00, 0xd6, 0xdc, 0xff, 0xff,
  0x0c, 0x00, 0x00, 0x00, 0x1c, 0x00, 0x00, 0x00, 0x38, 0x00, 0x00, 0x00,
  0x0f, 0x00, 0x00, 0x00, 0x73, 0x65, 0x72, 0x76, 0x69, 0x6e, 0x67, 0x5f,
  0x64, 0x65, 0x66, 0x61, 0x75, 0x6c, 0x74, 0x00, 0x01, 0x00, 0x00, 0x00,
  0x04, 0x00, 0x00, 0x00, 0x9c, 0xff, 0xff, 0xff, 0x14, 0x00, 0x00, 0x00,
  0x04, 0x00, 0x00, 0x00, 0x07, 0x00, 0x00, 0x00, 0x73, 0x6f, 0x66, 0x74,
  0x6d, 0x61, 0x78, 0x00, 0x01, 0x00, 0x00, 0x00, 0x04, 0x00, 0x00, 0x00,
  0x76, 0xdd, 0xff, 0xff, 0x04, 0x00, 0x00, 0x00, 0x07, 0x00, 0x00, 0x00,
  0x69, 0x6e, 0x70, 0x75, 0x74, 0x5f, 0x31, 0x00, 0x02, 0x00, 0x00, 0x00,
  0x34, 0x00, 0x00, 0x00, 0x04, 0x00, 0x00, 0x00, 0xdc, 0xff, 0xff, 0xff,
  0x17, 0x00, 0x00, 0x00, 0x04, 0x00, 0x00, 0x00, 0x13, 0x00, 0x00, 0x00,
  0x43, 0x4f, 0x4e, 0x56, 0x45, 0x52, 0x53, 0x49, 0x4f, 0x4e, 0x5f, 0x4d,
  0x45, 0x54, 0x41, 0x44, 0x41, 0x54, 0x41, 0x00, 0x08, 0x00, 0x0c, 0x00,
  0x08, 0x00, 0x04, 0x00, 0x08, 0x00, 0x00, 0x00, 0x16, 0x00, 0x00, 0x00,
  0x04, 0x00, 0x00, 0x00, 0x13, 0x00, 0x00, 0x00, 0x6d, 0x69, 0x6e, 0x5f,
  0x72, 0x75, 0x6e, 0x74, 0x69, 0x6d, 0x65, 0x5f, 0x76, 0x65, 0x72, 0x73,
  0x69, 0x6f, 0x6e, 0x00, 0x18, 0x00, 0x00, 0x00, 0x80, 0x21, 0x00, 0x00,
  0x78, 0x21, 0x00, 0x00, 0x58, 0x21, 0x00, 0x00, 0x40, 0x21, 0x00, 0x00,
  0xf0, 0x20, 0x00, 0x00, 0xa0, 0x20, 0x00, 0x00, 0x90, 0x1c, 0x00, 0x00,
  0x80, 0x18, 0x00, 0x00, 0x30, 0x18, 0x00, 0x00, 0x20, 0x14, 0x00, 0x00,
  0x10, 0x10, 0x00, 0x00, 0xe0, 0x0f, 0x00, 0x00, 0xd0, 0x00, 0x00, 0x00,
  0xc8, 0x00, 0x00, 0x00, 0xc0, 0x00, 0x00, 0x00, 0xb8, 0x00, 0x00, 0x00,
  0xb0, 0x00, 0x00, 0x00, 0xa8, 0x00, 0x00, 0x00, 0xa0, 0x00, 0x00, 0x00,
  0x98, 0x00, 0x00, 0x00, 0x90, 0x00, 0x00, 0x00, 0x88, 0x00, 0x00, 0x00,
  0x68, 0x00, 0x00, 0x00, 0x04, 0x00, 0x00, 0x00, 0x4a, 0xde, 0xff, 0xff,
  0x04, 0x00, 0x00, 0x00, 0x54, 0x00, 0x00, 0x00, 0x0c, 0x00, 0x00, 0x00,
  0x08, 0x00, 0x0e, 0x00, 0x08, 0x00, 0x04, 0x00, 0x08, 0x00, 0x00, 0x00,
  0x10, 0x00, 0x00, 0x00, 0x24, 0x00, 0x00, 0x00, 0x00, 0x00, 0x06, 0x00,
  0x08, 0x00, 0x04, 0x00, 0x06, 0x00, 0x00, 0x00, 0x04, 0x00, 0x00, 0x00,
  0x00, 0x00, 0x00, 0x00, 0x00, 0x00, 0x0a, 0x00, 0x10, 0x00, 0x0c, 0x00,
  0x08, 0x00, 0x04, 0x00, 0x0a, 0x00, 0x00, 0x00, 0x01, 0x00, 0x00, 0x00,
  0x02, 0x00, 0x00, 0x00, 0x04, 0x00, 0x00, 0x00, 0x05, 0x00, 0x00, 0x00,
  0x32, 0x2e, 0x39, 0x2e, 0x32, 0x00, 0x00, 0x00, 0xaa, 0xde, 0xff, 0xff,
  0x04, 0x00, 0x00, 0x00, 0x10, 0x00, 0x00, 0x00, 0x31, 0x2e, 0x35, 0x2e,
  0x30, 0x00, 0x00, 0x00, 0x00, 0x00, 0x00, 0x00, 0x00, 0x00, 0x00, 0x00,
  0xd4, 0xd2, 0xff, 0xff, 0xd8, 0xd2, 0xff, 0xff, 0xdc, 0xd2, 0xff, 0xff,
  0xe0, 0xd2, 0xff, 0xff, 0xe4, 0xd2, 0xff, 0xff, 0xe8, 0xd2, 0xff, 0xff,
  0xec, 0xd2, 0xff, 0xff, 0xf0, 0xd2, 0xff, 0xff, 0xf4, 0xd2, 0xff, 0xff,
  0xea, 0xde, 0xff, 0xff, 0x04, 0x00, 0x00, 0x00, 0x00, 0x0f, 0x00, 0x00,
  0xfa, 0xcd, 0x91, 0x3f, 0x46, 0xe6, 0x99, 0xbf, 0x1b, 0xa5, 0x92, 0x3e,
  0xbf, 0x19, 0xee, 0xbe, 0xc9, 0xe7, 0xbf, 0x3f, 0x7f, 0x6e, 0x96, 0x3e,
  0x9f, 0xd7, 0xa2, 0x3f, 0xac, 0xe7, 0x71, 0xbe, 0x47, 0x2a, 0x5a, 0x3f,
  0x0a, 0xfc, 0xb5, 0xbe, 0x28, 0x6a, 0x9b, 0xbe, 0x76, 0xf4, 0x05, 0x3f,
  0x81, 0x7a, 0x54, 0x3f, 0xeb, 0xa5, 0x24, 0x40, 0x0a, 0x32, 0x0b, 0xbe,
  0xa7, 0x10, 0x1a, 0xbf, 0xa3, 0xca, 0x0e, 0x3f, 0xac, 0x4c, 0xd9, 0xbf,
  0x79, 0xa0, 0xea, 0xbd, 0x21, 0x71, 0x71, 0x3f, 0xb9, 0x61, 0x5a, 0xbf,
  0x40, 0x50, 0x9b, 0xbf, 0x95, 0xfb, 0xd4, 0xbe, 0xdc, 0x90, 0xe5, 0xbd,
  0x79, 0x46, 0x7c, 0xbf, 0xef, 0xd7, 0x86, 0x3e, 0x82, 0xda, 0xe4, 0x3e,
  0x1a, 0x34, 0x4a, 0xbf, 0x00, 0xe2, 0xa7, 0x3f, 0x3b, 0xaf, 0x2b, 0xbf,
  0xbc, 0x08, 0xe2, 0x3f, 0x89, 0xdf, 0x89, 0x40, 0xa6, 0x5d, 0x51, 0x3e,
  0x7c, 0x33, 0x52, 0x3f, 0xd2, 0x19, 0x25, 0x40, 0x79, 0xa0, 0xc3, 0x3f,
  0x33, 0x0d, 0x6c, 0x3f, 0x97, 0xb7, 0x70, 0x3e, 0xa7, 0x0b, 0xa9, 0x3e,
  0x6d, 0x3c, 0x80, 0x3f, 0xdb, 0x17, 0x57, 0x3f, 0x73, 0x3e, 0x1d, 0x3f,
  0x7c, 0x02, 0x8c, 0x3f, 0x38, 0x7a, 0x01, 0x3f, 0x0f, 0x29, 0x9e, 0xbf,
  0xd7, 0x2a, 0x77, 0x3f, 0x41, 0x38, 0xa1, 0x3f, 0x10, 0x1a, 0x09, 0xc0,
  0x3a, 0x2a, 0xda, 0x39, 0x99, 0xb2, 0x04, 0x3f, 0x1f, 0xf5, 0xaf, 0xbf,
  0x90, 0x2f, 0x0a, 0xbf, 0x51, 0x10, 0xb1, 0xbf, 0x79, 0x54, 0x5d, 0xbd,
  0x25, 0xa4, 0x03, 0x3f, 0x5e, 0x92, 0x86, 0x3f, 0x3c, 0xcb, 0x0f, 0xc0,
  0x80, 0x78, 0xba, 0xbf, 0x1d, 0xbd, 0x8f, 0x3e, 0x5f, 0x1e, 0xf7, 0x3d,
  0x54, 0x47, 0x75, 0xbf, 0xb5, 0x30, 0xaa, 0xbe, 0x02, 0xd1, 0x6f, 0xbf,
  0x2c, 0x84, 0xe5, 0xbd, 0xaf, 0xbf, 0xb0, 0xbf, 0xa4, 0xa6, 0x9c, 0x3d,
  0xe1, 0xfe, 0xd2, 0x3e, 0x54, 0x46, 0xaa, 0x3e, 0x70, 0xfb, 0xb4, 0xbe,
  0xfc, 0x88, 0x78, 0xbe, 0xfa, 0xd1, 0xb2, 0xbf, 0xb9, 0x77, 0xe0, 0xbe,
  0xc1, 0x41, 0x88, 0xbf, 0xd4, 0x6a, 0xa3, 0xbd, 0xfb, 0x82, 0x30, 0x3e,
  0x50, 0xe2, 0x24, 0xbc, 0x1e, 0xf9, 0xec, 0xbf, 0x6d, 0x1a, 0xf2, 0xbf,
  0x9c, 0xc7, 0x4a, 0x40, 0x9c, 0xda, 0x2a, 0x40, 0xb9, 0x2e, 0x75, 0x3f,
  0xc1, 0x52, 0x81, 0xbe, 0x27, 0xb3, 0xdc, 0xbe, 0x0c, 0x09, 0x2e, 0xbf,
  0x2b, 0x8c, 0x73, 0xbf, 0x39, 0x69, 0x0e, 0x3f, 0x4e, 0x61, 0xcf, 0xbe,
  0x5d, 0x2c, 0xd5, 0xbf, 0xfe, 0x06, 0x17, 0x3f, 0x91, 0xfc, 0x09, 0x3f,
  0x7b, 0x71, 0xde, 0xbf, 0x78, 0x3c, 0xe3, 0xbe, 0x3a, 0x4b, 0x7f, 0xbf,
  0x11, 0xa0, 0x98, 0xbf, 0x38, 0xf0, 0x1a, 0xbe, 0x6b, 0x3d, 0xb1, 0xbf,
  0x90, 0x33, 0x6c, 0xbf, 0xce, 0xc6, 0x56, 0xbf, 0xef, 0x8e, 0x0d, 0xc0,
  0x32, 0x6b, 0x99, 0xbf, 0xab, 0x42, 0x10, 0x3f, 0x7d, 0x78, 0xfd, 0x3e,
  0x11, 0x88, 0xec, 0x3e, 0x78, 0xb5, 0x56, 0x3c, 0xe5, 0x8d, 0x17, 0x3f,
  0x03, 0x5c, 0xe5, 0xbc, 0xd0, 0xa8, 0x65, 0xbf, 0xd0, 0xa5, 0x42, 0xbf,
  0xe6, 0xa6, 0x95, 0xbe, 0x07, 0x4a, 0x13, 0xbd, 0x24, 0xf3, 0xe5, 0xbf,
  0x38, 0xe3, 0x67, 0xbe, 0x82, 0x21, 0x6a, 0xbf, 0xac, 0xef, 0xac, 0xbf,
  0xa0, 0x9b, 0x48, 0xbf, 0x53, 0x88, 0x53, 0xbf, 0x63, 0xb8, 0x4e, 0x3d,
  0xf1, 0xda, 0xf5, 0xbe, 0xd0, 0x5d, 0xbb, 0xbf, 0x74, 0x4e, 0xd9, 0x3f,
  0x8c, 0x7b, 0xa4, 0xbe, 0x48, 0x0e, 0x92, 0xbe, 0x74, 0x6f, 0x42, 0x3f,
  0x34, 0x26, 0xa6, 0xbe, 0x5b, 0x30, 0x02, 0x40, 0x04, 0x32, 0xe7, 0xbe,
  0x8d, 0x37, 0x82, 0xbf, 0x22, 0xaf, 0x91, 0x3f, 0x01, 0xe2, 0x52, 0x3f,
  0x40, 0xe3, 0x1f, 0x3f, 0xf8, 0xc1, 0x11, 0x40, 0x01, 0x29, 0x79, 0xbf,
  0xbc, 0x1e, 0x1a, 0x3f, 0xcf, 0xca, 0x77, 0x3f, 0xbc, 0x00, 0x04, 0x3f,
  0x06, 0xac, 0x6a, 0xbf, 0x0c, 0xdb, 0x4e, 0x3e, 0x42, 0x8e, 0x43, 0xbf,
  0x75, 0x51, 0xb3, 0x3e, 0x28, 0x3b, 0x38, 0x3d, 0xc3, 0x84, 0xa8, 0xbe,
  0x2e, 0xc2, 0x41, 0x3f, 0xaf, 0xfd, 0x66, 0xbe, 0x39, 0xe0, 0x18, 0x40,
  0x58, 0x2e, 0x6c, 0x3c, 0x56, 0x61, 0xf0, 0xbe, 0x72, 0x8f, 0x9d, 0xbe,
  0x8e, 0x8e, 0x01, 0x3f, 0x0f, 0x75, 0x1a, 0xbf, 0xa1, 0x42, 0xbb, 0x3d,
  0xb3, 0x10, 0x9b, 0x3e, 0x11, 0xac, 0xca, 0xbd, 0x6d, 0x76, 0x56, 0xbe,
  0x77, 0xd0, 0x7e, 0x3f, 0x4c, 0xc6, 0x09, 0xbf, 0xb1, 0x45, 0xf7, 0x3b,
  0x43, 0xa8, 0x32, 0xbe, 0x87, 0xb8, 0x03, 0x3f, 0xb0, 0x55, 0xc7, 0xbf,
  0xf7, 0xc0, 0x49, 0xc0, 0xff, 0xca, 0x36, 0xbf, 0xd4, 0xe5, 0xca, 0x3f,
  0xbb, 0xaf, 0x7e, 0x3d, 0xa5, 0x04, 0x70, 0x3f, 0x50, 0xc6, 0xc9, 0xbe,
  0xdb, 0x60, 0x27, 0xbe, 0xb9, 0x01, 0x22, 0xbf, 0x54, 0xe6, 0x98, 0x3e,
  0x7f, 0xc6, 0x95, 0xbf, 0x12, 0x61, 0x90, 0x3f, 0x90, 0x3a, 0x7d, 0x3e,
  0x40, 0xed, 0x26, 0xbe, 0xbc, 0x5a, 0x65, 0x3f, 0x79, 0x4e, 0x63, 0xbf,
  0xe7, 0x3b, 0x1a, 0x40, 0x7f, 0xf1, 0x40, 0xc0, 0xb7, 0x25, 0x04, 0x3d,
  0xfb, 0x2b, 0xcd, 0x3f, 0xf4, 0x58, 0x06, 0xbf, 0x38, 0x07, 0x76, 0x3f,
  0x4c, 0x21, 0x31, 0xbe, 0x1d, 0x8f, 0x8f, 0xbf, 0x80, 0x3c, 0x1f, 0xbf,
  0x1f, 0x95, 0x83, 0x3f, 0x50, 0xd2, 0xd3, 0x3f, 0x5e, 0xad, 0xc2, 0xbe,
  0x3b, 0xd3, 0x8d, 0x3f, 0x96, 0x9f, 0x34, 0xbf, 0xf4, 0x91, 0x9d, 0xbf,
  0xdb, 0x34, 0xa9, 0x3f, 0x70, 0x87, 0x27, 0x40, 0x9f, 0x5c, 0x8a, 0x3e,
  0xef, 0x0d, 0x28, 0xc0, 0x59, 0x44, 0xe6, 0x3f, 0x35, 0x89, 0x8e, 0xbf,
  0x0a, 0x28, 0x0d, 0xbf, 0x1f, 0x0d, 0x43, 0xbf, 0x19, 0xc2, 0x3b, 0x3f,
  0xd4, 0x02, 0xb4, 0xbe, 0x01, 0x28, 0xd7, 0xbe, 0x98, 0xd9, 0xba, 0x3f,
  0x2b, 0xff, 0xdb, 0xbe, 0x79, 0x85, 0xa6, 0x3e, 0xeb, 0x04, 0x84, 0xbe,
  0x6b, 0x52, 0x68, 0xbe, 0x13, 0xf9, 0x85, 0xbf, 0x29, 0x39, 0x28, 0xbe,
  0x2e, 0xc4, 0x78, 0x3f, 0x83, 0xfc, 0xbf, 0xbf, 0x8e, 0xa6, 0x8e, 0x3e,
  0xf3, 0x01, 0x8f, 0x3e, 0xa5, 0xfd, 0x00, 0xbf, 0x1b, 0xe9, 0x3c, 0x3c,
  0xa4, 0xac, 0x54, 0x39, 0x89, 0xd5, 0xc8, 0xbf, 0xaf, 0xeb, 0x08, 0x3f,
  0x65, 0x0e, 0x26, 0x3f, 0x32, 0xbe, 0xb3, 0xbf, 0xa5, 0x85, 0x5a, 0xbf,
  0x2d, 0x80, 0x95, 0x3f, 0x3b, 0x94, 0xf8, 0x3f, 0xac, 0xad, 0xa3, 0x3f,
  0x8d, 0xb9, 0x09, 0xc0, 0xb0, 0x42, 0xb8, 0x3e, 0xf8, 0xab, 0x6f, 0xbf,
  0xe5, 0x77, 0xfe, 0x3e, 0x54, 0xcf, 0x3f, 0x3f, 0x20, 0xee, 0xfe, 0x3e,
  0xc4, 0x6b, 0x03, 0x40, 0x5e, 0x85, 0x78, 0x3f, 0x4b, 0x56, 0x8b, 0xbe,
  0xf9, 0x06, 0xb8, 0xbe, 0x4a, 0xb8, 0x38, 0x3d, 0x78, 0x7b, 0x4a, 0x3f,
  0x4f, 0xc2, 0xc2, 0x3e, 0x1c, 0x61, 0xb6, 0x3e, 0xe9, 0x68, 0x10, 0xbf,
  0x7d, 0x11, 0x04, 0xbf, 0x7c, 0x2e, 0x85, 0xbf, 0x86, 0x0d, 0xbb, 0x3f,
  0x34, 0xd5, 0xb7, 0xbc, 0xc9, 0xb4, 0x8b, 0xbd, 0x4b, 0x59, 0xe6, 0xbe,
  0x0c, 0x89, 0x54, 0xbe, 0xbe, 0x7a, 0xa6, 0xbf, 0x05, 0x77, 0x60, 0xbf,
  0xe3, 0x65, 0xdd, 0x3f, 0x6a, 0x61, 0xb6, 0xbf, 0x72, 0x0f, 0x7a, 0xbc,
  0xa9, 0xcd, 0x34, 0xbe, 0x05, 0x8b, 0x6d, 0x3f, 0x5c, 0xbe, 0x06, 0xbe,
  0x40, 0xbc, 0x15, 0x3f, 0x13, 0x5b, 0x8b, 0x3f, 0x89, 0xfa, 0x1a, 0x3f,
  0xe3, 0x8f, 0xae, 0xbf, 0xe0, 0x5d, 0x96, 0xbd, 0xc3, 0x22, 0x3c, 0xbf,
  0x10, 0x3d, 0x98, 0x3f, 0x24, 0xff, 0xe2, 0x3f, 0xa8, 0x40, 0x35, 0x3e,
  0x7f, 0xca, 0x89, 0xbe, 0xf0, 0x55, 0x1b, 0xbd, 0x47, 0xca, 0x42, 0xbf,
  0x5c, 0x00, 0x42, 0x3f, 0xe1, 0x4b, 0x17, 0x3f, 0xd1, 0x2d, 0x5f, 0xbf,
  0x12, 0x59, 0x5c, 0xbf, 0x1d, 0xc0, 0xea, 0xbf, 0x8c, 0x64, 0xae, 0xbf,
  0x93, 0xd5, 0xb8, 0xc0, 0x32, 0xad, 0xc7, 0xbf, 0x80, 0xd0, 0x0e, 0x3e,
  0xc1, 0xc0, 0xeb, 0x3f, 0x22, 0x32, 0x81, 0xbf, 0x2b, 0xa5, 0xa3, 0xbf,
  0x2b, 0xd6, 0x3f, 0xbf, 0xa7, 0x85, 0xbd, 0xbc, 0x06, 0xb4, 0x3a, 0xbf,
  0xc8, 0xde, 0x21, 0x40, 0xb4, 0xe1, 0x39, 0x3e, 0xf9, 0x10, 0xee, 0x3e,
  0x0e, 0x8f, 0x78, 0xbf, 0x19, 0x86, 0xbb, 0x3e, 0x5f, 0x57, 0xab, 0xbf,
  0x46, 0x6d, 0x39, 0x3f, 0x4b, 0x5d, 0x14, 0x3f, 0x26, 0xfd, 0xbe, 0xbf,
  0x20, 0xd9, 0xe9, 0x3e, 0x56, 0x47, 0x29, 0x3e, 0x33, 0x3e, 0xa5, 0x3f,
  0x2f, 0x9e, 0xa0, 0xbf, 0xf1, 0x7d, 0xdf, 0xbf, 0x86, 0x88, 0xc5, 0x3d,
  0x8d, 0x36, 0x9c, 0x3e, 0x52, 0xdc, 0xe7, 0xbe, 0xa4, 0xe8, 0x2b, 0xbf,
  0x05, 0xef, 0x8e, 0x3f, 0xe2, 0x9e, 0x3a, 0x3f, 0xc3, 0x94, 0x0f, 0x3f,
  0x09, 0x96, 0x7d, 0x3f, 0xc7, 0xae, 0x2f, 0x3e, 0x8a, 0x86, 0xa2, 0x3f,
  0xa1, 0xdc, 0x41, 0xbf, 0x04, 0x6f, 0x08, 0x3f, 0xf1, 0xc7, 0x40, 0x3f,
  0xfa, 0xb7, 0xe4, 0xbf, 0x0e, 0x96, 0x09, 0xbf, 0x6c, 0x4a, 0x80, 0xbe,
  0xe9, 0x92, 0xcd, 0xbf, 0xd8, 0x54, 0x8e, 0xbf, 0xd8, 0xe5, 0xc5, 0x3f,
  0xf4, 0x31, 0xae, 0x3e, 0xf9, 0xc5, 0xaa, 0xbe, 0x77, 0x4c, 0xda, 0x3f,
  0x79, 0x1d, 0xc2, 0xbf, 0x7b, 0x43, 0xb5, 0x3f, 0x77, 0x05, 0xa3, 0x3f,
  0x33, 0x1c, 0x92, 0x3f, 0x7b, 0xf9, 0x8e, 0x3f, 0x38, 0x6a, 0x5a, 0x3d,
  0xfa, 0xa5, 0xb2, 0x3e, 0xe2, 0x5f, 0x11, 0xbf, 0xdd, 0x34, 0x6d, 0x3f,
  0xbe, 0x97, 0xb9, 0x3e, 0xee, 0xcb, 0xd4, 0x3f, 0xea, 0x2b, 0xf3, 0xbe,
  0x45, 0xc7, 0xa9, 0x3f, 0xe9, 0xec, 0x20, 0xc0, 0xc6, 0xad, 0x98, 0x3e,
  0xdd, 0xab, 0xcc, 0x3f, 0xb4, 0x54, 0x07, 0x3e, 0x4d, 0x4f, 0xbd, 0x3e,
  0xde, 0xcf, 0xb9, 0xbd, 0x86, 0xa5, 0x18, 0xc0, 0x4d, 0xee, 0xc3, 0xbf,
  0x71, 0xb4, 0x2a, 0x3f, 0x12, 0x01, 0xcb, 0xbf, 0x6c, 0x6f, 0x27, 0xc0,
  0x7e, 0x9e, 0x7e, 0xbf, 0x20, 0x6c, 0xf7, 0xbe, 0x6c, 0x30, 0x92, 0xbf,
  0x34, 0x7e, 0x1f, 0xbf, 0x7f, 0x80, 0x3a, 0x3e, 0x6a, 0x2e, 0xf2, 0xbf,
  0xc1, 0xe1, 0x6b, 0xbe, 0x56, 0xc6, 0xde, 0xbe, 0x56, 0x1e, 0xb1, 0xbe,
  0xbc, 0x58, 0x09, 0xbf, 0xa2, 0x87, 0x88, 0x3f, 0x3a, 0xfe, 0x99, 0x3f,
  0xb5, 0x57, 0xc7, 0x3f, 0x19, 0x4d, 0x8a, 0x3f, 0xdd, 0xcc, 0xcc, 0x3d,
  0x6c, 0xd2, 0x18, 0x40, 0x6b, 0xcc, 0x09, 0xc0, 0x11, 0xe7, 0xb4, 0x3f,
  0xeb, 0xbe, 0xee, 0x3e, 0xd8, 0x04, 0xa4, 0x3f, 0xaf, 0x68, 0xa3, 0x3f,
  0x08, 0x04, 0xb1, 0xbf, 0x04, 0x6a, 0xd9, 0xbf, 0x44, 0xa3, 0x32, 0xbe,
  0x3f, 0x50, 0x3c, 0x3f, 0x38, 0x32, 0x05, 0x40, 0x11, 0x32, 0xce, 0x3f,
  0xaf, 0xd7, 0xf5, 0xbf, 0x9b, 0x4b, 0xbb, 0x3f, 0x65, 0xd1, 0x28, 0x40,
  0xdf, 0x74, 0xb2, 0xbf, 0xd2, 0xca, 0x0b, 0x3e, 0x33, 0xa3, 0xac, 0x3f,
  0x59, 0x00, 0xa6, 0x3e, 0x91, 0xe4, 0x88, 0xbd, 0x44, 0xb3, 0x20, 0x40,
  0xb9, 0x80, 0xdb, 0xbd, 0x09, 0x00, 0x42, 0xbf, 0x2f, 0x56, 0x99, 0xbe,
  0x42, 0x4b, 0x18, 0x3d, 0x49, 0xff, 0x0b, 0xbf, 0xd3, 0x3f, 0xb1, 0xbe,
  0x19, 0x54, 0xe4, 0xbe, 0xc2, 0xf4, 0x52, 0xbf, 0xb3, 0x30, 0xcc, 0x3f,
  0xca, 0xb4, 0xff, 0x3e, 0x8c, 0x86, 0x88, 0x3e, 0xc8, 0xf7, 0x22, 0xc0,
  0x9c, 0xe3, 0x3d, 0x3f, 0x58, 0x8d, 0x2c, 0x40, 0x3f, 0x8e, 0x0f, 0xbd,
  0x6f, 0x25, 0x76, 0x3f, 0x97, 0xd7, 0x90, 0xbf, 0xe1, 0x5a, 0x06, 0x40,
  0xff, 0x53, 0xf7, 0x3f, 0x66, 0xe1, 0x9a, 0x3e, 0x3d, 0xc8, 0xf0, 0x3f,
  0xb9, 0x9f, 0x31, 0x3f, 0x0b, 0xc2, 0x74, 0x3f, 0x10, 0xbb, 0x10, 0xbf,
  0xab, 0xbc, 0x83, 0xbf, 0x89, 0x4f, 0x76, 0x3f, 0x7b, 0xda, 0xa4, 0xbf,
  0x75, 0x37, 0x4a, 0x3f, 0xd6, 0x9a, 0x86, 0xbe, 0xcd, 0x55, 0xd1, 0xbe,
  0xc4, 0xf9, 0x29, 0xbf, 0x22, 0xd9, 0x28, 0x3e, 0x67, 0x72, 0x14, 0x3f,
  0xf2, 0x7a, 0x4d, 0xbe, 0x17, 0x16, 0x45, 0xbf, 0xf3, 0x54, 0x4e, 0xbf,
  0x93, 0x40, 0x27, 0x3f, 0x18, 0x62, 0xe7, 0xbf, 0x92, 0xa6, 0xcb, 0x3f,
  0xb7, 0x5c, 0x45, 0xbf, 0x2e, 0xc9, 0x85, 0xbd, 0x5c, 0xb6, 0xc0, 0xbe,
  0x75, 0xa4, 0xcd, 0xbe, 0x6a, 0x2d, 0x0d, 0x40, 0xfd, 0x14, 0x02, 0xc0,
  0xdf, 0x87, 0xc9, 0x3e, 0xb4, 0x4d, 0x9a, 0xbf, 0x03, 0x26, 0x2a, 0xbf,
  0x30, 0xc8, 0x05, 0xbe, 0xa3, 0x36, 0xf0, 0xbe, 0x84, 0x2e, 0x4b, 0xbf,
  0x15, 0x1e, 0xac, 0xbe, 0xe0, 0x50, 0x25, 0xbf, 0x8b, 0xcc, 0x5c, 0x40,
  0xec, 0xdc, 0x4b, 0xbf, 0xe5, 0x3a, 0x8f, 0x3f, 0xec, 0xd3, 0xbb, 0x3f,
  0x53, 0x5f, 0xcb, 0xbf, 0xdf, 0xc3, 0x08, 0x40, 0xec, 0xdd, 0xb0, 0xbf,
  0x62, 0xb8, 0x1c, 0x40, 0x38, 0x59, 0x24, 0xbf, 0xa0, 0x3f, 0x18, 0xbf,
  0x98, 0xd3, 0x08, 0x40, 0x12, 0x4b, 0xba, 0xbf, 0x91, 0xfa, 0xc7, 0x3f,
  0x44, 0x1d, 0x2a, 0x3f, 0x03, 0x2a, 0x89, 0x3e, 0x6e, 0x51, 0xf5, 0x3e,
  0xc4, 0x1c, 0xac, 0x3f, 0x42, 0xc2, 0xae, 0xbd, 0xbc, 0xb2, 0x9e, 0x3f,
  0x76, 0x18, 0x62, 0xbf, 0xaa, 0x29, 0x41, 0x3f, 0xc7, 0xfa, 0xd7, 0x3f,
  0xe0, 0xc8, 0x71, 0x3f, 0xb5, 0x4e, 0x20, 0x40, 0x72, 0xdf, 0x46, 0xbf,
  0xe7, 0xca, 0xe7, 0xbf, 0x04, 0x33, 0x3c, 0xbe, 0xce, 0xe6, 0xfe, 0x3e,
  0xf2, 0xed, 0x3e, 0x3f, 0xb8, 0xe3, 0x1a, 0x40, 0xa1, 0x38, 0x5f, 0xbf,
  0x28, 0x84, 0x4c, 0xbf, 0xcd, 0x48, 0x51, 0x40, 0x2b, 0xdb, 0x80, 0x3f,
  0x22, 0xdc, 0xf0, 0xbf, 0x15, 0x68, 0xb0, 0x3f, 0x0c, 0x76, 0x3b, 0xbf,
  0x74, 0xe3, 0x63, 0xbf, 0xe7, 0xf3, 0x96, 0x3f, 0x58, 0xc5, 0x00, 0xbe,
  0x09, 0xcd, 0xc9, 0x3f, 0xb5, 0x3d, 0x15, 0x3f, 0x5a, 0xea, 0xf7, 0xbd,
  0x73, 0xb4, 0x66, 0x3e, 0x29, 0xea, 0x85, 0xbf, 0xab, 0x2f, 0x94, 0xbf,
  0xf8, 0xd5, 0xec, 0x3d, 0xdd, 0xa2, 0x06, 0xbf, 0x7a, 0x81, 0xd7, 0xbf,
  0x98, 0xa8, 0x29, 0xc0, 0xdc, 0x3b, 0x8e, 0xc0, 0x5c, 0x08, 0x99, 0x3f,
  0xc7, 0x0f, 0x59, 0xbe, 0x0d, 0x53, 0x9f, 0xbf, 0xf2, 0x0b, 0x92, 0xbe,
  0x6d, 0x1b, 0x35, 0x3d, 0x0d, 0x21, 0x98, 0x3f, 0xb9, 0xba, 0x6b, 0x3f,
  0x9e, 0x20, 0x06, 0xbf, 0xbd, 0x01, 0x13, 0xbf, 0x64, 0xcf, 0x4b, 0xbf,
  0xc6, 0xb0, 0x7b, 0x3f, 0xda, 0x6e, 0xf3, 0xbe, 0xc0, 0xad, 0xb8, 0xbc,
  0x39, 0x62, 0xa2, 0xbf, 0x89, 0xbe, 0x96, 0xbf, 0x53, 0x21, 0xc7, 0xbe,
  0x1b, 0x93, 0xe8, 0x3f, 0xbf, 0x5b, 0x54, 0xbc, 0x6b, 0xbf, 0xbe, 0xbf,
  0x7f, 0xc4, 0xbf, 0xbe, 0x00, 0xbe, 0xdb, 0x3e, 0xa6, 0x74, 0x42, 0xbf,
  0xfb, 0xe9, 0x6c, 0xbf, 0xea, 0x36, 0x84, 0x3f, 0x5c, 0xb8, 0x11, 0x3f,
  0x68, 0xbd, 0xc4, 0xbd, 0xb6, 0x66, 0x51, 0xbe, 0x13, 0xa8, 0xf1, 0xbf,
  0xc3, 0xd0, 0xaf, 0x3f, 0xe9, 0x66, 0xd7, 0x3f, 0x48, 0x30, 0xa8, 0x3e,
  0xd4, 0xa5, 0x13, 0x3f, 0x55, 0x52, 0xed, 0xbe, 0x0d, 0x87, 0x6f, 0x3f,
  0xad, 0xde, 0xcd, 0x3e, 0xac, 0x6e, 0x0b, 0x3f, 0x76, 0x51, 0x21, 0xbf,
  0x16, 0x61, 0xf9, 0xbf, 0x55, 0xa4, 0xab, 0x3e, 0xa0, 0x91, 0xd8, 0x3f,
  0x1e, 0x4d, 0xd9, 0x3e, 0x41, 0x88, 0xf2, 0xbf, 0x33, 0x9f, 0xfd, 0x3e,
  0xae, 0x51, 0x18, 0x3f, 0xbc, 0xdb, 0x48, 0xbf, 0x11, 0xb0, 0x8b, 0x3e,
  0xf7, 0x1a, 0x8f, 0x3e, 0x32, 0x0f, 0x23, 0x40, 0xd5, 0xf7, 0x17, 0xc0,
  0xda, 0x95, 0x02, 0x3e, 0x9e, 0x21, 0x17, 0xc0, 0x3f, 0xd4, 0x69, 0xbf,
  0x2c, 0x3b, 0xff, 0x3c, 0xf2, 0xa6, 0x91, 0x3f, 0x30, 0x32, 0x17, 0x40,
  0xeb, 0xde, 0xcf, 0x3e, 0x17, 0x05, 0x9a, 0xbf, 0x56, 0x71, 0x48, 0x3f,
  0x32, 0x10, 0x86, 0xbf, 0xb2, 0x0a, 0xd6, 0x3e, 0x63, 0xa0, 0x49, 0x3f,
  0x4e, 0xed, 0xb5, 0xbf, 0x67, 0x54, 0x3a, 0xc0, 0x04, 0x30, 0x85, 0x3f,
  0x14, 0xa4, 0x81, 0xbf, 0xd5, 0x9e, 0xd9, 0xbe, 0xe0, 0x20, 0xb6, 0xbf,
  0x8b, 0xc3, 0x3f, 0x40, 0x1a, 0x15, 0x26, 0x40, 0xac, 0x7c, 0x33, 0xbf,
  0x34, 0x48, 0x67, 0xc0, 0x8c, 0xe0, 0x26, 0x3e, 0x2d, 0x24, 0x5e, 0xc0,
  0x16, 0xc4, 0x1c, 0x3f, 0x8f, 0xf9, 0x13, 0x3e, 0x8d, 0x01, 0x05, 0xc0,
  0xbb, 0xde, 0x32, 0x3e, 0xf4, 0x56, 0x49, 0x3e, 0x29, 0x9c, 0x43, 0xbf,
  0x86, 0x25, 0x20, 0x3e, 0x09, 0x22, 0x21, 0x40, 0x0e, 0x41, 0x71, 0x3f,
  0x8b, 0xd2, 0x4f, 0x3f, 0xb9, 0x59, 0x0c, 0xc0, 0x39, 0xb3, 0xa8, 0xbe,
  0x6f, 0x62, 0x48, 0x3f, 0x82, 0xc4, 0xf2, 0x3e, 0xaf, 0x08, 0x2b, 0x40,
  0xd4, 0x51, 0x03, 0xbf, 0x9f, 0x94, 0xd4, 0x3e, 0x8f, 0x27, 0x8c, 0xbf,
  0xf1, 0x9e, 0xd2, 0xbf, 0xfb, 0x4b, 0x67, 0x3f, 0x96, 0x5d, 0x98, 0xbf,
  0x2a, 0x79, 0x07, 0xc0, 0xe8, 0xcb, 0x49, 0x3e, 0xcc, 0x82, 0x31, 0x3e,
  0x18, 0xe2, 0xc1, 0xbf, 0xf6, 0x0e, 0xb1, 0x3e, 0x85, 0x87, 0xa8, 0x3e,
  0xe1, 0x2b, 0x9d, 0xbf, 0xbf, 0x25, 0x4b, 0x3f, 0x1d, 0x1b, 0xa0, 0x3d,
  0xaf, 0xdb, 0xdd, 0xbf, 0x06, 0x80, 0xcb, 0x3f, 0x2c, 0xf1, 0x23, 0xc0,
  0xb3, 0x4a, 0x0d, 0xc0, 0x8b, 0x49, 0x9b, 0x3f, 0x9c, 0x62, 0xa4, 0x3f,
  0x76, 0x71, 0x89, 0x3f, 0x8e, 0x95, 0x39, 0x3f, 0xad, 0xd0, 0x05, 0x40,
  0x01, 0xae, 0x44, 0xc0, 0x3d, 0x40, 0x94, 0x3e, 0xa4, 0x49, 0xf1, 0x3e,
  0xac, 0x18, 0x32, 0xc0, 0x8a, 0xae, 0xa1, 0x3d, 0x1c, 0xa2, 0xe7, 0xbe,
  0x31, 0x27, 0x99, 0x3f, 0x0b, 0x75, 0x5c, 0x40, 0xb0, 0x5b, 0xa3, 0x3f,
  0x78, 0x42, 0x1d, 0x40, 0x6a, 0x94, 0xb7, 0x3f, 0x15, 0x05, 0x27, 0xbe,
  0x1c, 0xbb, 0x02, 0x3f, 0xde, 0xb3, 0xa4, 0x3f, 0x0e, 0x0f, 0x89, 0x3f,
  0x19, 0x43, 0xa1, 0xbe, 0xee, 0xc9, 0x16, 0xbf, 0x06, 0x6c, 0x54, 0x40,
  0x8e, 0xa3, 0xba, 0x3e, 0xf7, 0x26, 0xbe, 0x3d, 0xe4, 0xad, 0x30, 0xbe,
  0x45, 0xd6, 0x96, 0x3e, 0x68, 0xbd, 0x49, 0x40, 0x0c, 0x13, 0x34, 0x40,
  0xda, 0x5d, 0x25, 0xc0, 0x18, 0x5d, 0xf0, 0x3f, 0xde, 0x17, 0xaa, 0x3e,
  0x4a, 0x29, 0x84, 0xbf, 0x11, 0xb2, 0x8f, 0x3f, 0x05, 0xa1, 0x81, 0xbd,
  0xf4, 0x18, 0xdb, 0x3e, 0xb4, 0x85, 0xaf, 0x3f, 0x99, 0x7d, 0xd8, 0xbf,
  0x48, 0x54, 0xba, 0x3e, 0x70, 0xb8, 0x90, 0xbf, 0x73, 0x38, 0x08, 0xbf,
  0xe5, 0xf3, 0xe7, 0xbe, 0xa7, 0x84, 0xd6, 0x3f, 0xf1, 0x6e, 0x0c, 0xc0,
  0x9b, 0xed, 0x2d, 0x40, 0x42, 0x3c, 0x3f, 0xbf, 0x4c, 0x4e, 0xb2, 0x3f,
  0xe0, 0x3e, 0xa1, 0x3f, 0x6e, 0x7d, 0x0d, 0xbf, 0xef, 0xa0, 0xe5, 0xbe,
  0xde, 0xa5, 0x0b, 0xc0, 0xfe, 0x97, 0x30, 0x3e, 0xcd, 0x5e, 0x99, 0xbf,
  0x53, 0xbe, 0xec, 0xbe, 0x21, 0x17, 0x91, 0x40, 0x5c, 0x09, 0x8f, 0xbf,
  0x55, 0x10, 0x45, 0xbf, 0xaf, 0x48, 0x6c, 0xbe, 0x2e, 0xa0, 0xf7, 0x3c,
  0x92, 0x3f, 0x18, 0xbf, 0xe3, 0x40, 0x0d, 0x40, 0x9d, 0x81, 0x65, 0xbf,
  0xc9, 0x52, 0xee, 0xbe, 0xda, 0x0a, 0x47, 0xc0, 0x02, 0xf0, 0xaa, 0xbf,
  0x30, 0xde, 0x2e, 0x3e, 0x74, 0x55, 0x06, 0x3f, 0xf7, 0x12, 0x42, 0x3f,
  0xe3, 0x09, 0x07, 0x3f, 0x71, 0x99, 0x92, 0x3f, 0x9a, 0xa1, 0x4b, 0xbf,
  0xbf, 0xcf, 0xc6, 0x3e, 0x74, 0xd7, 0x11, 0xc0, 0xcb, 0x5e, 0x91, 0xbe,
  0x7f, 0xa5, 0xfd, 0x3f, 0x46, 0x5f, 0x88, 0xbf, 0xce, 0x1c, 0x38, 0x3e,
  0xc3, 0x7b, 0x9d, 0xbf, 0x26, 0xd6, 0x20, 0x40, 0xb3, 0xc8, 0x08, 0x40,
  0xd8, 0x9a, 0xf2, 0xbe, 0xd8, 0x28, 0x1f, 0xbe, 0xe3, 0x8f, 0xe2, 0x3e,
  0x58, 0x7d, 0x2e, 0xbe, 0x89, 0xca, 0xe7, 0x3f, 0xa3, 0xab, 0x2b, 0xc0,
  0x80, 0x76, 0xf9, 0x3f, 0x1e, 0x49, 0x1a, 0x40, 0xbb, 0x42, 0xa8, 0xbe,
  0x32, 0xf1, 0xc7, 0x3f, 0xdd, 0x88, 0x6e, 0x3f, 0xc4, 0xca, 0x21, 0x40,
  0x31, 0xb6, 0xd0, 0x3f, 0x13, 0x96, 0x13, 0xbf, 0x06, 0x54, 0xc9, 0x3f,
  0xee, 0x00, 0xf9, 0x3f, 0xfd, 0x6b, 0xa0, 0xbf, 0x6b, 0x72, 0x16, 0xbf,
  0x1f, 0x33, 0x00, 0xc0, 0x65, 0x5b, 0xeb, 0xbe, 0xa1, 0x68, 0x64, 0x40,
  0x88, 0xb6, 0x14, 0xc0, 0xb0, 0x0e, 0x2a, 0xbf, 0x77, 0x17, 0xcd, 0xbe,
  0x69, 0x6e, 0x75, 0x40, 0x99, 0xe7, 0x38, 0xc0, 0x7c, 0x5f, 0xa6, 0xbf,
  0xf1, 0xcf, 0xc4, 0x40, 0x6e, 0x3c, 0xe0, 0xbe, 0xb1, 0xf0, 0x49, 0x40,
  0x00, 0x44, 0x6d, 0xbf, 0x86, 0x13, 0x9e, 0xbf, 0x38, 0xb6, 0xa5, 0xbf,
  0xff, 0x7f, 0x0f, 0x3e, 0x2c, 0x6c, 0x43, 0xbf, 0xaf, 0x06, 0x4c, 0xbf,
  0xa3, 0xed, 0x95, 0xbf, 0x45, 0x1e, 0x20, 0xbe, 0xf9, 0x2d, 0x97, 0xbf,
  0x19, 0xe0, 0x07, 0xc0, 0xa8, 0x5e, 0x9f, 0x40, 0x3f, 0x34, 0x15, 0xc0,
  0x44, 0xe1, 0x7a, 0x3f, 0x37, 0x70, 0xa7, 0xbd, 0xae, 0x69, 0x1b, 0xc0,
  0x29, 0x91, 0xc8, 0x3f, 0x12, 0xf3, 0x3d, 0xc0, 0x50, 0x9c, 0x54, 0xc0,
  0x73, 0x6c, 0xf1, 0xbf, 0x64, 0xab, 0xf0, 0x3f, 0x8c, 0x5f, 0x48, 0xbd,
  0x97, 0xc1, 0xe8, 0x3f, 0x39, 0x31, 0x02, 0x40, 0x7e, 0x8f, 0x01, 0xbf,
  0x46, 0xc3, 0xe0, 0x3f, 0xb6, 0xa8, 0xa3, 0xbe, 0xcc, 0x2a, 0x49, 0x3f,
  0x85, 0x06, 0x97, 0xbe, 0xf4, 0x06, 0x8f, 0x3e, 0xc5, 0x47, 0x04, 0x40,
  0x96, 0xf9, 0x13, 0xbf, 0xa4, 0x54, 0x3e, 0xbf, 0xd7, 0xed, 0x3b, 0xbf,
  0x74, 0x74, 0x09, 0xbf, 0x5b, 0x66, 0x37, 0xbe, 0x51, 0x8b, 0xbc, 0x3f,
  0xd0, 0x74, 0x87, 0xbc, 0x90, 0xf2, 0x3f, 0x3f, 0xa2, 0x75, 0x4a, 0x3f,
  0x61, 0x9e, 0x5d, 0xbe, 0x85, 0x39, 0xcc, 0x3f, 0x6f, 0xb4, 0x24, 0xbf,
  0x69, 0xc0, 0xad, 0xbf, 0xdc, 0x6b, 0x00, 0x3f, 0x41, 0x7d, 0xae, 0xbe,
  0x37, 0x8b, 0x6e, 0xbe, 0xf2, 0x0f, 0x38, 0xbf, 0xb1, 0x50, 0xa7, 0xbf,
  0x26, 0xf9, 0x86, 0x3e, 0x81, 0xf4, 0x38, 0xbf, 0xc2, 0xea, 0x93, 0xbf,
  0x88, 0x94, 0x92, 0xbe, 0xc2, 0xb3, 0x92, 0xbf, 0x73, 0x0c, 0x60, 0xbe,
  0x88, 0x1e, 0x83, 0x40, 0x0a, 0x67, 0x46, 0x40, 0x8e, 0x6c, 0x92, 0x3f,
  0x70, 0x84, 0x99, 0x3f, 0xb3, 0x4f, 0x1a, 0x3f, 0x60, 0xbc, 0x92, 0x3f,
  0x5e, 0xf1, 0xbf, 0x3e, 0xac, 0xec, 0xaa, 0x3f, 0xb4, 0x3c, 0x84, 0xbe,
  0x5b, 0x3e, 0x31, 0xc0, 0xb9, 0xe6, 0xc8, 0x3f, 0x04, 0x99, 0xca, 0x3f,
  0xdd, 0x40, 0x54, 0xc0, 0x89, 0x57, 0x43, 0x3e, 0xb4, 0x47, 0xa5, 0x3f,
  0xb9, 0xc5, 0xd6, 0x3c, 0x46, 0x69, 0xe0, 0xbd, 0x63, 0xe9, 0xfb, 0xbf,
  0xfc, 0xf1, 0x2d, 0x3f, 0xcc, 0x2b, 0x9a, 0x3f, 0xaf, 0x66, 0xf7, 0x3f,
  0x85, 0xe0, 0xc3, 0x3f, 0x2c, 0x81, 0xb2, 0x3f, 0x47, 0x2a, 0x6a, 0x3f,
  0x79, 0x81, 0xaa, 0x3d, 0xcd, 0xd1, 0x1b, 0x3e, 0x25, 0xce, 0x5a, 0x3f,
  0x09, 0x84, 0x8b, 0xbf, 0xcc, 0x72, 0x2b, 0xbe, 0xc7, 0xfd, 0xda, 0x3f,
  0x1a, 0x61, 0xfa, 0xbf, 0x0c, 0x97, 0xfd, 0xbe, 0xd1, 0x94, 0x89, 0xbf,
  0x52, 0x24, 0x13, 0xbf, 0x7a, 0xbd, 0xa1, 0x3e, 0xee, 0x81, 0xfc, 0x3e,
  0x9b, 0x27, 0xd0, 0x3e, 0x1f, 0x39, 0x07, 0xbe, 0xd7, 0x9a, 0xaf, 0xbe,
  0x0e, 0xe4, 0x3a, 0xbe, 0x59, 0xd9, 0xe9, 0x3d, 0x16, 0x2a, 0x17, 0x3e,
  0x6e, 0xc8, 0x06, 0x40, 0x18, 0x73, 0x6e, 0x3f, 0x12, 0xb6, 0x91, 0x3e,
  0x6c, 0x94, 0x13, 0xbf, 0x03, 0x3e, 0x29, 0x3e, 0xd5, 0x19, 0x29, 0x3e,
  0x20, 0x10, 0xd5, 0xbf, 0xf2, 0x5e, 0xa5, 0xbf, 0xf0, 0x6d, 0xc0, 0xbf,
  0x90, 0xe3, 0x8d, 0xbf, 0xec, 0x77, 0x16, 0x40, 0x7c, 0xa7, 0x0b, 0xbf,
  0xd1, 0xf5, 0xfc, 0xbe, 0xc0, 0x00, 0xa8, 0xbf, 0x6b, 0x98, 0xb0, 0xbf,
  0xa0, 0x7c, 0x6e, 0x3f, 0x66, 0x55, 0x97, 0x3e, 0x65, 0x4d, 0x8c, 0xbe,
  0xf9, 0xdf, 0x00, 0x40, 0x84, 0x46, 0x47, 0xbe, 0x09, 0xe9, 0xf0, 0x3f,
  0x68, 0x21, 0xc6, 0x3f, 0xe5, 0xce, 0x7c, 0xc0, 0xb7, 0x11, 0x04, 0xc0,
  0x0f, 0xed, 0x11, 0xc0, 0xcb, 0x3f, 0x26, 0x40, 0x73, 0x68, 0x55, 0xc0,
  0x30, 0x45, 0x97, 0x3f, 0xce, 0x74, 0x51, 0xbf, 0xd1, 0xd9, 0x3e, 0xbe,
  0xe4, 0x45, 0xac, 0xc0, 0x59, 0xdd, 0xd9, 0xbf, 0x2f, 0xb5, 0x9e, 0xbe,
  0x32, 0xf7, 0xe1, 0x3f, 0x73, 0x87, 0x6d, 0x3e, 0x9d, 0x03, 0x96, 0xbf,
  0xac, 0xa2, 0x26, 0x40, 0x96, 0x34, 0xe1, 0x3f, 0xa5, 0xe3, 0x26, 0x3f,
  0xcc, 0xd5, 0x92, 0xbe, 0xb9, 0x30, 0xa1, 0x3f, 0xb5, 0xef, 0xe1, 0xbf,
  0x91, 0x3c, 0x08, 0x3e, 0xf9, 0x62, 0x40, 0xc0, 0x5e, 0x36, 0x0f, 0xc0,
  0x8d, 0x4f, 0x92, 0xc0, 0x9e, 0x0f, 0x30, 0x3f, 0x71, 0xb8, 0x00, 0x40,
  0x80, 0xb5, 0x5f, 0xc0, 0xfa, 0xe4, 0x61, 0xbf, 0xaf, 0x6c, 0x14, 0xc0,
  0xf5, 0xfd, 0xbc, 0x3f, 0x01, 0xef, 0x21, 0xbf, 0xdc, 0x56, 0xaa, 0x3f,
  0x2d, 0x28, 0xa1, 0xc0, 0xb2, 0xe9, 0x20, 0x40, 0xae, 0x86, 0x16, 0xc0,
  0x67, 0x3c, 0x00, 0xc0, 0xa4, 0xdd, 0x4d, 0x40, 0x32, 0x74, 0x6f, 0xc0,
  0x5b, 0x2e, 0x10, 0xc0, 0x20, 0x8d, 0xb7, 0xc0, 0x04, 0x35, 0xf6, 0xbf,
  0x78, 0x07, 0x49, 0x40, 0xae, 0x40, 0x84, 0xc0, 0xa8, 0x6d, 0x23, 0xc0,
  0x20, 0x1d, 0x03, 0xbe, 0xdc, 0x59, 0xa9, 0x3f, 0x78, 0x30, 0x93, 0xbf,
  0xc1, 0x1d, 0xca, 0xbe, 0x18, 0xd0, 0x4a, 0x3e, 0x8b, 0x8c, 0x6f, 0x40,
  0x66, 0xea, 0xd1, 0xc0, 0x47, 0xd6, 0x56, 0xbf, 0xdd, 0x10, 0x86, 0x40,
  0xb6, 0xb9, 0xbe, 0x3e, 0x61, 0x65, 0x58, 0xbf, 0x75, 0xc4, 0x7d, 0x3f,
  0xbf, 0x73, 0x19, 0xc0, 0x0e, 0x16, 0x44, 0x3f, 0x20, 0x87, 0x28, 0xc0,
  0xa8, 0xfa, 0x09, 0xc0, 0x36, 0xce, 0xa9, 0x40, 0xf6, 0x34, 0xea, 0x3d,
  0x51, 0x10, 0xa3, 0x3f, 0xf6, 0xf3, 0x4e, 0x40, 0x46, 0xbd, 0x6b, 0xc0,
  0x79, 0x55, 0x82, 0xbf, 0x14, 0x51, 0xac, 0xc0, 0xfa, 0xa1, 0x04, 0x40,
  0x8c, 0x6d, 0x86, 0x3f, 0x48, 0xc1, 0x18, 0xc0, 0x15, 0x52, 0x8d, 0xbf,
  0x94, 0xb8, 0x0a, 0x40, 0x60, 0xa7, 0x74, 0xc0, 0xc9, 0xf4, 0xa3, 0x3e,
  0x48, 0x58, 0x38, 0xbf, 0x2e, 0x6e, 0x94, 0xbf, 0x9a, 0x1d, 0xa5, 0x40,
  0x73, 0x58, 0x0f, 0xbf, 0xec, 0x17, 0xa7, 0x3f, 0x28, 0x27, 0xbc, 0x3f,
  0xbb, 0xdf, 0x59, 0xbe, 0x02, 0x37, 0xd6, 0xbf, 0x75, 0xc8, 0x50, 0x40,
  0xaf, 0x23, 0x35, 0xc0, 0x99, 0xc0, 0x18, 0xc0, 0xc6, 0xa4, 0x04, 0xc0,
  0x30, 0x7c, 0x5a, 0xc0, 0xc0, 0x1b, 0xef, 0xc0, 0x60, 0xcb, 0xd5, 0x3f,
  0xd8, 0x41, 0x60, 0x40, 0x36, 0xd2, 0x3b, 0xc0, 0x94, 0xc4, 0x00, 0xc0,
  0xfd, 0xc3, 0x78, 0xbf, 0xd8, 0x2b, 0x98, 0x3f, 0xac, 0x39, 0xe6, 0xbf,
  0x28, 0x26, 0xc8, 0xbf, 0x84, 0xfe, 0xaa, 0xbe, 0xc5, 0x03, 0x8e, 0x40,
  0x6c, 0x41, 0x2e, 0x40, 0x8a, 0x22, 0xe7, 0xbd, 0x5f, 0x11, 0x21, 0xc0,
  0xd2, 0xff, 0x45, 0x3f, 0x16, 0x21, 0x86, 0x3f, 0x9b, 0x50, 0x1f, 0x3f,
  0x1a, 0x7a, 0x5c, 0xbf, 0x8d, 0xa8, 0x92, 0xbf, 0x07, 0xc6, 0x1d, 0x3f,
  0x74, 0x2a, 0x6f, 0x40, 0x96, 0x2e, 0x8e, 0xbe, 0xf9, 0x17, 0x14, 0x3e,
  0x69, 0xda, 0x6d, 0xc0, 0x06, 0x30, 0x05, 0xc0, 0x7f, 0x59, 0x2f, 0x40,
  0x4a, 0x5a, 0x4f, 0x40, 0xd6, 0xbe, 0xdb, 0xbf, 0x6f, 0xca, 0xa1, 0x3f,
  0xf1, 0x7f, 0xea, 0xbf, 0x66, 0xfb, 0x0e, 0x40, 0xb1, 0x57, 0xca, 0x3f,
  0xd5, 0xdb, 0xd9, 0x3e, 0x3e, 0x07, 0xe3, 0xbf, 0x01, 0xe4, 0x36, 0x3f,
  0xa3, 0xa6, 0x5f, 0x3f, 0xeb, 0x3f, 0xac, 0x3f, 0x7c, 0x68, 0x47, 0x40,
  0xdc, 0x5b, 0x0c, 0xc0, 0x8f, 0x1e, 0x07, 0x3f, 0x4a, 0xf3, 0xaf, 0x3f,
  0x6d, 0xf7, 0x0e, 0xc0, 0xda, 0xad, 0x06, 0x40, 0xdc, 0xc9, 0x04, 0x40,
  0xf6, 0x3a, 0x18, 0xbf, 0xeb, 0x9c, 0x55, 0xc0, 0x6f, 0xed, 0x86, 0x40,
  0xaa, 0xe1, 0xc2, 0x3f, 0x87, 0xfd, 0x14, 0x40, 0x99, 0xda, 0x71, 0x40,
  0x36, 0x4d, 0xf2, 0xbf, 0x91, 0xf5, 0x6a, 0x40, 0xc0, 0x9e, 0x75, 0x40,
  0x80, 0xe2, 0xdd, 0xbf, 0x51, 0xdc, 0xe7, 0xbf, 0xea, 0x89, 0x03, 0xc0,
  0x1c, 0x53, 0x03, 0xc0, 0x53, 0x5d, 0x03, 0x40, 0x14, 0x75, 0xc1, 0xbf,
  0xf6, 0xed, 0xff, 0xff, 0x04, 0x00, 0x00, 0x00, 0x20, 0x00, 0x00, 0x00,
  0xf6, 0xca, 0xbc, 0xbc, 0x90, 0x11, 0x11, 0xbd, 0xb5, 0x7e, 0x81, 0xbd,
  0xd5, 0xa3, 0x2e, 0x3c, 0xee, 0x2b, 0x56, 0xbc, 0xd6, 0xef, 0x5d, 0x3c,
  0xa4, 0x00, 0x14, 0xbd, 0xf5, 0x85, 0xdf, 0xbc, 0x22, 0xee, 0xff, 0xff,
  0x04, 0x00, 0x00, 0x00, 0x00, 0x04, 0x00, 0x00, 0xfe, 0x03, 0x59, 0xbf,
  0xf1, 0xc7, 0x72, 0xbf, 0x33, 0x49, 0x3a, 0x40, 0x34, 0xbb, 0x43, 0xc0,
  0x7c, 0x99, 0x4b, 0xc0, 0xa4, 0x2f, 0xa9, 0xc0, 0xfa, 0xc4, 0xf3, 0xbe,
  0x55, 0xd7, 0x45, 0x3f, 0x9e, 0x8e, 0x88, 0xc0, 0xcb, 0x8e, 0x86, 0xc0,
  0x57, 0xd0, 0xe3, 0x3f, 0xef, 0x28, 0x65, 0x40, 0xea, 0x56, 0x8e, 0x40,
  0xf0, 0x73, 0x48, 0xbe, 0xf2, 0xda, 0xbc, 0xbf, 0x71, 0x1f, 0x79, 0x40,
  0xa9, 0x80, 0xb3, 0xbe, 0xb3, 0x06, 0xa2, 0xbf, 0x27, 0x2a, 0x7b, 0xc0,
  0x1e, 0x42, 0x3d, 0xc0, 0xe2, 0x17, 0x5b, 0xc0, 0x8f, 0x4d, 0xf0, 0xbf,
  0x01, 0x8a, 0x7a, 0x40, 0x26, 0xbf, 0xd3, 0x40, 0x0c, 0x54, 0x29, 0xc0,
  0xb8, 0xdf, 0x90, 0x3f, 0x0a, 0x7b, 0xb2, 0x3f, 0x3d, 0xc7, 0x10, 0xc0,
  0xdf, 0x0e, 0xbe, 0xbf, 0xc4, 0xa0, 0x3b, 0x40, 0x89, 0x20, 0xe7, 0xbd,
  0x97, 0xb6, 0xa5, 0x40, 0x25, 0xf9, 0x85, 0x40, 0x69, 0x9f, 0xed, 0x3f,
  0x7d, 0x54, 0x46, 0xc0, 0x26, 0x59, 0x53, 0x3f, 0x51, 0xe1, 0x9f, 0x3f,
  0xc1, 0xc7, 0xee, 0x3f, 0xf4, 0x73, 0x98, 0x40, 0x7c, 0xe4, 0x17, 0x3e,
  0x1d, 0x23, 0x4d, 0x3f, 0xf1, 0x7b, 0x14, 0x40, 0x4e, 0xce, 0x63, 0xc0,
  0x88, 0x95, 0x28, 0xc0, 0x42, 0x2d, 0x1e, 0xbf, 0x83, 0x9c, 0x1e, 0x40,
  0xd5, 0xf9, 0x88, 0x40, 0xdf, 0xe8, 0x6c, 0x3e, 0x16, 0x6b, 0xb3, 0x40,
  0x85, 0xe0, 0x5d, 0x40, 0xdc, 0xe6, 0xa2, 0xbf, 0x42, 0xfa, 0x3f, 0x3f,
  0x3c, 0x69, 0xc7, 0x3f, 0x74, 0xbd, 0x94, 0x3f, 0xed, 0x54, 0xb0, 0x3f,
  0xc5, 0x22, 0x66, 0xc0, 0xb0, 0xd7, 0x0d, 0x3f, 0xf4, 0x5d, 0xea, 0x3f,
  0x18, 0xf9, 0xaa, 0xc0, 0xe8, 0x77, 0x01, 0xbf, 0x0a, 0x03, 0x8a, 0x3e,
  0x9a, 0x15, 0x91, 0x3f, 0x0c, 0xc8, 0xc3, 0x40, 0x73, 0x01, 0x2c, 0xc0,
  0x4d, 0x0c, 0x62, 0xbf, 0x91, 0xa8, 0x59, 0xbf, 0x52, 0xdd, 0x48, 0x40,
  0x8f, 0x04, 0x93, 0xc0, 0x73, 0xc7, 0x5c, 0xc0, 0x76, 0x5b, 0x92, 0xc0,
  0x36, 0xa0, 0x56, 0xbf, 0x04, 0x6e, 0x1e, 0x40, 0x87, 0x4b, 0x61, 0xc0,
  0xd6, 0x0e, 0x78, 0xc0, 0x8b, 0x4c, 0xc2, 0x3f, 0xc8, 0x88, 0x92, 0x40,
  0x76, 0xe6, 0x88, 0x40, 0x47, 0xe8, 0xcd, 0x3e, 0x59, 0x9a, 0x07, 0xc0,
  0xb9, 0x3b, 0x97, 0x40, 0x97, 0x32, 0x46, 0xbf, 0x04, 0x48, 0xd7, 0xbf,
  0x15, 0xa3, 0x6d, 0x40, 0xe4, 0x9d, 0x95, 0xc0, 0x91, 0x4f, 0x46, 0xc0,
  0xeb, 0x35, 0x91, 0xc0, 0xe2, 0x8f, 0x86, 0xbf, 0x72, 0x1d, 0xf4, 0x3f,
  0x20, 0x72, 0x82, 0xc0, 0x25, 0x6f, 0x74, 0xc0, 0x35, 0x09, 0xba, 0x3f,
  0x69, 0xfe, 0x6d, 0x40, 0xa9, 0xd4, 0x86, 0x40, 0xbe, 0x09, 0x6d, 0x3e,
  0xa1, 0x54, 0xda, 0xbf, 0x39, 0xf8, 0x58, 0x40, 0x15, 0x8f, 0x97, 0x40,
  0x9a, 0xb2, 0x34, 0x40, 0x16, 0xab, 0x7a, 0xbf, 0xc0, 0x47, 0x44, 0x3f,
  0x7e, 0x36, 0xc7, 0x3f, 0x47, 0xe6, 0x81, 0x3f, 0x34, 0x8f, 0x49, 0x40,
  0x17, 0x14, 0x83, 0xc0, 0x34, 0x7c, 0xfa, 0x3f, 0xa3, 0x40, 0xb3, 0x3e,
  0x63, 0xae, 0x8b, 0xc0, 0x5b, 0x9f, 0xf7, 0x3c, 0x61, 0x22, 0x90, 0x3e,
  0x6b, 0x66, 0x82, 0x3f, 0x16, 0x05, 0xbc, 0x40, 0x03, 0x97, 0x57, 0xc0,
  0xf7, 0x84, 0x54, 0xbf, 0xb2, 0x79, 0x48, 0xc0, 0x76, 0x89, 0x49, 0x40,
  0x27, 0xe8, 0x94, 0xc0, 0xbe, 0xae, 0x3f, 0xc0, 0x98, 0x4e, 0x8f, 0xc0,
  0xa3, 0x2c, 0x14, 0xc0, 0x32, 0xda, 0x11, 0x40, 0xdc, 0x39, 0x52, 0xc0,
  0xb8, 0xb4, 0x7b, 0xc0, 0x87, 0x8f, 0xa5, 0x3f, 0x0d, 0x0f, 0x85, 0x40,
  0xfc, 0x0b, 0x88, 0x40, 0x5f, 0x65, 0xda, 0xbd, 0x3b, 0x8e, 0xf0, 0xbf,
  0x45, 0x39, 0x0e, 0x40, 0xb3, 0x59, 0x9f, 0xbf, 0xea, 0xdc, 0x68, 0xc0,
  0x6d, 0x23, 0x17, 0x40, 0xea, 0x66, 0x9d, 0x3f, 0xd6, 0xc1, 0x66, 0x40,
  0x46, 0x13, 0x08, 0x40, 0x2b, 0x58, 0xdb, 0xc0, 0xc6, 0x59, 0x38, 0xc0,
  0x3c, 0x03, 0x04, 0x40, 0xe6, 0xae, 0xb1, 0x3e, 0x32, 0x99, 0x0a, 0x40,
  0xdf, 0xfa, 0x13, 0x40, 0x09, 0x99, 0x29, 0x40, 0x6c, 0xd7, 0xbf, 0xc0,
  0xce, 0x7f, 0xbf, 0xbf, 0x7f, 0xa8, 0xcd, 0xc0, 0xdd, 0x1d, 0xa3, 0x40,
  0x2e, 0x54, 0x91, 0x40, 0xd4, 0x24, 0x84, 0xbf, 0xc0, 0x36, 0x23, 0x3f,
  0x40, 0xed, 0xe8, 0x3f, 0x67, 0x1f, 0x8d, 0x3f, 0x0c, 0x98, 0x80, 0x40,
  0x10, 0x92, 0x82, 0xc0, 0x62, 0x3c, 0x9a, 0x3f, 0xb2, 0xa6, 0xb9, 0x3f,
  0x0c, 0x5e, 0x8a, 0xc0, 0x1a, 0xfa, 0x3c, 0xbd, 0xa3, 0xcb, 0x9d, 0xbd,
  0xc7, 0x51, 0xa3, 0x3f, 0x68, 0xae, 0xb6, 0x40, 0x99, 0xe1, 0xbd, 0xbf,
  0x55, 0xce, 0x67, 0xbf, 0x5b, 0x09, 0x92, 0xc0, 0xf2, 0xe2, 0x74, 0x40,
  0x08, 0x2b, 0x98, 0xc0, 0xb9, 0x7e, 0xee, 0xbf, 0x73, 0x04, 0x96, 0xc0,
  0x4f, 0x27, 0x2a, 0xc0, 0x9e, 0x37, 0x2b, 0x3f, 0x82, 0x24, 0x67, 0xc0,
  0x61, 0xf6, 0x8f, 0xc0, 0x18, 0xbb, 0xb2, 0x3f, 0xb4, 0xfb, 0x57, 0x40,
  0x1b, 0x6c, 0xb0, 0x40, 0x01, 0x2c, 0xec, 0xbf, 0x73, 0x6f, 0xce, 0xbf,
  0x74, 0x79, 0xfc, 0x3f, 0x3d, 0x12, 0x85, 0xbf, 0x34, 0x36, 0xdc, 0xbf,
  0x8c, 0xb8, 0x2d, 0x40, 0x5d, 0x14, 0xa7, 0xc0, 0x13, 0x5e, 0x43, 0xc0,
  0x59, 0x4f, 0x7e, 0xc0, 0x3a, 0x2c, 0xfc, 0xbc, 0x25, 0x7a, 0x47, 0x40,
  0x29, 0x5c, 0x73, 0xc0, 0xce, 0xca, 0x45, 0xc0, 0x93, 0x1a, 0xc9, 0x3f,
  0xf1, 0x97, 0x4a, 0x40, 0xcf, 0x98, 0x29, 0x40, 0xf2, 0x01, 0x98, 0x3f,
  0x32, 0x46, 0xe0, 0xbf, 0x2d, 0xa0, 0xad, 0x40, 0x81, 0xc0, 0x45, 0xbf,
  0x09, 0xee, 0xbb, 0xbf, 0xe6, 0xe8, 0x79, 0x40, 0x4d, 0x4c, 0xa6, 0xc0,
  0x64, 0x88, 0x2c, 0xc0, 0x53, 0x95, 0xb7, 0xc0, 0xdc, 0xbb, 0xd5, 0xbe,
  0x75, 0xc1, 0x04, 0x3f, 0xa0, 0xb7, 0x4c, 0xc0, 0xad, 0xd5, 0x8f, 0xc0,
  0x3f, 0xf2, 0xbb, 0x3f, 0x3e, 0x31, 0x51, 0x40, 0x89, 0xed, 0x95, 0x40,
  0x32, 0xee, 0x6a, 0xbd, 0x08, 0xf5, 0xd1, 0xbf, 0x23, 0x07, 0x23, 0x40,
  0x02, 0xac, 0x5e, 0x40, 0xa1, 0x32, 0x20, 0x40, 0xd1, 0xb3, 0x74, 0xc0,
  0x00, 0xd0, 0x93, 0x3f, 0x3a, 0x3b, 0x4c, 0x3f, 0xfc, 0x1c, 0xcf, 0x3f,
  0x1c, 0x29, 0xc5, 0x40, 0xb3, 0x48, 0x61, 0xbf, 0x60, 0x87, 0xa5, 0x3f,
  0x0b, 0xe3, 0x5d, 0x40, 0xf0, 0xe3, 0x81, 0xc0, 0x5c, 0x7c, 0x1f, 0xc0,
  0x91, 0x25, 0x98, 0xbe, 0x06, 0xd2, 0x34, 0x40, 0x1c, 0x87, 0x8a, 0x40,
  0x92, 0xfa, 0x63, 0xbf, 0xef, 0x86, 0xc2, 0x40, 0x88, 0x04, 0x85, 0x40,
  0x7b, 0x29, 0x16, 0xc0, 0xde, 0x48, 0x2d, 0x3f, 0x1c, 0xb5, 0x8b, 0x3f,
  0x17, 0xe5, 0xc1, 0x3f, 0xb0, 0x66, 0xe7, 0x3f, 0x08, 0x3c, 0x43, 0xc0,
  0xe7, 0x6e, 0x9d, 0x3f, 0x04, 0xfa, 0xcd, 0x3e, 0xbe, 0xa2, 0x70, 0xc0,
  0x65, 0xe0, 0x14, 0xc0, 0xa8, 0x84, 0xbd, 0xbd, 0x87, 0xe5, 0xc8, 0x3f,
  0xc1, 0x68, 0xaa, 0x40, 0xee, 0x05, 0xc4, 0xbf, 0x1c, 0x62, 0xae, 0x40,
  0x7c, 0x54, 0x95, 0x3f, 0x5e, 0x92, 0x0e, 0xc0, 0x17, 0x37, 0xbe, 0x3e,
  0xb6, 0xc5, 0xc4, 0x3f, 0x49, 0x8a, 0xb3, 0x3f, 0x38, 0x4f, 0x18, 0x40,
  0x85, 0xb6, 0xd5, 0xbf, 0x1a, 0xcc, 0xb2, 0x3f, 0xa0, 0x0a, 0xeb, 0x3f,
  0x9d, 0xde, 0x8b, 0xc0, 0xd7, 0x99, 0x09, 0xc0, 0xd8, 0x45, 0x06, 0x3d,
  0xa3, 0x1c, 0xf4, 0x3f, 0xfa, 0xf3, 0xa1, 0x40, 0x98, 0xd7, 0x95, 0xbf,
  0x2e, 0xf2, 0xff, 0xff, 0x04, 0x00, 0x00, 0x00, 0x00, 0x04, 0x00, 0x00,
  0x16, 0x1e, 0x3f, 0xbc, 0x94, 0x61, 0x51, 0xbc, 0x7f, 0x7f, 0x1c, 0xbe,
  0xcc, 0x4c, 0x68, 0x3d, 0xe3, 0x3e, 0xa3, 0xbd, 0x16, 0x39, 0x78, 0x3d,
  0x37, 0x11, 0xd9, 0x3d, 0x67, 0x1d, 0x96, 0x3d, 0xe8, 0x63, 0xaf, 0xb9,
  0xba, 0x89, 0x94, 0x3d, 0x33, 0xaa, 0x8f, 0xbc, 0x1d, 0x04, 0xe4, 0xbd,
  0x64, 0x8e, 0x1d, 0x3e, 0x18, 0xb2, 0xc4, 0xbc, 0x13, 0x3b, 0xf7, 0x3d,
  0xa6, 0x55, 0x8a, 0x3d, 0x03, 0xf2, 0x9d, 0xbc, 0x97, 0x02, 0x25, 0xbc,
  0x66, 0x08, 0x00, 0xbe, 0x33, 0x5d, 0x4c, 0x3d, 0x33, 0x50, 0xad, 0xbd,
  0x1a, 0xa3, 0x50, 0x3d, 0x5e, 0xc0, 0xb9, 0x3d, 0x9d, 0xea, 0x9f, 0x3d,
  0xb4, 0x0a, 0x69, 0x3c, 0x30, 0x20, 0xab, 0x3d, 0xe9, 0x68, 0x62, 0xbd,
  0x27, 0xfe, 0xaf, 0xbd, 0x66, 0x71, 0x06, 0x3e, 0xd3, 0xd6, 0x5c, 0xbc,
  0x12, 0xac, 0xf0, 0x3d, 0x08, 0x76, 0xc0, 0x3d, 0x9a, 0x15, 0xf3, 0xbc,
  0xed, 0xa7, 0x8d, 0xbb, 0x5d, 0xf8, 0xe9, 0xbd, 0x27, 0x7b, 0x4e, 0x3d,
  0xcd, 0x98, 0x87, 0xbd, 0x8d, 0x79, 0xdc, 0x3d, 0x0f, 0x81, 0xa0, 0x3d,
  0x99, 0x29, 0xb1, 0x3d, 0x83, 0x9f, 0xa1, 0x3b, 0x6a, 0x18, 0xb2, 0x3d,
  0xab, 0x63, 0xff, 0xbd, 0x9c, 0x93, 0xb0, 0xbd, 0x5a, 0xc6, 0x09, 0x3e,
  0x60, 0xe4, 0xda, 0xbc, 0x04, 0x87, 0xd9, 0x3d, 0x4c, 0x88, 0x6e, 0x3d,
  0x4f, 0xbb, 0xca, 0xbb, 0xc2, 0x05, 0x73, 0xbc, 0x76, 0x14, 0xf2, 0xbd,
  0x3d, 0x90, 0x7c, 0x3d, 0xc3, 0x7a, 0x06, 0xbe, 0xf9, 0xa5, 0xd6, 0xbc,
  0x5e, 0x37, 0x97, 0x3d, 0x88, 0x9e, 0xef, 0x3d, 0xdf, 0x57, 0x24, 0xbc,
  0x94, 0x13, 0x97, 0x3d, 0x50, 0x45, 0x05, 0xbe, 0x03, 0xee, 0xc6, 0xbd,
  0x04, 0x0d, 0x03, 0x3e, 0xb4, 0x50, 0x38, 0xbd, 0x66, 0xce, 0xdb, 0x3d,
  0xd4, 0x96, 0x97, 0x3d, 0x75, 0x0a, 0x13, 0x3d, 0x13, 0x28, 0xa9, 0xbc,
  0x7a, 0x54, 0x22, 0xbe, 0xef, 0xd5, 0x37, 0x3d, 0xef, 0x55, 0x17, 0xbe,
  0x9f, 0x10, 0xd2, 0xbd, 0xa3, 0x04, 0x87, 0x3d, 0xf8, 0x76, 0xe2, 0x3d,
  0x97, 0x97, 0xe4, 0xbc, 0x9f, 0xf7, 0x90, 0x3d, 0x43, 0xef, 0xb7, 0xbd,
  0x8b, 0x4c, 0xda, 0xbd, 0xfa, 0x7f, 0x00, 0x3e, 0xfb, 0xdb, 0x96, 0xbd,
  0xe2, 0x8f, 0xe3, 0x3d, 0xda, 0x99, 0xef, 0x3d, 0x5f, 0xa5, 0x53, 0x3d,
  0x9b, 0xa3, 0xaf, 0xbc, 0x5f, 0x47, 0x29, 0xbe, 0xde, 0x71, 0x5e, 0x3d,
  0xdf, 0x6c, 0xff, 0xbd, 0x2d, 0xe4, 0x10, 0xbe, 0xe0, 0xe5, 0x8f, 0x3d,
  0xc1, 0x06, 0xe3, 0x3d, 0x19, 0x5c, 0xdb, 0xbc, 0x42, 0xc7, 0x8f, 0x3d,
  0xca, 0x54, 0x94, 0xbd, 0xb5, 0xab, 0xc4, 0xbd, 0xe6, 0xca, 0xef, 0x3d,
  0x72, 0x13, 0xc5, 0xbd, 0xfc, 0x1e, 0x09, 0x3e, 0xe4, 0xb2, 0xe7, 0x3d,
  0x70, 0xdf, 0xac, 0x3d, 0xfc, 0x90, 0xe4, 0xbc, 0x46, 0xce, 0x12, 0xbe,
  0x03, 0x04, 0xb8, 0x3d, 0x69, 0xc1, 0x00, 0xbe, 0xc1, 0x08, 0x03, 0xbe,
  0xdb, 0x50, 0xa7, 0x3d, 0xc2, 0x40, 0xc8, 0x3d, 0x8e, 0xd0, 0x24, 0xbd,
  0xfe, 0x01, 0x34, 0x3d, 0x90, 0xb1, 0xac, 0xbd, 0x2d, 0xc7, 0xab, 0xbd,
  0x3a, 0xf8, 0xec, 0x3d, 0x3e, 0xb3, 0xec, 0xbd, 0xeb, 0xcb, 0x09, 0x3e,
  0x17, 0x60, 0x17, 0x3e, 0xe8, 0xc0, 0xd8, 0x3d, 0xfc, 0x05, 0xd2, 0xbc,
  0xb9, 0x35, 0x04, 0xbe, 0xcf, 0x4d, 0x37, 0x3c, 0xb7, 0x22, 0x08, 0xbe,
  0x0c, 0x7c, 0x1a, 0xbe, 0xa2, 0x93, 0xdc, 0x3d, 0x58, 0x36, 0xc2, 0x3d,
  0xed, 0x27, 0x9e, 0xbd, 0x75, 0x1d, 0xbd, 0x3c, 0x27, 0xff, 0xa8, 0xbd,
  0x49, 0xbe, 0x9a, 0xbd, 0xaf, 0x30, 0xcf, 0x3d, 0x53, 0x28, 0xde, 0xbd,
  0x21, 0x16, 0x18, 0x3e, 0x6d, 0xf2, 0x2d, 0x3e, 0x36, 0x74, 0x0b, 0x3e,
  0xd8, 0x8e, 0xcc, 0xbc, 0xcb, 0x05, 0xce, 0xbd, 0xf8, 0x5d, 0x83, 0xbd,
  0xb4, 0x30, 0x05, 0xbe, 0x48, 0x6f, 0x81, 0xbe, 0x26, 0x5d, 0xdf, 0x3d,
  0xd8, 0xaf, 0xbe, 0x3d, 0x37, 0x5d, 0x8f, 0xbd, 0x36, 0xb2, 0x94, 0x3c,
  0x8e, 0x0c, 0xdb, 0xbd, 0x79, 0x03, 0x4f, 0xbd, 0x65, 0x18, 0xbd, 0x3d,
  0x92, 0x51, 0xe8, 0xbd, 0xe9, 0x9c, 0x3f, 0x3e, 0xe2, 0x7f, 0x2d, 0x3e,
  0x53, 0x74, 0x25, 0x3e, 0xb7, 0x16, 0xc0, 0xbc, 0xa4, 0x03, 0x8e, 0xbd,
  0x0a, 0xd7, 0x9f, 0xbd, 0x3c, 0x58, 0xef, 0xbd, 0xd8, 0x72, 0x81, 0xbe,
  0xbb, 0x35, 0x00, 0x3e, 0xcd, 0xdc, 0xc1, 0x3d, 0x43, 0xb7, 0xec, 0xbd,
  0x05, 0x6a, 0x31, 0xbd, 0x65, 0xd7, 0x27, 0xbe, 0x8a, 0xb1, 0x94, 0x3c,
  0xc1, 0x18, 0xdd, 0x3d, 0xe8, 0x99, 0xe8, 0xbd, 0x48, 0x6f, 0x4c, 0x3e,
  0xc4, 0x4f, 0x19, 0x3e, 0x43, 0xfe, 0x5f, 0x3e, 0xfa, 0xca, 0x12, 0xbd,
  0x52, 0xf4, 0x2a, 0xbd, 0x51, 0x4e, 0x07, 0xbe, 0xb3, 0x6e, 0xda, 0xbd,
  0x90, 0x58, 0x7f, 0xbe, 0x0d, 0x6f, 0x16, 0x3e, 0x2d, 0x41, 0x02, 0x3e,
  0x7d, 0x44, 0x22, 0xbe, 0x97, 0x24, 0x02, 0xbe, 0x1d, 0x58, 0x3f, 0xbe,
  0x96, 0x62, 0x1f, 0x3d, 0xc8, 0x87, 0xe6, 0x3d, 0xe5, 0x82, 0xe2, 0xbd,
  0x81, 0x98, 0x7f, 0x3e, 0x64, 0x25, 0x43, 0x3e, 0xdd, 0x87, 0x83, 0x3e,
  0xeb, 0xb3, 0x66, 0xbd, 0x66, 0x4a, 0x3c, 0x3c, 0x94, 0x83, 0x21, 0xbe,
  0x44, 0xf6, 0xb5, 0xbd, 0xa5, 0xa6, 0x8e, 0xbe, 0x66, 0xeb, 0x0c, 0x3e,
  0x02, 0x96, 0xdf, 0x3d, 0x8e, 0x63, 0x1b, 0xbe, 0x39, 0x04, 0x2d, 0xbe,
  0x33, 0x30, 0x4c, 0xbe, 0x19, 0x17, 0xba, 0x3c, 0xe7, 0x26, 0x28, 0x3d,
  0xa2, 0x31, 0xc4, 0xbd, 0x3a, 0x47, 0x8c, 0x3e, 0xf6, 0xde, 0x36, 0x3e,
  0x2f, 0x0f, 0x6a, 0x3e, 0xb7, 0x41, 0x86, 0xbd, 0xd2, 0x39, 0x9d, 0x3d,
  0x3e, 0xb0, 0x27, 0xbe, 0x0d, 0xa1, 0x94, 0xbd, 0xa5, 0x71, 0x99, 0xbe,
  0x2f, 0x6f, 0x0d, 0x3e, 0xb6, 0x00, 0xde, 0x3d, 0x0b, 0xef, 0x2b, 0xbe,
  0x22, 0xdd, 0x4a, 0xbe, 0xd7, 0x3b, 0x52, 0xbe, 0x36, 0xfc, 0x56, 0x3d,
  0x8e, 0x41, 0x05, 0xbc, 0x16, 0x08, 0xb4, 0xbd, 0x75, 0x3d, 0x90, 0x3e,
  0xdc, 0x4a, 0x33, 0x3e, 0x64, 0x23, 0x5a, 0x3e, 0x9d, 0x6e, 0x95, 0xbd,
  0x36, 0x02, 0xb7, 0x3d, 0x68, 0x25, 0x3a, 0xbe, 0x21, 0x46, 0x40, 0xbd,
  0x20, 0x12, 0x7b, 0xbe, 0xe5, 0x89, 0x0c, 0x3e, 0x81, 0xb5, 0xc1, 0x3d,
  0x67, 0xa3, 0x14, 0xbe, 0x13, 0x0e, 0x34, 0xbe, 0xaa, 0x13, 0x4b, 0xbe,
  0xa0, 0x3d, 0x37, 0x3d, 0x1b, 0xcd, 0xe8, 0xbc, 0x35, 0x3b, 0xb4, 0xbd,
  0xbc, 0x5a, 0x65, 0x3e, 0x6b, 0x2b, 0x1d, 0x3e, 0xb0, 0x56, 0x49, 0x3e,
  0x05, 0x15, 0x86, 0xbd, 0xeb, 0xad, 0xa7, 0x3d, 0xef, 0x3e, 0x65, 0xbe,
  0x5d, 0x66, 0x01, 0xbc, 0xa2, 0x4c, 0x79, 0xbe, 0x59, 0x06, 0x17, 0x3e,
  0xb1, 0x51, 0xac, 0x3d, 0xd2, 0x6d, 0xde, 0xbd, 0xc6, 0x32, 0x08, 0xbe,
  0xf5, 0x51, 0x45, 0xbe, 0x42, 0xbd, 0x49, 0x3d, 0x9b, 0x63, 0xba, 0xbc,
  0x0e, 0x80, 0xc0, 0xbd, 0xab, 0xd4, 0x4d, 0x3e, 0x94, 0x96, 0x25, 0x3e,
  0x71, 0x92, 0x6b, 0x3e, 0xaf, 0x54, 0xa9, 0xbd, 0x7f, 0x05, 0x9d, 0x3d,
  0x2f, 0x92, 0x6d, 0xbe, 0x52, 0xfd, 0xac, 0xb9, 0x6f, 0x2c, 0x65, 0xbe,
  0xd1, 0x71, 0xf8, 0x3d, 0x6b, 0x78, 0xb4, 0x3d, 0x5f, 0x00, 0xe2, 0xbd,
  0x8a, 0x31, 0x16, 0xbe, 0x57, 0xd6, 0x70, 0xbe, 0x9d, 0x37, 0xb8, 0x3d,
  0x80, 0xda, 0x12, 0xbd, 0x28, 0xfa, 0xd5, 0xbd, 0xe4, 0xc0, 0x49, 0x3e,
  0xdf, 0xca, 0x22, 0x3e, 0x3a, 0xf6, 0xff, 0xff, 0x04, 0x00, 0x00, 0x00,
  0x40, 0x00, 0x00, 0x00, 0x00, 0x00, 0x00, 0x00, 0x00, 0x00, 0x00, 0x00,
  0x00, 0x00, 0x00, 0x00, 0x00, 0x00, 0x00, 0x00, 0x00, 0x00, 0x00, 0x00,
  0x00, 0x00, 0x00, 0x00, 0x00, 0x00, 0x00, 0x00, 0x00, 0x00, 0x00, 0x00,
  0x00, 0x00, 0x00, 0x00, 0x00, 0x00, 0x00, 0x00, 0x00, 0x00, 0x00, 0x00,
  0x00, 0x00, 0x00, 0x00, 0x00, 0x00, 0x00, 0x00, 0x00, 0x00, 0x00, 0x00,
  0x00, 0x00, 0x00, 0x00, 0x00, 0x00, 0x00, 0x00, 0x86, 0xf6, 0xff, 0xff,
  0x04, 0x00, 0x00, 0x00, 0x00, 0x04, 0x00, 0x00, 0xff, 0xa5, 0x7a, 0xbf,
  0xd2, 0x4f, 0x6e, 0xc0, 0x1f, 0xe0, 0xe1, 0x3f, 0x83, 0x1c, 0x66, 0xbf,
  0x94, 0x6c, 0xe0, 0x3f, 0xe4, 0xcd, 0x21, 0xbf, 0xa1, 0xe6, 0xf8, 0xbe,
  0xcd, 0xa3, 0xca, 0xbf, 0xe4, 0x68, 0x10, 0xbf, 0x61, 0x5d, 0x56, 0x3e,
  0x4e, 0x3d, 0x33, 0xc0, 0xa6, 0x42, 0x27, 0x40, 0x3d, 0x08, 0x8f, 0xbf,
  0x36, 0xfc, 0x89, 0xbf, 0xce, 0x20, 0x0e, 0xc0, 0x3e, 0xa9, 0x06, 0x3e,
  0x42, 0x94, 0x77, 0xbf, 0xc9, 0x05, 0xa4, 0xbe, 0x79, 0xa5, 0x21, 0xc0,
  0x77, 0xed, 0x9d, 0xbf, 0xdb, 0xd6, 0x12, 0xc0, 0xa5, 0x99, 0x7a, 0xc0,
  0xa4, 0xe9, 0x4d, 0xc0, 0x80, 0x92, 0xe1, 0xbf, 0x5f, 0xaf, 0x76, 0xc0,
  0xe8, 0x2b, 0x90, 0xbf, 0x38, 0xb4, 0x59, 0xc0, 0xe2, 0x8c, 0xdf, 0xbf,
  0xe3, 0x06, 0x3f, 0xc0, 0x8d, 0x62, 0x9b, 0xc0, 0x5c, 0xb4, 0x09, 0xc0,
  0x21, 0x0b, 0x6c, 0xc0, 0x74, 0x06, 0xe5, 0x3f, 0xfc, 0x83, 0xa0, 0x3f,
  0xe0, 0x33, 0x8c, 0xbf, 0x3d, 0x0c, 0xca, 0x3f, 0xd7, 0x74, 0xf9, 0xbe,
  0xd1, 0xe8, 0xde, 0x3e, 0xc9, 0xd6, 0x8c, 0xbf, 0x83, 0x65, 0xf0, 0xbd,
  0x94, 0x83, 0x0e, 0x3e, 0x18, 0x88, 0x88, 0xbf, 0x1c, 0xc7, 0x8c, 0xbe,
  0x84, 0xd3, 0x86, 0xbf, 0x1c, 0x69, 0xe3, 0x3d, 0x28, 0x83, 0x3d, 0xc0,
  0x97, 0x48, 0xca, 0x3f, 0xbf, 0x93, 0x4a, 0x3e, 0x5f, 0xc7, 0xa0, 0xbe,
  0x73, 0x1c, 0xaf, 0x3e, 0x49, 0x73, 0xfd, 0x3f, 0xb1, 0x78, 0xe2, 0xbe,
  0x46, 0xd2, 0x11, 0x40, 0xca, 0xe3, 0x48, 0x40, 0x79, 0xb2, 0xbd, 0x3f,
  0xe6, 0x77, 0x8c, 0xbf, 0x61, 0x78, 0x9b, 0x40, 0x00, 0xc5, 0xa1, 0xbf,
  0xb7, 0x32, 0x6c, 0x40, 0x9c, 0x2f, 0x06, 0xbe, 0x39, 0xb0, 0x40, 0x40,
  0xd6, 0xe9, 0x79, 0x3f, 0xfd, 0xb0, 0x54, 0x3f, 0x7b, 0x88, 0x7e, 0x40,
  0x8b, 0x70, 0xca, 0x40, 0x89, 0xe2, 0xd6, 0x3f, 0xac, 0x2f, 0xc5, 0x3f,
  0x7a, 0x6b, 0x8a, 0x3f, 0x1b, 0x65, 0xc9, 0xbd, 0xaf, 0x41, 0x44, 0xc0,
  0xbc, 0x85, 0x11, 0x3f, 0x00, 0x8e, 0x53, 0xbf, 0x93, 0x53, 0x3a, 0xc0,
  0x2f, 0xcb, 0xa3, 0x3f, 0xd5, 0xec, 0xab, 0xc0, 0xbe, 0x18, 0xe8, 0xbf,
  0x81, 0x01, 0x1e, 0xc0, 0x9d, 0x90, 0x6b, 0xc0, 0xd6, 0xdf, 0x56, 0x3f,
  0xfe, 0x46, 0x00, 0x40, 0x2e, 0xc7, 0x36, 0x40, 0xcf, 0xc1, 0x00, 0x40,
  0xe1, 0x71, 0x80, 0x40, 0x31, 0xd2, 0x26, 0xbf, 0x99, 0x14, 0x13, 0x3e,
  0x52, 0xb8, 0x10, 0x3f, 0x95, 0x11, 0xc4, 0x3f, 0xf2, 0xe4, 0xa5, 0xbf,
  0xa7, 0xe6, 0x94, 0x3e, 0x69, 0x32, 0xf2, 0xbf, 0xb9, 0xe2, 0x6f, 0xc0,
  0x64, 0x12, 0xc7, 0xbf, 0x3d, 0xfc, 0x9f, 0xc0, 0x24, 0xb9, 0x9d, 0xbd,
  0xd4, 0xa3, 0xa2, 0xc0, 0xd1, 0x49, 0x19, 0x3f, 0x39, 0xaf, 0x92, 0x40,
  0xb0, 0x4e, 0x1f, 0x40, 0xd5, 0xb3, 0x1f, 0x3f, 0x04, 0x46, 0xbe, 0xbe,
  0xae, 0x9f, 0x96, 0x3f, 0x2a, 0xc2, 0xd0, 0x3f, 0xab, 0xe4, 0x18, 0xc0,
  0x0c, 0x5c, 0xd5, 0x3f, 0x38, 0x2a, 0xa3, 0xbf, 0x99, 0x2f, 0xcf, 0x3e,
  0x39, 0xd8, 0xa4, 0xbe, 0xa8, 0x93, 0x51, 0xbe, 0xf2, 0x18, 0xe9, 0xbf,
  0xb7, 0xee, 0x81, 0x3f, 0x3c, 0xa3, 0x9a, 0xbf, 0x6a, 0x82, 0x03, 0xc0,
  0x63, 0x9b, 0xdc, 0x3f, 0x90, 0x17, 0xd3, 0xbf, 0x81, 0x5e, 0xb8, 0x3e,
  0xf4, 0x34, 0xc0, 0x3e, 0xc9, 0x68, 0x17, 0xbf, 0x71, 0xaa, 0x9b, 0x3f,
  0x44, 0x74, 0x04, 0xbf, 0x9a, 0x64, 0x26, 0x40, 0xc1, 0x50, 0xf1, 0x3f,
  0xa0, 0x09, 0x52, 0xbf, 0xdf, 0x80, 0x31, 0x40, 0xf2, 0xbd, 0x06, 0xbe,
  0xe7, 0xde, 0x13, 0x3f, 0xc2, 0x85, 0xbb, 0x3f, 0x2b, 0xb7, 0xe5, 0xbc,
  0x14, 0x21, 0xae, 0x40, 0x05, 0x71, 0xb4, 0xc0, 0x03, 0xfe, 0x42, 0x3e,
  0x66, 0x43, 0x2d, 0xc0, 0x45, 0xa7, 0x4a, 0xc0, 0xb0, 0x66, 0xf2, 0x3e,
  0x1b, 0x21, 0xb5, 0xbf, 0x56, 0xf8, 0x77, 0xbf, 0x14, 0xf5, 0xf2, 0xbf,
  0xe1, 0x7f, 0xcf, 0xbf, 0xec, 0x18, 0x30, 0xc0, 0x5c, 0x9e, 0x02, 0xc0,
  0x52, 0xd3, 0x0d, 0x40, 0xba, 0x2c, 0x39, 0xc0, 0x9f, 0xc9, 0x0d, 0x40,
  0x82, 0x85, 0x34, 0x40, 0xfc, 0x1c, 0x04, 0xc0, 0x31, 0xa9, 0x05, 0x40,
  0xff, 0xdd, 0xac, 0x3f, 0x82, 0x4a, 0x05, 0x3f, 0x59, 0xcc, 0x3d, 0x3f,
  0x4a, 0xe7, 0x41, 0xbf, 0xa2, 0xe3, 0x70, 0xbf, 0x88, 0x88, 0xe1, 0x3e,
  0x1b, 0xaa, 0x69, 0xbf, 0x91, 0x59, 0x1a, 0xbf, 0x2a, 0x95, 0xda, 0xbe,
  0x22, 0xae, 0x8f, 0xc0, 0x32, 0x55, 0x10, 0x3f, 0xba, 0xa8, 0x4b, 0xc0,
  0x15, 0xfd, 0x20, 0xc0, 0xfc, 0xb5, 0x3c, 0xc0, 0x8f, 0x31, 0x51, 0xc0,
  0xbd, 0xb6, 0xe3, 0x3f, 0x7d, 0xfe, 0x4b, 0x3e, 0x87, 0xd1, 0x44, 0xbf,
  0x9d, 0x81, 0x28, 0x40, 0x28, 0xc1, 0x9e, 0xbf, 0x40, 0x5c, 0xc7, 0x3f,
  0xf8, 0xd1, 0xb6, 0x3f, 0x5a, 0x38, 0xcb, 0x3f, 0x7a, 0xbe, 0x7e, 0xbf,
  0x0e, 0x3d, 0xa9, 0x3f, 0x2f, 0x4f, 0x44, 0x40, 0xeb, 0xa5, 0x45, 0xbf,
  0x3b, 0xc8, 0xed, 0xbf, 0x02, 0xed, 0xaa, 0x3f, 0x97, 0x27, 0xb8, 0xbf,
  0x76, 0x1e, 0x30, 0xc0, 0xca, 0x1e, 0x41, 0xc0, 0x51, 0xff, 0x86, 0xbf,
  0x3c, 0x6e, 0x77, 0xbf, 0x9b, 0x17, 0xc2, 0xbf, 0xf3, 0x70, 0x34, 0xc0,
  0xa3, 0xe7, 0x66, 0xbf, 0xb5, 0x60, 0x2c, 0x3c, 0x6e, 0xc8, 0x33, 0xc0,
  0x4b, 0xdc, 0xa0, 0xbe, 0x55, 0x19, 0x8b, 0xbf, 0x35, 0xe1, 0x11, 0x40,
  0x05, 0x0c, 0x28, 0xc0, 0x95, 0x97, 0x06, 0x40, 0x62, 0x5b, 0x8f, 0xbf,
  0x8e, 0x12, 0x09, 0x40, 0xb5, 0xfc, 0x0e, 0x3f, 0x85, 0x24, 0x21, 0x3f,
  0xc2, 0xe6, 0xa5, 0x3f, 0x7b, 0xaf, 0x9b, 0x3f, 0xc8, 0x13, 0xce, 0x3e,
  0xfc, 0x83, 0x99, 0x3f, 0xc4, 0x48, 0x01, 0x3f, 0xef, 0x73, 0x6c, 0x40,
  0x81, 0x36, 0xb7, 0xba, 0x6e, 0xa9, 0x3e, 0x40, 0x9a, 0xeb, 0x58, 0x3f,
  0x98, 0x80, 0xf6, 0x3f, 0x84, 0xbb, 0x6d, 0x40, 0x27, 0x24, 0x4f, 0x40,
  0x37, 0x41, 0xe5, 0x3f, 0xde, 0x1f, 0x40, 0x40, 0xdf, 0xf1, 0xe8, 0x3f,
  0xe9, 0x79, 0x33, 0x40, 0x5e, 0xed, 0x81, 0x40, 0x39, 0x17, 0xcb, 0xbe,
  0x65, 0x74, 0x71, 0x40, 0xc4, 0x31, 0x77, 0x3f, 0xd9, 0x32, 0x73, 0x40,
  0x3b, 0xef, 0xd3, 0x3f, 0x73, 0xc0, 0x70, 0x3f, 0x9c, 0x96, 0xc5, 0x3f,
  0x4f, 0x2e, 0xce, 0x3f, 0x6e, 0xd9, 0x0b, 0x40, 0xd6, 0xb4, 0x26, 0xbf,
  0xac, 0x4b, 0xea, 0x3f, 0xff, 0xf8, 0x3e, 0xbf, 0xa6, 0x70, 0x05, 0x3f,
  0x72, 0xfd, 0x15, 0x40, 0xea, 0xd3, 0x9c, 0xbf, 0x98, 0xd3, 0x81, 0xbf,
  0xf9, 0xa2, 0xc2, 0x3e, 0xdc, 0x6a, 0xc6, 0x3f, 0xe8, 0x24, 0x3e, 0x40,
  0x21, 0x0b, 0x23, 0x3d, 0x7d, 0xee, 0x69, 0xbf, 0xe4, 0x56, 0xbc, 0xbf,
  0x19, 0x58, 0x42, 0xc0, 0xa1, 0xa6, 0x58, 0x3f, 0x86, 0x49, 0x48, 0x40,
  0x77, 0x11, 0x20, 0x40, 0x14, 0x08, 0xcc, 0xbe, 0x08, 0x55, 0xd5, 0xbf,
  0x10, 0xbe, 0xa4, 0xbf, 0x81, 0x9b, 0xd5, 0xbe, 0xff, 0x1d, 0x47, 0x40,
  0x6f, 0x07, 0x26, 0x40, 0xd3, 0x16, 0x76, 0x3f, 0xf6, 0x3f, 0xf4, 0xbf,
  0xe9, 0x67, 0x2d, 0xc0, 0x0e, 0x42, 0x38, 0xc0, 0x05, 0x90, 0x7e, 0x40,
  0x4b, 0x29, 0xa7, 0x3f, 0x4d, 0x7c, 0x57, 0x40, 0x76, 0x23, 0x9b, 0x3d,
  0x0b, 0x2f, 0xe2, 0xbf, 0x88, 0x44, 0x5b, 0xc0, 0x9d, 0xab, 0xa2, 0x3d,
  0xee, 0x41, 0x06, 0x40, 0x0a, 0xec, 0xf1, 0x3f, 0x3b, 0xcd, 0xc7, 0x3e,
  0x92, 0xfa, 0xff, 0xff, 0x04, 0x00, 0x00, 0x00, 0x00, 0x04, 0x00, 0x00,
  0x0a, 0x9e, 0x21, 0xbd, 0x82, 0x9a, 0x2d, 0xbd, 0xa8, 0x9e, 0xf3, 0xbc,
  0x09, 0x94, 0xa6, 0xbc, 0xce, 0x22, 0x38, 0xbd, 0x1d, 0x02, 0x32, 0xbd,
  0xaf, 0x26, 0x85, 0xbc, 0x56, 0x61, 0x2a, 0xbd, 0x28, 0xae, 0x89, 0x3c,
  0x6e, 0x5c, 0x9b, 0xbc, 0x10, 0x47, 0xd4, 0xbc, 0x9d, 0xca, 0x2a, 0xbd,
  0xdc, 0xc4, 0x25, 0xbd, 0x99, 0xf1, 0x99, 0xbc, 0xa5, 0xea, 0xae, 0xbc,
  0x47, 0xb8, 0xb1, 0xbc, 0x5b, 0xd5, 0x47, 0x3c, 0xb7, 0xe9, 0xf7, 0xbc,
  0x2f, 0xe5, 0xf4, 0xbc, 0xb1, 0x5c, 0xd0, 0xbc, 0xa1, 0xdb, 0xff, 0x3b,
  0xe2, 0x1c, 0x4d, 0x3c, 0xc3, 0x97, 0xc7, 0xbc, 0x88, 0xf0, 0x5c, 0x3c,
  0x95, 0x0e, 0x97, 0x3c, 0xb3, 0x8c, 0xf1, 0xbc, 0x06, 0xd6, 0x98, 0x3c,
  0x41, 0xb7, 0x3c, 0x3b, 0x28, 0xf1, 0x53, 0x3c, 0x31, 0x9f, 0x0a, 0xbd,
  0x5b, 0xa6, 0xd8, 0xbc, 0x50, 0x40, 0xce, 0xbc, 0x26, 0x1f, 0xe9, 0x3c,
  0x5a, 0xf0, 0x0f, 0xbc, 0x00, 0x00, 0x14, 0xbd, 0x9f, 0xa1, 0xc5, 0xbc,
  0x58, 0xd1, 0xcc, 0x3c, 0x4c, 0xcc, 0x03, 0x3d, 0x64, 0xd0, 0x05, 0xbd,
  0xbf, 0xd5, 0xde, 0x3c, 0xa7, 0x66, 0xd4, 0x3a, 0xd5, 0x80, 0xdc, 0xbc,
  0x1b, 0x2a, 0x97, 0x3c, 0x76, 0x43, 0xb8, 0x3c, 0xe4, 0x66, 0xe0, 0x3c,
  0x0b, 0x06, 0x04, 0xbd, 0xd3, 0x85, 0xca, 0xbc, 0x8c, 0x33, 0xc4, 0xbc,
  0x9a, 0x71, 0x3d, 0x3d, 0x57, 0x22, 0x04, 0x3d, 0xf7, 0x9f, 0x07, 0xbd,
  0x8c, 0x9f, 0x39, 0xbd, 0x82, 0x41, 0x36, 0x3d, 0xcb, 0x15, 0x36, 0x3d,
  0xa4, 0x3e, 0x2f, 0xbd, 0x5a, 0x15, 0x2b, 0x3d, 0xcc, 0xee, 0x98, 0xbc,
  0x10, 0xeb, 0x3e, 0xbd, 0x0f, 0x23, 0x4d, 0x3d, 0xa9, 0xa9, 0x33, 0x3d,
  0x24, 0xca, 0x24, 0x3d, 0xe8, 0x56, 0x1f, 0xbd, 0x53, 0x13, 0x1c, 0xbd,
  0xe6, 0x18, 0x36, 0xbd, 0x27, 0x67, 0xd0, 0xbc, 0xee, 0x20, 0x46, 0xbd,
  0xfb, 0xb6, 0x46, 0xbd, 0x3f, 0xa2, 0x09, 0xbd, 0x21, 0xe1, 0xd8, 0xbc,
  0x2f, 0x96, 0x05, 0xbd, 0xd1, 0x18, 0x1c, 0xbd, 0x1d, 0x37, 0x83, 0xbc,
  0x99, 0x89, 0xd2, 0x3c, 0x0f, 0x71, 0x3d, 0xbd, 0x65, 0x1c, 0x42, 0xbc,
  0x39, 0x94, 0x05, 0xbd, 0x0c, 0xdd, 0xd3, 0xbc, 0x82, 0xfd, 0x38, 0xbd,
  0xa5, 0x9f, 0x1a, 0xbd, 0xbc, 0x5c, 0x26, 0xbd, 0x8e, 0x8a, 0x0e, 0xbb,
  0x23, 0xee, 0x16, 0xbd, 0x70, 0x84, 0x37, 0xbd, 0x97, 0xcd, 0xe0, 0xbc,
  0x11, 0x57, 0xf7, 0x39, 0x72, 0x6e, 0x9e, 0x3b, 0xe1, 0x3f, 0xd4, 0xbc,
  0xc2, 0x8a, 0xa6, 0x3b, 0xad, 0xa3, 0xb3, 0x3c, 0x2d, 0xe2, 0xd5, 0xbc,
  0x36, 0x70, 0x27, 0x3c, 0xf5, 0x0e, 0xe0, 0xba, 0x0e, 0xef, 0xf7, 0x3b,
  0xd3, 0x12, 0x2f, 0xbd, 0x64, 0xfc, 0xcb, 0xbc, 0xbd, 0x14, 0x10, 0xbd,
  0x3b, 0xcb, 0xf0, 0xbb, 0x2b, 0xc9, 0x88, 0xbc, 0xc0, 0x99, 0x5c, 0x3c,
  0x53, 0xe5, 0xae, 0x3c, 0x1f, 0xd2, 0x19, 0xbc, 0xcd, 0xe4, 0x18, 0xbc,
  0x42, 0x5a, 0xf3, 0x3c, 0x7b, 0xbf, 0xf2, 0xbb, 0xe9, 0x2f, 0x68, 0x3c,
  0x55, 0xe2, 0x94, 0x3c, 0x3c, 0x3b, 0x24, 0x3b, 0x2d, 0x84, 0xbc, 0xbb,
  0x16, 0xe5, 0x10, 0xbc, 0x42, 0xeb, 0x08, 0x3c, 0x6d, 0x38, 0x18, 0x3c,
  0x73, 0xa1, 0xae, 0x3c, 0xa9, 0x94, 0x1f, 0xbd, 0x19, 0xb3, 0x75, 0xbb,
  0x04, 0x03, 0x59, 0x3d, 0xe3, 0x71, 0x53, 0x3d, 0x28, 0xff, 0x20, 0xbd,
  0xef, 0x22, 0x1e, 0xbd, 0x28, 0x53, 0x4a, 0x3d, 0x8b, 0x04, 0x0d, 0xbd,
  0xf5, 0x4a, 0x7c, 0xbb, 0x56, 0x79, 0x72, 0x3d, 0x65, 0x84, 0x1c, 0xbd,
  0x10, 0x3d, 0x2c, 0xbd, 0x2d, 0xd4, 0x0b, 0xbd, 0xff, 0x62, 0x4e, 0x3d,
  0x4a, 0xc6, 0x39, 0x3d, 0x52, 0xd1, 0x6e, 0x3d, 0xa7, 0x1c, 0x19, 0xbd,
  0xbb, 0xf7, 0xf8, 0xba, 0x26, 0x4f, 0x5d, 0x3d, 0x6b, 0xeb, 0x45, 0x3d,
  0x94, 0xb0, 0x13, 0xbd, 0x4d, 0x5b, 0x1c, 0xbd, 0xd0, 0x05, 0x3a, 0x3d,
  0x2f, 0xd2, 0x17, 0xbd, 0x2d, 0x20, 0x5a, 0xbd, 0xac, 0x7d, 0x4f, 0x3d,
  0xf8, 0xc1, 0x50, 0xbd, 0x1c, 0xfc, 0x06, 0xbd, 0xad, 0x7c, 0x04, 0xbd,
  0x50, 0x81, 0x38, 0x3d, 0xe8, 0x0d, 0x51, 0x3d, 0xaa, 0x55, 0x37, 0x3d,
  0x9e, 0x9d, 0xdd, 0xbc, 0x4d, 0xb5, 0xde, 0xba, 0xd5, 0x76, 0xcf, 0x3c,
  0xa6, 0x66, 0x1d, 0x3d, 0x5c, 0x9d, 0xfa, 0xbc, 0x6e, 0x8c, 0x2b, 0xbd,
  0xc1, 0x1e, 0x0a, 0x3d, 0x18, 0x2a, 0x16, 0xbd, 0xae, 0x95, 0x63, 0xbd,
  0xb4, 0x4a, 0x1b, 0x3d, 0xc2, 0x32, 0x50, 0xbd, 0x72, 0x87, 0xa0, 0xbc,
  0x8a, 0xa9, 0xdc, 0xbc, 0x60, 0xe9, 0xd0, 0x3c, 0xa1, 0xc5, 0xcd, 0x3c,
  0x27, 0x29, 0xe4, 0x3c, 0x75, 0xb2, 0xce, 0xbc, 0xf9, 0x88, 0x1a, 0x3b,
  0xf8, 0x03, 0x17, 0x3c, 0xe9, 0x1c, 0x3c, 0x3c, 0x9b, 0xaa, 0xc3, 0xbc,
  0x31, 0x64, 0xdb, 0xbc, 0xab, 0x33, 0x34, 0x3c, 0x28, 0x2e, 0xc3, 0xbc,
  0x8c, 0x3f, 0x90, 0xbc, 0xcb, 0xdf, 0x5c, 0x3c, 0x12, 0x94, 0xcb, 0xbc,
  0x6a, 0x95, 0x8d, 0xbc, 0x43, 0x7d, 0xae, 0xbc, 0x4e, 0xba, 0xcd, 0x3b,
  0x3b, 0x38, 0x8b, 0x3c, 0x66, 0xc6, 0x2e, 0x3c, 0x76, 0xf3, 0xce, 0xbc,
  0x83, 0xd3, 0xda, 0xbc, 0x24, 0xd8, 0xf4, 0xbc, 0x26, 0x89, 0xd1, 0xbc,
  0x0c, 0xc0, 0xa7, 0xbc, 0x0d, 0x3a, 0xc0, 0xbc, 0xc0, 0x3a, 0xd7, 0xbc,
  0x68, 0xb2, 0x9e, 0xbc, 0xe7, 0xed, 0x01, 0x3c, 0x24, 0x1b, 0x03, 0xbd,
  0x10, 0x6d, 0xc7, 0xbc, 0x67, 0xa0, 0x9d, 0xbc, 0xad, 0xf5, 0xb5, 0xbc,
  0x22, 0x83, 0xe3, 0xbc, 0xf6, 0xf4, 0xbf, 0xbc, 0x75, 0x11, 0xd0, 0xbc,
  0x2f, 0x1f, 0x43, 0x3d, 0x8d, 0xf3, 0x58, 0x3d, 0x47, 0x05, 0xe0, 0xbc,
  0x41, 0x8b, 0x26, 0xbd, 0xd8, 0x31, 0x4a, 0x3d, 0xae, 0xcc, 0x5a, 0x3d,
  0x5c, 0xe3, 0x0d, 0xbd, 0x11, 0x56, 0x39, 0x3d, 0x34, 0x40, 0x4f, 0xbd,
  0x5a, 0x55, 0x1f, 0xbd, 0x53, 0x71, 0x41, 0x3d, 0xef, 0xc3, 0x4a, 0x3d,
  0xf9, 0x66, 0x40, 0x3d, 0x96, 0x04, 0xda, 0xbc, 0x7c, 0x9f, 0x2d, 0xbd,
  0x1f, 0x76, 0xe5, 0xbc, 0x85, 0xfb, 0x03, 0x3b, 0x38, 0xdd, 0x0b, 0x3d,
  0xe7, 0x7c, 0x82, 0x3c, 0xf6, 0xc8, 0x8b, 0xbc, 0xc8, 0x4a, 0x06, 0x3c,
  0xe2, 0x09, 0x1c, 0x3b, 0x63, 0x16, 0x51, 0xbc, 0x47, 0xcb, 0x2c, 0xbb,
  0xf4, 0xc4, 0x6c, 0xbd, 0x3c, 0xaf, 0x6a, 0xbc, 0xe8, 0xb2, 0xc0, 0xbc,
  0x74, 0xa6, 0x49, 0x3c, 0x3e, 0x9b, 0x0f, 0xbc, 0x4a, 0x49, 0x7e, 0x3c,
  0x72, 0xa1, 0x64, 0xb9, 0x58, 0xc9, 0x98, 0x3b, 0x59, 0xad, 0xce, 0xbc,
  0x6d, 0x32, 0xac, 0x3c, 0x2b, 0x9e, 0xef, 0x3b, 0xf1, 0xa9, 0xbb, 0xbc,
  0x61, 0xb5, 0x6f, 0xbc, 0xf5, 0x60, 0xe6, 0xbc, 0xf5, 0x55, 0xef, 0xbc,
  0x44, 0xb3, 0xbf, 0xbc, 0x7b, 0x2e, 0x81, 0xbc, 0xb8, 0x36, 0x8f, 0xbc,
  0x48, 0xa1, 0xdc, 0xbc, 0xb0, 0xa0, 0x91, 0xbc, 0x08, 0x51, 0xbb, 0xbc,
  0x6f, 0x59, 0x4e, 0x3c, 0xd7, 0x17, 0x5e, 0xbc, 0x3f, 0x0f, 0x8b, 0xbc,
  0x66, 0xe1, 0xed, 0xbc, 0xfd, 0x46, 0xae, 0xbc, 0xc2, 0x4e, 0x20, 0xbd,
  0xef, 0x77, 0x23, 0xbd, 0x80, 0xe1, 0x02, 0xbd, 0x16, 0x0c, 0x0c, 0xbd,
  0x2d, 0x41, 0x15, 0xbd, 0x24, 0xb6, 0x0c, 0xbd, 0x36, 0xb5, 0x87, 0x3c,
  0x25, 0x7a, 0x44, 0xbd, 0x3b, 0x4d, 0x06, 0xbd, 0xb6, 0x1c, 0xc3, 0xbc,
  0x94, 0xb8, 0xe6, 0xbc, 0xb1, 0x79, 0x1c, 0xbd, 0x74, 0xe4, 0xfc, 0xbc,
  0xb0, 0xe3, 0x45, 0xbd, 0x9e, 0xfe, 0xff, 0xff, 0x04, 0x00, 0x00, 0x00,
  0x40, 0x00, 0x00, 0x00, 0xef, 0x7e, 0x24, 0xbf, 0x75, 0x9f, 0xa6, 0xbf,
  0xc2, 0x14, 0xb9, 0xbe, 0x68, 0x9b, 0x1f, 0x3e, 0x11, 0x15, 0x15, 0xbf,
  0xeb, 0xe7, 0x03, 0xbf, 0xbc, 0x3e, 0x62, 0x3e, 0xf8, 0x83, 0xa8, 0xbe,
  0xaa, 0xaa, 0x31, 0x40, 0x28, 0xe0, 0xeb, 0x3d, 0x60, 0x6b, 0xb2, 0xbe,
  0x26, 0xa4, 0x33, 0xbf, 0xe2, 0x03, 0xda, 0xbe, 0x10, 0x35, 0x39, 0xbe,
  0x28, 0xab, 0xf5, 0x3d, 0x7c, 0xe1, 0x51, 0xbe, 0xea, 0xfe, 0xff, 0xff,
  0x04, 0x00, 0x00, 0x00, 0x40, 0x00, 0x00, 0x00, 0x62, 0xff, 0x1c, 0xbf,
  0xcc, 0x6d, 0xd5, 0xbe, 0xc4, 0x59, 0x05, 0xbf, 0x1f, 0xed, 0x49, 0xbf,
  0xbc, 0x0d, 0x02, 0xbf, 0xd8, 0x87, 0x5e, 0xbf, 0x2a, 0x37, 0xb8, 0xbe,
  0x22, 0x2a, 0xf6, 0xbe, 0x55, 0xca, 0x02, 0xbf, 0x7e, 0x56, 0x17, 0xbf,
  0xe9, 0x29, 0x17, 0xbf, 0x3f, 0x4d, 0x19, 0xbf, 0x37, 0xaf, 0xee, 0xbe,
  0x93, 0x94, 0x82, 0xbe, 0x6e, 0xfe, 0x2a, 0xbf, 0xf1, 0x3c, 0xf0, 0xbe,
  0x36, 0xff, 0xff, 0xff, 0x04, 0x00, 0x00, 0x00, 0x08, 0x00, 0x00, 0x00,
  0xff, 0xff, 0xff, 0xff, 0x40, 0x00, 0x00, 0x00, 0x4a, 0xff, 0xff, 0xff,
  0x04, 0x00, 0x00, 0x00, 0x10, 0x00, 0x00, 0x00, 0xff, 0xe3, 0x4a, 0x3c,
  0x34, 0x5e, 0x79, 0x3e, 0xa4, 0x9c, 0x17, 0xbe, 0x2b, 0x89, 0xf3, 0xbd,
  0x74, 0xf3, 0xff, 0xff, 0x78, 0xf3, 0xff, 0xff, 0x0f, 0x00, 0x00, 0x00,
  0x4d, 0x4c, 0x49, 0x52, 0x20, 0x43, 0x6f, 0x6e, 0x76, 0x65, 0x72, 0x74,
  0x65, 0x64, 0x2e, 0x00, 0x01, 0x00, 0x00, 0x00, 0x14, 0x00, 0x00, 0x00,
  0x00, 0x00, 0x0e, 0x00, 0x18, 0x00, 0x14, 0x00, 0x10, 0x00, 0x0c, 0x00,
  0x08, 0x00, 0x04, 0x00, 0x0e, 0x00, 0x00, 0x00, 0x14, 0x00, 0x00, 0x00,
  0x1c, 0x00, 0x00, 0x00, 0xc0, 0x02, 0x00, 0x00, 0xc4, 0x02, 0x00, 0x00,
  0xc8, 0x02, 0x00, 0x00, 0x04, 0x00, 0x00, 0x00, 0x6d, 0x61, 0x69, 0x6e,
  0x00, 0x00, 0x00, 0x00, 0x09, 0x00, 0x00, 0x00, 0x60, 0x02, 0x00, 0x00,
  0xf4, 0x01, 0x00, 0x00, 0x90, 0x01, 0x00, 0x00, 0x40, 0x01, 0x00, 0x00,
  0xf0, 0x00, 0x00, 0x00, 0xac, 0x00, 0x00, 0x00, 0x84, 0x00, 0x00, 0x00,
  0x40, 0x00, 0x00, 0x00, 0x04, 0x00, 0x00, 0x00, 0x3a, 0xfe, 0xff, 0xff,
  0x1c, 0x00, 0x00, 0x00, 0x00, 0x00, 0x00, 0x09, 0x1c, 0x00, 0x00, 0x00,
  0x20, 0x00, 0x00, 0x00, 0x05, 0x00, 0x00, 0x00, 0x00, 0x00, 0x06, 0x00,
  0x08, 0x00, 0x04, 0x00, 0x06, 0x00, 0x00, 0x00, 0x00, 0x00, 0x80, 0x3f,
  0x01, 0x00, 0x00, 0x00, 0x14, 0x00, 0x00, 0x00, 0x01, 0x00, 0x00, 0x00,
  0x13, 0x00, 0x00, 0x00, 0x72, 0xfe, 0xff, 0xff, 0x14, 0x00, 0x00, 0x00,
  0x00, 0x00, 0x00, 0x08, 0x10, 0x00, 0x00, 0x00, 0x14, 0x00, 0x00, 0x00,
  0x04, 0x00, 0x00, 0x00, 0x44, 0xf4, 0xff, 0xff, 0x01, 0x00, 0x00, 0x00,
  0x13, 0x00, 0x00, 0x00, 0x03, 0x00, 0x00, 0x00, 0x12, 0x00, 0x00, 0x00,
  0x05, 0x00, 0x00, 0x00, 0x01, 0x00, 0x00, 0x00, 0x00, 0x00, 0x0a, 0x00,
  0x10, 0x00, 0x0c, 0x00, 0x08, 0x00, 0x04, 0x00, 0x0a, 0x00, 0x00, 0x00,
  0x0c, 0x00, 0x00, 0x00, 0x10, 0x00, 0x00, 0x00, 0x03, 0x00, 0x00, 0x00,
  0x01, 0x00, 0x00, 0x00, 0x12, 0x00, 0x00, 0x00, 0x02, 0x00, 0x00, 0x00,
  0x11, 0x00, 0x00, 0x00, 0x02, 0x00, 0x00, 0x00, 0xd6, 0xfe, 0xff, 0xff,
  0x14, 0x00, 0x00, 0x00, 0x00, 0x00, 0x00, 0x05, 0x24, 0x00, 0x00, 0x00,
  0x28, 0x00, 0x00, 0x00, 0x02, 0x00, 0x00, 0x00, 0x26, 0xff, 0xff, 0xff,
  0x01, 0x00, 0x00, 0x00, 0x08, 0x00, 0x00, 0x00, 0x01, 0x00, 0x00, 0x00,
  0x08, 0x00, 0x00, 0x00, 0x00, 0x00, 0x00, 0x01, 0x01, 0x00, 0x00, 0x00,
  0x11, 0x00, 0x00, 0x00, 0x01, 0x00, 0x00, 0x00, 0x10, 0x00, 0x00, 0x00,
  0xae, 0xfe, 0xff, 0xff, 0x1c, 0x00, 0x00, 0x00, 0x00, 0x00, 0x00, 0x01,
  0x28, 0x00, 0x00, 0x00, 0x2c, 0x00, 0x00, 0x00, 0x0c, 0x00, 0x14, 0x00,
  0x13, 0x00, 0x0c, 0x00, 0x08, 0x00, 0x07, 0x00, 0x0c, 0x00, 0x00, 0x00,
  0x00, 0x00, 0x00, 0x01, 0x01, 0x00, 0x00, 0x00, 0x01, 0x00, 0x00, 0x00,
  0x00, 0x00, 0x00, 0x01, 0x01, 0x00, 0x00, 0x00, 0x10, 0x00, 0x00, 0x00,
  0x03, 0x00, 0x00, 0x00, 0x0f, 0x00, 0x00, 0x00, 0x09, 0x00, 0x00, 0x00,
  0x04, 0x00, 0x00, 0x00, 0x62, 0xff, 0xff, 0xff, 0x20, 0x00, 0x00, 0x00,
  0x00, 0x00, 0x00, 0x02, 0x28, 0x00, 0x00, 0x00, 0x2c, 0x00, 0x00, 0x00,
  0x01, 0x00, 0x00, 0x00, 0x0c, 0x00, 0x10, 0x00, 0x00, 0x00, 0x0c, 0x00,
  0x08, 0x00, 0x04, 0x00, 0x0c, 0x00, 0x00, 0x00, 0x01, 0x00, 0x00, 0x00,
  0x01, 0x00, 0x00, 0x00, 0x01, 0x00, 0x00, 0x00, 0x01, 0x00, 0x00, 0x00,
  0x0f, 0x00, 0x00, 0x00, 0x03, 0x00, 0x00, 0x00, 0x0e, 0x00, 0x00, 0x00,
  0x08, 0x00, 0x00, 0x00, 0x07, 0x00, 0x00, 0x00, 0xae, 0xff, 0xff, 0xff,
  0x24, 0x00, 0x00, 0x00, 0x00, 0x00, 0x00, 0x05, 0x34, 0x00, 0x00, 0x00,
  0x38, 0x00, 0x00, 0x00, 0x02, 0x00, 0x00, 0x00, 0x00, 0x00, 0x0e, 0x00,
  0x18, 0x00, 0x17, 0x00, 0x10, 0x00, 0x0c, 0x00, 0x08, 0x00, 0x04, 0x00,
  0x0e, 0x00, 0x00, 0x00, 0x01, 0x00, 0x00, 0x00, 0x04, 0x00, 0x00, 0x00,
  0x01, 0x00, 0x00, 0x00, 0x04, 0x00, 0x00, 0x00, 0x00, 0x00, 0x00, 0x01,
  0x01, 0x00, 0x00, 0x00, 0x0e, 0x00, 0x00, 0x00, 0x01, 0x00, 0x00, 0x00,
  0x0d, 0x00, 0x00, 0x00, 0x00, 0x00, 0x0e, 0x00, 0x1a, 0x00, 0x14, 0x00,
  0x10, 0x00, 0x0c, 0x00, 0x0b, 0x00, 0x04, 0x00, 0x0e, 0x00, 0x00, 0x00,
  0x24, 0x00, 0x00, 0x00, 0x00, 0x00, 0x00, 0x02, 0x34, 0x00, 0x00, 0x00,
  0x38, 0x00, 0x00, 0x00, 0x01, 0x00, 0x00, 0x00, 0x00, 0x00, 0x0e, 0x00,
  0x18, 0x00, 0x17, 0x00, 0x10, 0x00, 0x0c, 0x00, 0x08, 0x00, 0x07, 0x00,
  0x0e, 0x00, 0x00, 0x00, 0x00, 0x00, 0x00, 0x01, 0x02, 0x00, 0x00, 0x00,
  0x01, 0x00, 0x00, 0x00, 0x01, 0x00, 0x00, 0x00, 0x00, 0x00, 0x00, 0x01,
  0x01, 0x00, 0x00, 0x00, 0x0d, 0x00, 0x00, 0x00, 0x03, 0x00, 0x00, 0x00,
  0x0c, 0x00, 0x00, 0x00, 0x0b, 0x00, 0x00, 0x00, 0x03, 0x00, 0x00, 0x00,
  0x00, 0x00, 0x0e, 0x00, 0x16, 0x00, 0x00, 0x00, 0x10, 0x00, 0x0c, 0x00,
  0x0b, 0x00, 0x04, 0x00, 0x0e, 0x00, 0x00, 0x00, 0x1c, 0x00, 0x00, 0x00,
  0x00, 0x00, 0x00, 0x01, 0x20, 0x00, 0x00, 0x00, 0x24, 0x00, 0x00, 0x00,
  0x00, 0x00, 0x0a, 0x00, 0x0c, 0x00, 0x00, 0x00, 0x08, 0x00, 0x04, 0x00,
  0x0a, 0x00, 0x00, 0x00, 0x01, 0x00, 0x00, 0x00, 0x01, 0x00, 0x00, 0x00,
  0x01, 0x00, 0x00, 0x00, 0x0c, 0x00, 0x00, 0x00, 0x03, 0x00, 0x00, 0x00,
  0x00, 0x00, 0x00, 0x00, 0x06, 0x00, 0x00, 0x00, 0x0a, 0x00, 0x00, 0x00,
  0x01, 0x00, 0x00, 0x00, 0x14, 0x00, 0x00, 0x00, 0x01, 0x00, 0x00, 0x00,
  0x00, 0x00, 0x00, 0x00, 0x15, 0x00, 0x00, 0x00, 0x4c, 0x09, 0x00, 0x00,
  0xec, 0x08, 0x00, 0x00, 0x9c, 0x08, 0x00, 0x00, 0x34, 0x08, 0x00, 0x00,
  0xdc, 0x07, 0x00, 0x00, 0x9c, 0x07, 0x00, 0x00, 0x54, 0x07, 0x00, 0x00,
  0xb4, 0x06, 0x00, 0x00, 0x4c, 0x06, 0x00, 0x00, 0xf0, 0x05, 0x00, 0x00,
  0x88, 0x05, 0x00, 0x00, 0xdc, 0x04, 0x00, 0x00, 0x50, 0x04, 0x00, 0x00,
  0x78, 0x03, 0x00, 0x00, 0x0c, 0x03, 0x00, 0x00, 0x8c, 0x02, 0x00, 0x00,
  0x84, 0x01, 0x00, 0x00, 0x14, 0x01, 0x00, 0x00, 0xc0, 0x00, 0x00, 0x00,
  0x5c, 0x00, 0x00, 0x00, 0x04, 0x00, 0x00, 0x00, 0x1c, 0xf7, 0xff, 0xff,
  0x14, 0x00, 0x00, 0x00, 0x1c, 0x00, 0x00, 0x00, 0x1c, 0x00, 0x00, 0x00,
  0x15, 0x00, 0x00, 0x00, 0x34, 0x00, 0x00, 0x00, 0x02, 0x00, 0x00, 0x00,
  0xff, 0xff, 0xff, 0xff, 0x04, 0x00, 0x00, 0x00, 0x00, 0xf7, 0xff, 0xff,
  0x19, 0x00, 0x00, 0x00, 0x53, 0x74, 0x61, 0x74, 0x65, 0x66, 0x75, 0x6c,
  0x50, 0x61, 0x72, 0x74, 0x69, 0x74, 0x69, 0x6f, 0x6e, 0x65, 0x64, 0x43,
  0x61, 0x6c, 0x6c, 0x3a, 0x30, 0x00, 0x00, 0x00, 0x02, 0x00, 0x00, 0x00,
  0x01, 0x00, 0x00, 0x00, 0x04, 0x00, 0x00, 0x00, 0x70, 0xf7, 0xff, 0xff,
  0x14, 0x00, 0x00, 0x00, 0x1c, 0x00, 0x00, 0x00, 0x1c, 0x00, 0x00, 0x00,
  0x14, 0x00, 0x00, 0x00, 0x40, 0x00, 0x00, 0x00, 0x02, 0x00, 0x00, 0x00,
  0xff, 0xff, 0xff, 0xff, 0x04, 0x00, 0x00, 0x00, 0x54, 0xf7, 0xff, 0xff,
  0x26, 0x00, 0x00, 0x00, 0x6d, 0x6f, 0x64, 0x65, 0x6c, 0x2f, 0x64, 0x65,
  0x6e, 0x73, 0x65, 0x2f, 0x4d, 0x61, 0x74, 0x4d, 0x75, 0x6c, 0x3b, 0x6d,
  0x6f, 0x64, 0x65, 0x6c, 0x2f, 0x64, 0x65, 0x6e, 0x73, 0x65, 0x2f, 0x42,
  0x69, 0x61, 0x73, 0x41, 0x64, 0x64, 0x00, 0x00, 0x02, 0x00, 0x00, 0x00,
  0x01, 0x00, 0x00, 0x00, 0x04, 0x00, 0x00, 0x00, 0xd0, 0xf7, 0xff, 0xff,
  0x14, 0x00, 0x00, 0x00, 0x1c, 0x00, 0x00, 0x00, 0x1c, 0x00, 0x00, 0x00,
  0x13, 0x00, 0x00, 0x00, 0x30, 0x00, 0x00, 0x00, 0x02, 0x00, 0x00, 0x00,
  0xff, 0xff, 0xff, 0xff, 0x40, 0x00, 0x00, 0x00, 0xb4, 0xf7, 0xff, 0xff,
  0x15, 0x00, 0x00, 0x00, 0x6d, 0x6f, 0x64, 0x65, 0x6c, 0x2f, 0x66, 0x6c,
  0x61, 0x74, 0x74, 0x65, 0x6e, 0x2f, 0x52, 0x65, 0x73, 0x68, 0x61, 0x70,
  0x65, 0x00, 0x00, 0x00, 0x02, 0x00, 0x00, 0x00, 0x01, 0x00, 0x00, 0x00,
  0x40, 0x00, 0x00, 0x00, 0x20, 0xf8, 0xff, 0xff, 0x14, 0x00, 0x00, 0x00,
  0x24, 0x00, 0x00, 0x00, 0x24, 0x00, 0x00, 0x00, 0x12, 0x00, 0x00, 0x00,
  0x44, 0x00, 0x00, 0x00, 0x04, 0x00, 0x00, 0x00, 0xff, 0xff, 0xff, 0xff,
  0x01, 0x00, 0x00, 0x00, 0x04, 0x00, 0x00, 0x00, 0x10, 0x00, 0x00, 0x00,
  0x0c, 0xf8, 0xff, 0xff, 0x21, 0x00, 0x00, 0x00, 0x6d, 0x6f, 0x64, 0x65,
  0x6c, 0x2f, 0x61, 0x76, 0x65, 0x72, 0x61, 0x67, 0x65, 0x5f, 0x70, 0x6f,
  0x6f, 0x6c, 0x69, 0x6e, 0x67, 0x32, 0x64, 0x5f, 0x31, 0x2f, 0x41, 0x76,
  0x67, 0x50, 0x6f, 0x6f, 0x6c, 0x00, 0x00, 0x00, 0x04, 0x00, 0x00, 0x00,
  0x01, 0x00, 0x00, 0x00, 0x01, 0x00, 0x00, 0x00, 0x04, 0x00, 0x00, 0x00,
  0x10, 0x00, 0x00, 0x00, 0x8c, 0xf8, 0xff, 0xff, 0x14, 0x00, 0x00, 0x00,
  0x24, 0x00, 0x00, 0x00, 0x24, 0x00, 0x00, 0x00, 0x11, 0x00, 0x00, 0x00,
  0xdc, 0x00, 0x00, 0x00, 0x04, 0x00, 0x00, 0x00, 0xff, 0xff, 0xff, 0xff,
  0x01, 0x00, 0x00, 0x00, 0x25, 0x00, 0x00, 0x00, 0x10, 0x00, 0x00, 0x00,
  0x78, 0xf8, 0xff, 0xff, 0xba, 0x00, 0x00, 0x00, 0x6d, 0x6f, 0x64, 0x65,
  0x6c, 0x2f, 0x61, 0x63, 0x74, 0x69, 0x76, 0x61, 0x74, 0x69, 0x6f, 0x6e,
  0x5f, 0x31, 0x2f, 0x52, 0x65, 0x6c, 0x75, 0x3b, 0x6d, 0x6f, 0x64, 0x65,
  0x6c, 0x2f, 0x62, 0x61, 0x74, 0x63, 0x68, 0x5f, 0x6e, 0x6f, 0x72, 0x6d,
  0x61, 0x6c, 0x69, 0x7a, 0x61, 0x74, 0x69, 0x6f, 0x6e, 0x5f, 0x32, 0x2f,
  0x46, 0x75, 0x73, 0x65, 0x64, 0x42, 0x61, 0x74, 0x63, 0x68, 0x4e, 0x6f,
  0x72, 0x6d, 0x56, 0x33, 0x3b, 0x6d, 0x6f, 0x64, 0x65, 0x6c, 0x2f, 0x62,
  0x61, 0x74, 0x63, 0x68, 0x5f, 0x6e, 0x6f, 0x72, 0x6d, 0x61, 0x6c, 0x69,
  0x7a, 0x61, 0x74, 0x69, 0x6f, 0x6e, 0x5f, 0x31, 0x2f, 0x46, 0x75, 0x73,
  0x65, 0x64, 0x42, 0x61, 0x74, 0x63, 0x68, 0x4e, 0x6f, 0x72, 0x6d, 0x56,
  0x33, 0x3b, 0x6d, 0x6f, 0x64, 0x65, 0x6c, 0x2f, 0x64, 0x65, 0x70, 0x74,
  0x68, 0x77, 0x69, 0x73, 0x65, 0x5f, 0x63, 0x6f, 0x6e, 0x76, 0x32, 0x64,
  0x2f, 0x64, 0x65, 0x70, 0x74, 0x68, 0x77, 0x69, 0x73, 0x65, 0x3b, 0x6d,
  0x6f, 0x64, 0x65, 0x6c, 0x2f, 0x73, 0x65, 0x70, 0x61, 0x72, 0x61, 0x62,
  0x6c, 0x65, 0x5f, 0x63, 0x6f, 0x6e, 0x76, 0x32, 0x64, 0x2f, 0x73, 0x65,
  0x70, 0x61, 0x72, 0x61, 0x62, 0x6c, 0x65, 0x5f, 0x63, 0x6f, 0x6e, 0x76,
  0x32, 0x64, 0x00, 0x00, 0x04, 0x00, 0x00, 0x00, 0x01, 0x00, 0x00, 0x00,
  0x01, 0x00, 0x00, 0x00, 0x25, 0x00, 0x00, 0x00, 0x10, 0x00, 0x00, 0x00,
  0x90, 0xf9, 0xff, 0xff, 0x14, 0x00, 0x00, 0x00, 0x24, 0x00, 0x00, 0x00,
  0x24, 0x00, 0x00, 0x00, 0x10, 0x00, 0x00, 0x00, 0x54, 0x00, 0x00, 0x00,
  0x04, 0x00, 0x00, 0x00, 0xff, 0xff, 0xff, 0xff, 0x01, 0x00, 0x00, 0x00,
  0x25, 0x00, 0x00, 0x00, 0x10, 0x00, 0x00, 0x00, 0x7c, 0xf9, 0xff, 0xff,
  0x32, 0x00, 0x00, 0x00, 0x6d, 0x6f, 0x64, 0x65, 0x6c, 0x2f, 0x73, 0x65,
  0x70, 0x61, 0x72, 0x61, 0x62, 0x6c, 0x65, 0x5f, 0x63, 0x6f, 0x6e, 0x76,
  0x32, 0x64, 0x2f, 0x73, 0x65, 0x70, 0x61, 0x72, 0x61, 0x62, 0x6c, 0x65,
  0x5f, 0x63, 0x6f, 0x6e, 0x76, 0x32, 0x64, 0x2f, 0x64, 0x65, 0x70, 0x74,
  0x68, 0x77, 0x69, 0x73, 0x65, 0x31, 0x00, 0x00, 0x04, 0x00, 0x00, 0x00,
  0x01, 0x00, 0x00, 0x00, 0x01, 0x00, 0x00, 0x00, 0x25, 0x00, 0x00, 0x00,
  0x10, 0x00, 0x00, 0x00, 0x0c, 0xfa, 0xff, 0xff, 0x14, 0x00, 0x00, 0x00,
  0x24, 0x00, 0x00, 0x00, 0x24, 0x00, 0x00, 0x00, 0x0f, 0x00, 0x00, 0x00,
  0x40, 0x00, 0x00, 0x00, 0x04, 0x00, 0x00, 0x00, 0xff, 0xff, 0xff, 0xff,
  0x01, 0x00, 0x00, 0x00, 0x25, 0x00, 0x00, 0x00, 0x10, 0x00, 0x00, 0x00,
  0xf8, 0xf9, 0xff, 0xff, 0x1f, 0x00, 0x00, 0x00, 0x6d, 0x6f, 0x64, 0x65,
  0x6c, 0x2f, 0x61, 0x76, 0x65, 0x72, 0x61, 0x67, 0x65, 0x5f, 0x70, 0x6f,
  0x6f, 0x6c, 0x69, 0x6e, 0x67, 0x32, 0x64, 0x2f, 0x41, 0x76, 0x67, 0x50,
  0x6f, 0x6f, 0x6c, 0x00, 0x04, 0x00, 0x00, 0x00, 0x01, 0x00, 0x00, 0x00,
  0x01, 0x00, 0x00, 0x00, 0x25, 0x00, 0x00, 0x00, 0x10, 0x00, 0x00, 0x00,
  0x74, 0xfa, 0xff, 0xff, 0x14, 0x00, 0x00, 0x00, 0x24, 0x00, 0x00, 0x00,
  0x24, 0x00, 0x00, 0x00, 0x0e, 0x00, 0x00, 0x00, 0xac, 0x00, 0x00, 0x00,
  0x04, 0x00, 0x00, 0x00, 0xff, 0xff, 0xff, 0xff, 0x01, 0x00, 0x00, 0x00,
  0x97, 0x00, 0x00, 0x00, 0x10, 0x00, 0x00, 0x00, 0x60, 0xfa, 0xff, 0xff,
  0x8b, 0x00, 0x00, 0x00, 0x6d, 0x6f, 0x64, 0x65, 0x6c, 0x2f, 0x61, 0x63,
  0x74, 0x69, 0x76, 0x61, 0x74, 0x69, 0x6f, 0x6e, 0x2f, 0x52, 0x65, 0x6c,
  0x75, 0x3b, 0x6d, 0x6f, 0x64, 0x65, 0x6c, 0x2f, 0x62, 0x61, 0x74, 0x63,
  0x68, 0x5f, 0x6e, 0x6f, 0x72, 0x6d, 0x61, 0x6c, 0x69, 0x7a, 0x61, 0x74,
  0x69, 0x6f, 0x6e, 0x5f, 0x31, 0x2f, 0x46, 0x75, 0x73, 0x65, 0x64, 0x42,
  0x61, 0x74, 0x63, 0x68, 0x4e, 0x6f, 0x72, 0x6d, 0x56, 0x33, 0x3b, 0x6d,
  0x6f, 0x64, 0x65, 0x6c, 0x2f, 0x64, 0x65, 0x70, 0x74, 0x68, 0x77, 0x69,
  0x73, 0x65, 0x5f, 0x63, 0x6f, 0x6e, 0x76, 0x32, 0x64, 0x2f, 0x64, 0x65,
  0x70, 0x74, 0x68, 0x77, 0x69, 0x73, 0x65, 0x3b, 0x6d, 0x6f, 0x64, 0x65,
  0x6c, 0x2f, 0x73, 0x65, 0x70, 0x61, 0x72, 0x61, 0x62, 0x6c, 0x65, 0x5f,
  0x63, 0x6f, 0x6e, 0x76, 0x32, 0x64, 0x2f, 0x73, 0x65, 0x70, 0x61, 0x72,
  0x61, 0x62, 0x6c, 0x65, 0x5f, 0x63, 0x6f, 0x6e, 0x76, 0x32, 0x64, 0x00,
  0x04, 0x00, 0x00, 0x00, 0x01, 0x00, 0x00, 0x00, 0x01, 0x00, 0x00, 0x00,
  0x97, 0x00, 0x00, 0x00, 0x10, 0x00, 0x00, 0x00, 0x48, 0xfb, 0xff, 0xff,
  0x14, 0x00, 0x00, 0x00, 0x24, 0x00, 0x00, 0x00, 0x24, 0x00, 0x00, 0x00,
  0x0d, 0x00, 0x00, 0x00, 0x60, 0x00, 0x00, 0x00, 0x04, 0x00, 0x00, 0x00,
  0xff, 0xff, 0xff, 0xff, 0x3c, 0x00, 0x00, 0x00, 0x97, 0x00, 0x00, 0x00,
  0x08, 0x00, 0x00, 0x00, 0x34, 0xfb, 0xff, 0xff, 0x3f, 0x00, 0x00, 0x00,
  0x6d, 0x6f, 0x64, 0x65, 0x6c, 0x2f, 0x62, 0x61, 0x74, 0x63, 0x68, 0x5f,
  0x6e, 0x6f, 0x72, 0x6d, 0x61, 0x6c, 0x69, 0x7a, 0x61, 0x74, 0x69, 0x6f,
  0x6e, 0x2f, 0x46, 0x75, 0x73, 0x65, 0x64, 0x42, 0x61, 0x74, 0x63, 0x68,
  0x4e, 0x6f, 0x72, 0x6d, 0x56, 0x33, 0x3b, 0x6d, 0x6f, 0x64, 0x65, 0x6c,
  0x2f, 0x63, 0x6f, 0x6e, 0x76, 0x32, 0x64, 0x2f, 0x43, 0x6f, 0x6e, 0x76,
  0x32, 0x44, 0x31, 0x00, 0x04, 0x00, 0x00, 0x00, 0x01, 0x00, 0x00, 0x00,
  0x3c, 0x00, 0x00, 0x00, 0x97, 0x00, 0x00, 0x00, 0x08, 0x00, 0x00, 0x00,
  0x26, 0xfc, 0xff, 0xff, 0x10, 0x00, 0x00, 0x00, 0x10, 0x00, 0x00, 0x00,
  0x0c, 0x00, 0x00, 0x00, 0x84, 0x00, 0x00, 0x00, 0xa4, 0xfb, 0xff, 0xff,
  0x76, 0x00, 0x00, 0x00, 0x6d, 0x6f, 0x64, 0x65, 0x6c, 0x2f, 0x62, 0x61,
  0x74, 0x63, 0x68, 0x5f, 0x6e, 0x6f, 0x72, 0x6d, 0x61, 0x6c, 0x69, 0x7a,
  0x61, 0x74, 0x69, 0x6f, 0x6e, 0x5f, 0x31, 0x2f, 0x46, 0x75, 0x73, 0x65,
  0x64, 0x42, 0x61, 0x74, 0x63, 0x68, 0x4e, 0x6f, 0x72, 0x6d, 0x56, 0x33,
  0x3b, 0x6d, 0x6f, 0x64, 0x65, 0x6c, 0x2f, 0x64, 0x65, 0x70, 0x74, 0x68,
  0x77, 0x69, 0x73, 0x65, 0x5f, 0x63, 0x6f, 0x6e, 0x76, 0x32, 0x64, 0x2f,
  0x64, 0x65, 0x70, 0x74, 0x68, 0x77, 0x69, 0x73, 0x65, 0x3b, 0x6d, 0x6f,
  0x64, 0x65, 0x6c, 0x2f, 0x73, 0x65, 0x70, 0x61, 0x72, 0x61, 0x62, 0x6c,
  0x65, 0x5f, 0x63, 0x6f, 0x6e, 0x76, 0x32, 0x64, 0x2f, 0x73, 0x65, 0x70,
  0x61, 0x72, 0x61, 0x62, 0x6c, 0x65, 0x5f, 0x63, 0x6f, 0x6e, 0x76, 0x32,
  0x64, 0x31, 0x00, 0x00, 0x04, 0x00, 0x00, 0x00, 0x01, 0x00, 0x00, 0x00,
  0x3c, 0x00, 0x00, 0x00, 0x01, 0x00, 0x00, 0x00, 0x10, 0x00, 0x00, 0x00,
  0xce, 0xfc, 0xff, 0xff, 0x10, 0x00, 0x00, 0x00, 0x10, 0x00, 0x00, 0x00,
  0x0b, 0x00, 0x00, 0x00, 0x4c, 0x00, 0x00, 0x00, 0x4c, 0xfc, 0xff, 0xff,
  0x3e, 0x00, 0x00, 0x00, 0x6d, 0x6f, 0x64, 0x65, 0x6c, 0x2f, 0x62, 0x61,
  0x74, 0x63, 0x68, 0x5f, 0x6e, 0x6f, 0x72, 0x6d, 0x61, 0x6c, 0x69, 0x7a,
  0x61, 0x74, 0x69, 0x6f, 0x6e, 0x2f, 0x46, 0x75, 0x73, 0x65, 0x64, 0x42,
  0x61, 0x74, 0x63, 0x68, 0x4e, 0x6f, 0x72, 0x6d, 0x56, 0x33, 0x3b, 0x6d,
  0x6f, 0x64, 0x65, 0x6c, 0x2f, 0x63, 0x6f, 0x6e, 0x76, 0x32, 0x64, 0x2f,
  0x43, 0x6f, 0x6e, 0x76, 0x32, 0x44, 0x00, 0x00, 0x01, 0x00, 0x00, 0x00,
  0x08, 0x00, 0x00, 0x00, 0x32, 0xfd, 0xff, 0xff, 0x10, 0x00, 0x00, 0x00,
  0x10, 0x00, 0x00, 0x00, 0x0a, 0x00, 0x00, 0x00, 0x34, 0x00, 0x00, 0x00,
  0xb0, 0xfc, 0xff, 0xff, 0x27, 0x00, 0x00, 0x00, 0x6d, 0x6f, 0x64, 0x65,
  0x6c, 0x2f, 0x73, 0x65, 0x70, 0x61, 0x72, 0x61, 0x62, 0x6c, 0x65, 0x5f,
  0x63, 0x6f, 0x6e, 0x76, 0x32, 0x64, 0x2f, 0x73, 0x65, 0x70, 0x61, 0x72,
  0x61, 0x62, 0x6c, 0x65, 0x5f, 0x63, 0x6f, 0x6e, 0x76, 0x32, 0x64, 0x00,
  0x04, 0x00, 0x00, 0x00, 0x10, 0x00, 0x00, 0x00, 0x01, 0x00, 0x00, 0x00,
  0x01, 0x00, 0x00, 0x00, 0x10, 0x00, 0x00, 0x00, 0x8a, 0xfd, 0xff, 0xff,
  0x10, 0x00, 0x00, 0x00, 0x10, 0x00, 0x00, 0x00, 0x09, 0x00, 0x00, 0x00,
  0x40, 0x00, 0x00, 0x00, 0x08, 0xfd, 0xff, 0xff, 0x31, 0x00, 0x00, 0x00,
  0x6d, 0x6f, 0x64, 0x65, 0x6c, 0x2f, 0x73, 0x65, 0x70, 0x61, 0x72, 0x61,
  0x62, 0x6c, 0x65, 0x5f, 0x63, 0x6f, 0x6e, 0x76, 0x32, 0x64, 0x2f, 0x73,
  0x65, 0x70, 0x61, 0x72, 0x61, 0x62, 0x6c, 0x65, 0x5f, 0x63, 0x6f, 0x6e,
  0x76, 0x32, 0x64, 0x2f, 0x64, 0x65, 0x70, 0x74, 0x68, 0x77, 0x69, 0x73,
  0x65, 0x00, 0x00, 0x00, 0x04, 0x00, 0x00, 0x00, 0x01, 0x00, 0x00, 0x00,
  0x01, 0x00, 0x00, 0x00, 0x10, 0x00, 0x00, 0x00, 0x10, 0x00, 0x00, 0x00,
  0xee, 0xfd, 0xff, 0xff, 0x10, 0x00, 0x00, 0x00, 0x10, 0x00, 0x00, 0x00,
  0x08, 0x00, 0x00, 0x00, 0x84, 0x00, 0x00, 0x00, 0x6c, 0xfd, 0xff, 0xff,
  0x75, 0x00, 0x00, 0x00, 0x6d, 0x6f, 0x64, 0x65, 0x6c, 0x2f, 0x62, 0x61,
  0x74, 0x63, 0x68, 0x5f, 0x6e, 0x6f, 0x72, 0x6d, 0x61, 0x6c, 0x69, 0x7a,
  0x61, 0x74, 0x69, 0x6f, 0x6e, 0x5f, 0x31, 0x2f, 0x46, 0x75, 0x73, 0x65,
  0x64, 0x42, 0x61, 0x74, 0x63, 0x68, 0x4e, 0x6f, 0x72, 0x6d, 0x56, 0x33,
  0x3b, 0x6d, 0x6f, 0x64, 0x65, 0x6c, 0x2f, 0x64, 0x65, 0x70, 0x74, 0x68,
  0x77, 0x69, 0x73, 0x65, 0x5f, 0x63, 0x6f, 0x6e, 0x76, 0x32, 0x64, 0x2f,
  0x64, 0x65, 0x70, 0x74, 0x68, 0x77, 0x69, 0x73, 0x65, 0x3b, 0x6d, 0x6f,
  0x64, 0x65, 0x6c, 0x2f, 0x73, 0x65, 0x70, 0x61, 0x72, 0x61, 0x62, 0x6c,
  0x65, 0x5f, 0x63, 0x6f, 0x6e, 0x76, 0x32, 0x64, 0x2f, 0x73, 0x65, 0x70,
  0x61, 0x72, 0x61, 0x62, 0x6c, 0x65, 0x5f, 0x63, 0x6f, 0x6e, 0x76, 0x32,
  0x64, 0x00, 0x00, 0x00, 0x01, 0x00, 0x00, 0x00, 0x10, 0x00, 0x00, 0x00,
  0x8a, 0xfe, 0xff, 0xff, 0x10, 0x00, 0x00, 0x00, 0x10, 0x00, 0x00, 0x00,
  0x07, 0x00, 0x00, 0x00, 0x20, 0x00, 0x00, 0x00, 0x08, 0xfe, 0xff, 0xff,
  0x13, 0x00, 0x00, 0x00, 0x6d, 0x6f, 0x64, 0x65, 0x6c, 0x2f, 0x63, 0x6f,
  0x6e, 0x76, 0x32, 0x64, 0x2f, 0x43, 0x6f, 0x6e, 0x76, 0x32, 0x44, 0x00,
  0x04, 0x00, 0x00, 0x00, 0x08, 0x00, 0x00, 0x00, 0x01, 0x00, 0x00, 0x00,
  0x20, 0x00, 0x00, 0x00, 0x01, 0x00, 0x00, 0x00, 0xce, 0xfe, 0xff, 0xff,
  0x10, 0x00, 0x00, 0x00, 0x10, 0x00, 0x00, 0x00, 0x06, 0x00, 0x00, 0x00,
  0x20, 0x00, 0x00, 0x00, 0x4c, 0xfe, 0xff, 0xff, 0x12, 0x00, 0x00, 0x00,
  0x6d, 0x6f, 0x64, 0x65, 0x6c, 0x2f, 0x64, 0x65, 0x6e, 0x73, 0x65, 0x2f,
  0x4d, 0x61, 0x74, 0x4d, 0x75, 0x6c, 0x00, 0x00, 0x02, 0x00, 0x00, 0x00,
  0x04, 0x00, 0x00, 0x00, 0x40, 0x00, 0x00, 0x00, 0x0a, 0xff, 0xff, 0xff,
  0x10, 0x00, 0x00, 0x00, 0x10, 0x00, 0x00, 0x00, 0x05, 0x00, 0x00, 0x00,
  0x3c, 0x00, 0x00, 0x00, 0x88, 0xfe, 0xff, 0xff, 0x2c, 0x00, 0x00, 0x00,
  0x6d, 0x6f, 0x64, 0x65, 0x6c, 0x2f, 0x62, 0x61, 0x74, 0x63, 0x68, 0x5f,
  0x6e, 0x6f, 0x72, 0x6d, 0x61, 0x6c, 0x69, 0x7a, 0x61, 0x74, 0x69, 0x6f,
  0x6e, 0x5f, 0x32, 0x2f, 0x46, 0x75, 0x73, 0x65, 0x64, 0x42, 0x61, 0x74,
  0x63, 0x68, 0x4e, 0x6f, 0x72, 0x6d, 0x56, 0x33, 0x00, 0x00, 0x00, 0x00,
  0x01, 0x00, 0x00, 0x00, 0x10, 0x00, 0x00, 0x00, 0x5e, 0xff, 0xff, 0xff,
  0x10, 0x00, 0x00, 0x00, 0x10, 0x00, 0x00, 0x00, 0x04, 0x00, 0x00, 0x00,
  0x3c, 0x00, 0x00, 0x00, 0xdc, 0xfe, 0xff, 0xff, 0x2c, 0x00, 0x00, 0x00,
  0x6d, 0x6f, 0x64, 0x65, 0x6c, 0x2f, 0x62, 0x61, 0x74, 0x63, 0x68, 0x5f,
  0x6e, 0x6f, 0x72, 0x6d, 0x61, 0x6c, 0x69, 0x7a, 0x61, 0x74, 0x69, 0x6f,
  0x6e, 0x5f, 0x31, 0x2f, 0x46, 0x75, 0x73, 0x65, 0x64, 0x42, 0x61, 0x74,
  0x63, 0x68, 0x4e, 0x6f, 0x72, 0x6d, 0x56, 0x33, 0x00, 0x00, 0x00, 0x00,
  0x01, 0x00, 0x00, 0x00, 0x10, 0x00, 0x00, 0x00, 0x00, 0x00, 0x0e, 0x00,
  0x18, 0x00, 0x14, 0x00, 0x13, 0x00, 0x0c, 0x00, 0x08, 0x00, 0x04, 0x00,
  0x0e, 0x00, 0x00, 0x00, 0x14, 0x00, 0x00, 0x00, 0x14, 0x00, 0x00, 0x00,
  0x03, 0x00, 0x00, 0x00, 0x00, 0x00, 0x00, 0x02, 0x20, 0x00, 0x00, 0x00,
  0x44, 0xff, 0xff, 0xff, 0x13, 0x00, 0x00, 0x00, 0x6d, 0x6f, 0x64, 0x65,
  0x6c, 0x2f, 0x66, 0x6c, 0x61, 0x74, 0x74, 0x65, 0x6e, 0x2f, 0x43, 0x6f,
  0x6e, 0x73, 0x74, 0x00, 0x01, 0x00, 0x00, 0x00, 0x02, 0x00, 0x00, 0x00,
  0x00, 0x00, 0x0e, 0x00, 0x14, 0x00, 0x10, 0x00, 0x00, 0x00, 0x0c, 0x00,
  0x08, 0x00, 0x04, 0x00, 0x0e, 0x00, 0x00, 0x00, 0x10, 0x00, 0x00, 0x00,
  0x10, 0x00, 0x00, 0x00, 0x02, 0x00, 0x00, 0x00, 0x30, 0x00, 0x00, 0x00,
  0x8c, 0xff, 0xff, 0xff, 0x22, 0x00, 0x00, 0x00, 0x6d, 0x6f, 0x64, 0x65,
  0x6c, 0x2f, 0x64, 0x65, 0x6e, 0x73, 0x65, 0x2f, 0x42, 0x69, 0x61, 0x73,
  0x41, 0x64, 0x64, 0x2f, 0x52, 0x65, 0x61, 0x64, 0x56, 0x61, 0x72, 0x69,
  0x61, 0x62, 0x6c, 0x65, 0x4f, 0x70, 0x00, 0x00, 0x01, 0x00, 0x00, 0x00,
  0x04, 0x00, 0x00, 0x00, 0x14, 0x00, 0x18, 0x00, 0x14, 0x00, 0x00, 0x00,
  0x10, 0x00, 0x0c, 0x00, 0x08, 0x00, 0x00, 0x00, 0x00, 0x00, 0x04, 0x00,
  0x14, 0x00, 0x00, 0x00, 0x14, 0x00, 0x00, 0x00, 0x28, 0x00, 0x00, 0x00,
  0x28, 0x00, 0x00, 0x00, 0x01, 0x00, 0x00, 0x00, 0x40, 0x00, 0x00, 0x00,
  0x04, 0x00, 0x00, 0x00, 0xff, 0xff, 0xff, 0xff, 0x3c, 0x00, 0x00, 0x00,
  0x97, 0x00, 0x00, 0x00, 0x01, 0x00, 0x00, 0x00, 0x04, 0x00, 0x04, 0x00,
  0x04, 0x00, 0x00, 0x00, 0x19, 0x00, 0x00, 0x00, 0x73, 0x65, 0x72, 0x76,
  0x69, 0x6e, 0x67, 0x5f, 0x64, 0x65, 0x66, 0x61, 0x75, 0x6c, 0x74, 0x5f,
  0x69, 0x6e, 0x70, 0x75, 0x74, 0x5f, 0x31, 0x3a, 0x30, 0x00, 0x00, 0x00,
  0x04, 0x00, 0x00, 0x00, 0x01, 0x00, 0x00, 0x00, 0x3c, 0x00, 0x00, 0x00,
  0x97, 0x00, 0x00, 0x00, 0x01, 0x00, 0x00, 0x00, 0x06, 0x00, 0x00, 0x00,
  0x60, 0x00, 0x00, 0x00, 0x44, 0x00, 0x00, 0x00, 0x34, 0x00, 0x00, 0x00,
  0x24, 0x00, 0x00, 0x00, 0x14, 0x00, 0x00, 0x00, 0x04, 0x00, 0x00, 0x00,
  0xc4, 0xff, 0xff, 0xff, 0x19, 0x00, 0x00, 0x00, 0x00, 0x00, 0x00, 0x19,
  0xd0, 0xff, 0xff, 0xff, 0x09, 0x00, 0x00, 0x00, 0x00, 0x00, 0x00, 0x09,
  0xdc, 0xff, 0xff, 0xff, 0x16, 0x00, 0x00, 0x00, 0x00, 0x00, 0x00, 0x16,
  0xe8, 0xff, 0xff, 0xff, 0x01, 0x00, 0x00, 0x00, 0x00, 0x00, 0x00, 0x01,
  0xf4, 0xff, 0xff, 0xff, 0x04, 0x00, 0x00, 0x00, 0x00, 0x00, 0x00, 0x04,
  0x0c, 0x00, 0x0c, 0x00, 0x0b, 0x00, 0x00, 0x00, 0x00, 0x00, 0x04, 0x00,
  0x0c, 0x00, 0x00, 0x00, 0x03, 0x00, 0x00, 0x00, 0x00, 0x00, 0x00, 0x03
 
};

#endif //MODEL_TFLITE_FLOAT_H