#ifndef MODEL_TFLITE_H
#define MODEL_TFLITE_H


unsigned int model_tflite_len = 8256;
unsigned char model_tflite[] = {
 0x20, 0x00, 0x00, 0x00, 0x54, 0x46, 0x4c, 0x33, 0x00, 0x00, 0x00, 0x00,
  0x14, 0x00, 0x20, 0x00, 0x1c, 0x00, 0x18, 0x00, 0x14, 0x00, 0x10, 0x00,
  0x0c, 0x00, 0x00, 0x00, 0x08, 0x00, 0x04, 0x00, 0x14, 0x00, 0x00, 0x00,
  0x1c, 0x00, 0x00, 0x00, 0x80, 0x00, 0x00, 0x00, 0xd8, 0x00, 0x00, 0x00,
  0x20, 0x0b, 0x00, 0x00, 0x30, 0x0b, 0x00, 0x00, 0x78, 0x1f, 0x00, 0x00,
  0x03, 0x00, 0x00, 0x00, 0x01, 0x00, 0x00, 0x00, 0x04, 0x00, 0x00, 0x00,
  0x12, 0xf4, 0xff, 0xff, 0x0c, 0x00, 0x00, 0x00, 0x1c, 0x00, 0x00, 0x00,
  0x38, 0x00, 0x00, 0x00, 0x0f, 0x00, 0x00, 0x00, 0x73, 0x65, 0x72, 0x76,
  0x69, 0x6e, 0x67, 0x5f, 0x64, 0x65, 0x66, 0x61, 0x75, 0x6c, 0x74, 0x00,
  0x01, 0x00, 0x00, 0x00, 0x04, 0x00, 0x00, 0x00, 0x9c, 0xff, 0xff, 0xff,
  0x14, 0x00, 0x00, 0x00, 0x04, 0x00, 0x00, 0x00, 0x07, 0x00, 0x00, 0x00,
  0x73, 0x6f, 0x66, 0x74, 0x6d, 0x61, 0x78, 0x00, 0x01, 0x00, 0x00, 0x00,
  0x04, 0x00, 0x00, 0x00, 0xb2, 0xf4, 0xff, 0xff, 0x04, 0x00, 0x00, 0x00,
  0x07, 0x00, 0x00, 0x00, 0x69, 0x6e, 0x70, 0x75, 0x74, 0x5f, 0x31, 0x00,
  0x02, 0x00, 0x00, 0x00, 0x34, 0x00, 0x00, 0x00, 0x04, 0x00, 0x00, 0x00,
  0xdc, 0xff, 0xff, 0xff, 0x17, 0x00, 0x00, 0x00, 0x04, 0x00, 0x00, 0x00,
  0x13, 0x00, 0x00, 0x00, 0x43, 0x4f, 0x4e, 0x56, 0x45, 0x52, 0x53, 0x49,
  0x4f, 0x4e, 0x5f, 0x4d, 0x45, 0x54, 0x41, 0x44, 0x41, 0x54, 0x41, 0x00,
  0x08, 0x00, 0x0c, 0x00, 0x08, 0x00, 0x04, 0x00, 0x08, 0x00, 0x00, 0x00,
  0x16, 0x00, 0x00, 0x00, 0x04, 0x00, 0x00, 0x00, 0x13, 0x00, 0x00, 0x00,
  0x6d, 0x69, 0x6e, 0x5f, 0x72, 0x75, 0x6e, 0x74, 0x69, 0x6d, 0x65, 0x5f,
  0x76, 0x65, 0x72, 0x73, 0x69, 0x6f, 0x6e, 0x00, 0x18, 0x00, 0x00, 0x00,
  0x44, 0x0a, 0x00, 0x00, 0x3c, 0x0a, 0x00, 0x00, 0x24, 0x0a, 0x00, 0x00,
  0x14, 0x09, 0x00, 0x00, 0xe4, 0x08, 0x00, 0x00, 0x14, 0x05, 0x00, 0x00,
  0xc4, 0x04, 0x00, 0x00, 0xb4, 0x03, 0x00, 0x00, 0x64, 0x03, 0x00, 0x00,
  0x54, 0x02, 0x00, 0x00, 0x04, 0x02, 0x00, 0x00, 0xf4, 0x00, 0x00, 0x00,
  0xd4, 0x00, 0x00, 0x00, 0xcc, 0x00, 0x00, 0x00, 0xc4, 0x00, 0x00, 0x00,
  0xbc, 0x00, 0x00, 0x00, 0xb4, 0x00, 0x00, 0x00, 0xac, 0x00, 0x00, 0x00,
  0xa4, 0x00, 0x00, 0x00, 0x9c, 0x00, 0x00, 0x00, 0x94, 0x00, 0x00, 0x00,
  0x8c, 0x00, 0x00, 0x00, 0x6c, 0x00, 0x00, 0x00, 0x04, 0x00, 0x00, 0x00,
  0x86, 0xf5, 0xff, 0xff, 0x04, 0x00, 0x00, 0x00, 0x58, 0x00, 0x00, 0x00,
  0x0c, 0x00, 0x00, 0x00, 0x08, 0x00, 0x0e, 0x00, 0x08, 0x00, 0x04, 0x00,
  0x08, 0x00, 0x00, 0x00, 0x10, 0x00, 0x00, 0x00, 0x28, 0x00, 0x00, 0x00,
  0x00, 0x00, 0x06, 0x00, 0x08, 0x00, 0x04, 0x00, 0x06, 0x00, 0x00, 0x00,
  0x04, 0x00, 0x00, 0x00, 0x01, 0x00, 0x00, 0x00, 0xeb, 0x03, 0x00, 0x00,
  0x00, 0x00, 0x0a, 0x00, 0x10, 0x00, 0x0c, 0x00, 0x08, 0x00, 0x04, 0x00,
  0x0a, 0x00, 0x00, 0x00, 0x01, 0x00, 0x00, 0x00, 0x02, 0x00, 0x00, 0x00,
  0x04, 0x00, 0x00, 0x00, 0x05, 0x00, 0x00, 0x00, 0x32, 0x2e, 0x39, 0x2e,
  0x32, 0x00, 0x00, 0x00, 0xea, 0xf5, 0xff, 0xff, 0x04, 0x00, 0x00, 0x00,
  0x10, 0x00, 0x00, 0x00, 0x31, 0x2e, 0x31, 0x34, 0x2e, 0x30, 0x00, 0x00,
  0x00, 0x00, 0x00, 0x00, 0x00, 0x00, 0x00, 0x00, 0x08, 0xe3, 0xff, 0xff,
  0x0c, 0xe3, 0xff, 0xff, 0x10, 0xe3, 0xff, 0xff, 0x14, 0xe3, 0xff, 0xff,
  0x18, 0xe3, 0xff, 0xff, 0x1c, 0xe3, 0xff, 0xff, 0x20, 0xe3, 0xff, 0xff,
  0x24, 0xe3, 0xff, 0xff, 0x28, 0xe3, 0xff, 0xff, 0x2a, 0xf6, 0xff, 0xff,
  0x04, 0x00, 0x00, 0x00, 0x10, 0x00, 0x00, 0x00, 0xcc, 0x01, 0x00, 0x00,
  0x53, 0x23, 0x00, 0x00, 0x86, 0xea, 0xff, 0xff, 0xc0, 0xee, 0xff, 0xff,
  0x46, 0xf6, 0xff, 0xff, 0x04, 0x00, 0x00, 0x00, 0x00, 0x01, 0x00, 0x00,
  0xab, 0xa5, 0xc0, 0xd4, 0xa0, 0xa3, 0xdd, 0xa7, 0x24, 0xd7, 0xc8, 0xa7,
  0xa9, 0xd8, 0xd2, 0xd1, 0x1a, 0xbf, 0xc0, 0xc9, 0x11, 0x1b, 0xcc, 0x1d,
  0x28, 0xc1, 0x28, 0x06, 0x1c, 0xb7, 0xc7, 0xca, 0x3d, 0xed, 0xb2, 0xcc,
  0x36, 0x45, 0xba, 0x3a, 0x03, 0xc6, 0x28, 0x30, 0x3b, 0xbb, 0xcb, 0xcd,
  0x63, 0x45, 0xb9, 0x9f, 0x5f, 0x5f, 0xa4, 0x5a, 0xd8, 0x9c, 0x6b, 0x5e,
  0x56, 0xad, 0xae, 0xa1, 0xc9, 0x98, 0x98, 0xb8, 0xc7, 0xba, 0xae, 0xde,
  0x37, 0x9d, 0xe7, 0xba, 0xc9, 0x9f, 0xaf, 0xa9, 0xfb, 0xb1, 0xa0, 0xc5,
  0x01, 0x0a, 0xc8, 0x0b, 0x2f, 0xc8, 0x16, 0xfc, 0x10, 0xa4, 0xcb, 0xb5,
  0xf0, 0xdc, 0x1d, 0x2e, 0xec, 0xec, 0x40, 0xf0, 0x1e, 0x27, 0x05, 0xf4,
  0xed, 0x12, 0x14, 0x2e, 0xac, 0xf8, 0x72, 0x6f, 0xac, 0xad, 0x6a, 0xb6,
  0xf8, 0x7f, 0xae, 0xa6, 0xb7, 0x6c, 0x61, 0x7d, 0xb0, 0xfc, 0x74, 0x68,
  0xb3, 0xae, 0x61, 0xb0, 0x8e, 0x6d, 0x93, 0xb9, 0xbb, 0x61, 0x6d, 0x60,
  0xc6, 0xfc, 0x36, 0x52, 0xbe, 0xa6, 0x48, 0xb1, 0x89, 0x51, 0x93, 0xd6,
  0xc6, 0x37, 0x36, 0x3c, 0xca, 0x05, 0x14, 0x19, 0xcd, 0xc7, 0x18, 0xcd,
  0xda, 0x1d, 0xcb, 0xdb, 0xd2, 0x0d, 0x24, 0x17, 0xca, 0xc7, 0xc0, 0xc9,
  0xd4, 0xce, 0xc8, 0xd6, 0x11, 0xbb, 0xcc, 0xd7, 0xd0, 0xc4, 0xce, 0xca,
  0x66, 0x72, 0xc5, 0xa9, 0x6a, 0x73, 0xb6, 0x61, 0x93, 0xad, 0x65, 0x6a,
  0x65, 0xc7, 0xa5, 0xc4, 0x04, 0x49, 0x22, 0xdb, 0x12, 0x05, 0xe5, 0xfa,
  0x84, 0xe1, 0xce, 0x1a, 0xed, 0x21, 0x00, 0x0a, 0xca, 0x2d, 0x10, 0xcf,
  0xe1, 0xc4, 0xc1, 0xce, 0xde, 0xda, 0xc6, 0xda, 0xcf, 0x1b, 0xe3, 0xdc,
  0xc2, 0xd2, 0xac, 0xaa, 0xbb, 0xb7, 0xb2, 0xb6, 0x24, 0x99, 0xba, 0xcd,
  0xc4, 0xae, 0xbe, 0x98, 0x52, 0xf7, 0xff, 0xff, 0x04, 0x00, 0x00, 0x00,
  0x40, 0x00, 0x00, 0x00, 0xa0, 0xfa, 0xff, 0xff, 0x4d, 0xf7, 0xff, 0xff,
  0xa5, 0xfc, 0xff, 0xff, 0x20, 0x01, 0x00, 0x00, 0x8d, 0xfa, 0xff, 0xff,
  0x20, 0xfb, 0xff, 0xff, 0xaa, 0x01, 0x00, 0x00, 0xdf, 0xfc, 0xff, 0xff,
  0xea, 0x11, 0x00, 0x00, 0xe4, 0x00, 0x00, 0x00, 0x34, 0xfd, 0xff, 0xff,
  0x48, 0xfa, 0xff, 0xff, 0xb8, 0xfc, 0xff, 0xff, 0xb4, 0xfe, 0xff, 0xff,
  0xdf, 0x00, 0x00, 0x00, 0x56, 0xfe, 0xff, 0xff, 0x9e, 0xf7, 0xff, 0xff,
  0x04, 0x00, 0x00, 0x00, 0x00, 0x01, 0x00, 0x00, 0xec, 0xe9, 0x46, 0xb7,
  0xb4, 0x81, 0xf5, 0x13, 0x99, 0x9b, 0x2b, 0x56, 0x6b, 0xfb, 0xdd, 0x5e,
  0xf9, 0xe8, 0xb5, 0xc7, 0xbe, 0xdc, 0x4b, 0x7f, 0xcd, 0x16, 0x1b, 0xd5,
  0xe4, 0x38, 0xfe, 0x63, 0x70, 0x31, 0xad, 0x16, 0x21, 0x32, 0x7f, 0x04,
  0x15, 0x3e, 0xa1, 0xba, 0xf0, 0x42, 0x72, 0x06, 0x74, 0x48, 0xe6, 0x10,
  0x20, 0x18, 0x1d, 0xb5, 0x0c, 0x26, 0x91, 0xf6, 0x06, 0x18, 0x7f, 0xc8,
  0xe8, 0xe9, 0x54, 0x85, 0xa3, 0x85, 0xe9, 0x43, 0xa1, 0x98, 0x29, 0x7b,
  0x73, 0x0b, 0xc7, 0x7f, 0xeb, 0xd2, 0x65, 0x81, 0xac, 0x85, 0xe3, 0x34,
  0x91, 0x98, 0x27, 0x65, 0x72, 0x06, 0xd2, 0x5c, 0x66, 0x3d, 0xeb, 0x11,
  0x22, 0x16, 0x44, 0xa7, 0x2a, 0x08, 0xa2, 0x01, 0x06, 0x16, 0x7f, 0xb7,
  0xe9, 0xab, 0x56, 0x81, 0xae, 0x86, 0xc1, 0x3e, 0xa6, 0x95, 0x23, 0x71,
  0x74, 0xfd, 0xcd, 0x3d, 0xe9, 0xbd, 0x2c, 0x17, 0x43, 0x27, 0x81, 0xcb,
  0x26, 0x06, 0x28, 0x2b, 0x31, 0x91, 0xe4, 0x89, 0x71, 0x65, 0xe9, 0x0e,
  0x28, 0x19, 0x59, 0xa5, 0x1b, 0x20, 0xa0, 0xff, 0xfe, 0x1c, 0x7f, 0xdf,
  0xeb, 0x97, 0x58, 0x92, 0xd5, 0x94, 0xc3, 0x0f, 0xad, 0x98, 0x20, 0x4e,
  0x7f, 0xd5, 0xdb, 0x2d, 0xe8, 0xd8, 0x40, 0x86, 0xb9, 0xa3, 0xff, 0x49,
  0xa7, 0xb8, 0x25, 0x4a, 0x3e, 0x1c, 0xd7, 0x7f, 0xef, 0xdf, 0x56, 0x8d,
  0xc4, 0x81, 0xf7, 0x0b, 0xb9, 0x9c, 0x21, 0x48, 0x68, 0xff, 0xdc, 0x38,
  0x48, 0x34, 0xb1, 0x18, 0x10, 0x21, 0x7f, 0xee, 0x1b, 0x47, 0xac, 0xcd,
  0xfa, 0x3a, 0x59, 0xee, 0x7f, 0x57, 0xcf, 0x0e, 0x17, 0x20, 0x26, 0xc0,
  0x1a, 0x08, 0xb1, 0xcf, 0xfe, 0x21, 0x6f, 0xe0, 0x7f, 0x1b, 0xcc, 0x09,
  0x24, 0x21, 0x37, 0xd9, 0x21, 0x2b, 0x9a, 0xce, 0x01, 0x2c, 0x76, 0xe5,
  0xaa, 0xf8, 0xff, 0xff, 0x04, 0x00, 0x00, 0x00, 0x40, 0x00, 0x00, 0x00,
  0x00, 0x00, 0x00, 0x00, 0x00, 0x00, 0x00, 0x00, 0x00, 0x00, 0x00, 0x00,
  0x00, 0x00, 0x00, 0x00, 0x00, 0x00, 0x00, 0x00, 0x00, 0x00, 0x00, 0x00,
  0x00, 0x00, 0x00, 0x00, 0x00, 0x00, 0x00, 0x00, 0x00, 0x00, 0x00, 0x00,
  0x00, 0x00, 0x00, 0x00, 0x00, 0x00, 0x00, 0x00, 0x00, 0x00, 0x00, 0x00,
  0x00, 0x00, 0x00, 0x00, 0x00, 0x00, 0x00, 0x00, 0x00, 0x00, 0x00, 0x00,
  0x00, 0x00, 0x00, 0x00, 0xf6, 0xf8, 0xff, 0xff, 0x04, 0x00, 0x00, 0x00,
  0x00, 0x01, 0x00, 0x00, 0xfa, 0xec, 0x8b, 0x1f, 0xbc, 0x1a, 0x5b, 0x49,
  0x00, 0x2e, 0xf7, 0x81, 0x7f, 0xe6, 0x36, 0x2d, 0xf6, 0xf1, 0xa0, 0x1b,
  0xb7, 0x16, 0x4e, 0x4e, 0x0b, 0x36, 0xe2, 0x9e, 0x6c, 0xf1, 0x35, 0x3f,
  0xf1, 0xf9, 0xa8, 0x1c, 0xc7, 0x2e, 0x43, 0x56, 0x04, 0x38, 0xbd, 0x9e,
  0x6f, 0xe3, 0x30, 0x27, 0xfd, 0xe9, 0xa5, 0x22, 0x8f, 0xf5, 0x40, 0x75,
  0xf8, 0x2f, 0xba, 0x91, 0x6a, 0xcf, 0x30, 0x31, 0x12, 0xe0, 0x86, 0x19,
  0x81, 0xd5, 0x39, 0x6e, 0xeb, 0x2d, 0xd0, 0x86, 0x68, 0xaf, 0x32, 0x4e,
  0x1a, 0xdf, 0x81, 0x1e, 0x95, 0xc4, 0x3d, 0x6f, 0xec, 0x2d, 0xd9, 0x92,
  0x61, 0x96, 0x3c, 0x4b, 0x2a, 0xd5, 0x92, 0x31, 0x94, 0xca, 0x46, 0x62,
  0xe2, 0x1c, 0xd2, 0xa0, 0x60, 0x81, 0x3d, 0x63, 0x34, 0xd9, 0x9d, 0x06,
  0x8e, 0xc0, 0x5d, 0x5f, 0xc6, 0x0f, 0xd3, 0xaa, 0x54, 0x89, 0x43, 0x71,
  0x43, 0xda, 0xb3, 0xdd, 0x90, 0x95, 0x5e, 0x5d, 0xcb, 0x0c, 0xc6, 0xc6,
  0x4c, 0x83, 0x54, 0x71, 0x50, 0xdc, 0xcb, 0xd5, 0x9c, 0x95, 0x6c, 0x5f,
  0xa9, 0xe4, 0xa7, 0x15, 0x59, 0x83, 0x5a, 0x64, 0x6c, 0xc9, 0xe0, 0xb8,
  0xa4, 0x96, 0x7f, 0x7f, 0x88, 0xaf, 0x9b, 0x2c, 0x5d, 0x86, 0x71, 0x7f,
  0x7f, 0xa9, 0x09, 0xaa, 0xb4, 0x8a, 0x77, 0x6d, 0x8d, 0x94, 0x94, 0x1a,
  0x22, 0x97, 0x7c, 0x77, 0x71, 0x9b, 0x3b, 0xa6, 0xc2, 0x81, 0x77, 0x6c,
  0x81, 0x81, 0x91, 0x3c, 0xf9, 0x9f, 0x7f, 0x75, 0x69, 0x90, 0x45, 0x9c,
  0xd8, 0x98, 0x76, 0x5e, 0x92, 0x8f, 0x95, 0x33, 0xe9, 0x9f, 0x65, 0x66,
  0x61, 0x9b, 0x3f, 0x85, 0xf9, 0x99, 0x7f, 0x54, 0xae, 0xab, 0x98, 0x38,
  0xed, 0x99, 0x5b, 0x6c, 0x72, 0x81, 0x3b, 0x81, 0x00, 0xa1, 0x68, 0x58,
  0xad, 0xa2, 0x81, 0x67, 0xe2, 0x8d, 0x59, 0x6a, 0x02, 0xfa, 0xff, 0xff,
  0x04, 0x00, 0x00, 0x00, 0x40, 0x00, 0x00, 0x00, 0xc6, 0xfc, 0xff, 0xff,
  0xeb, 0xfa, 0xff, 0xff, 0x64, 0xfc, 0xff, 0xff, 0x8c, 0xf9, 0xff, 0xff,
  0xde, 0xfa, 0xff, 0xff, 0xfd, 0xfb, 0xff, 0xff, 0xb2, 0xfd, 0xff, 0xff,
  0x44, 0xfb, 0xff, 0xff, 0xbc, 0xfb, 0xff, 0xff, 0xb0, 0xfa, 0xff, 0xff,
  0x29, 0xfc, 0xff, 0xff, 0x94, 0xf6, 0xff, 0xff, 0xac, 0xfb, 0xff, 0xff,
  0x47, 0xfd, 0xff, 0xff, 0x03, 0xfc, 0xff, 0xff, 0x5a, 0xfc, 0xff, 0xff,
  0x4e, 0xfa, 0xff, 0xff, 0x04, 0x00, 0x00, 0x00, 0xc0, 0x03, 0x00, 0x00,
  0x16, 0xca, 0x07, 0xf2, 0x38, 0x05, 0x1e, 0xf7, 0x1a, 0xf4, 0xf9, 0x1e,
  0x1c, 0x65, 0xfd, 0xef, 0x0b, 0xb4, 0xfd, 0x1c, 0xe0, 0xeb, 0xf6, 0xfc,
  0xe2, 0x09, 0x0b, 0xd2, 0x2d, 0xe6, 0x27, 0x7b, 0x04, 0x25, 0x42, 0x2e,
  0x22, 0x04, 0x08, 0x24, 0x1a, 0x14, 0x1a, 0x1d, 0xd6, 0x26, 0x1c, 0xc3,
  0x00, 0x17, 0xdd, 0xf0, 0xcd, 0xff, 0x0c, 0x26, 0xbb, 0xd0, 0x07, 0x07,
  0xdf, 0xf3, 0xeb, 0xfd, 0xe5, 0x03, 0x0b, 0x0a, 0xf3, 0xfc, 0xdf, 0xf0,
  0xdf, 0xfd, 0x04, 0xff, 0xc1, 0xb6, 0x46, 0x4c, 0x13, 0xf5, 0xf5, 0xec,
  0xdd, 0x09, 0xf6, 0xc4, 0x12, 0x12, 0xd6, 0xe6, 0xde, 0xd1, 0xfd, 0xd8,
  0xee, 0xda, 0xc8, 0xdc, 0x15, 0x08, 0x0b, 0x00, 0x12, 0xff, 0xeb, 0xd4,
  0xf6, 0xff, 0xd9, 0xfa, 0xee, 0xc3, 0xec, 0xe7, 0x02, 0xf8, 0xdd, 0x3e,
  0xf6, 0xf7, 0x12, 0xed, 0x46, 0xee, 0xea, 0x21, 0x10, 0x1c, 0x3a, 0xe3,
  0x16, 0x10, 0x0c, 0xdf, 0x06, 0xe7, 0x08, 0x03, 0xf5, 0x1e, 0xfb, 0x44,
  0x00, 0xeb, 0xf8, 0x0f, 0xea, 0x02, 0x07, 0xfc, 0xfa, 0x21, 0xf3, 0x00,
  0xfa, 0x14, 0xde, 0xa6, 0xf2, 0x47, 0x02, 0x1c, 0xf1, 0xfd, 0xf1, 0x0b,
  0xdc, 0x25, 0x06, 0xf7, 0x1f, 0xdd, 0x35, 0xaa, 0x01, 0x48, 0xf3, 0x1d,
  0xfa, 0xed, 0xf1, 0x25, 0x33, 0xf3, 0x1b, 0xd7, 0xd6, 0x34, 0x3a, 0x08,
  0xcd, 0x51, 0xe4, 0xef, 0xe4, 0x0c, 0xf8, 0xf1, 0x2d, 0xf2, 0x08, 0xf1,
  0xf8, 0xd7, 0xfc, 0x1c, 0xe3, 0x0d, 0x07, 0xf1, 0x00, 0x00, 0xdb, 0x13,
  0x14, 0xd2, 0xec, 0x44, 0x42, 0x32, 0xd1, 0x0a, 0xee, 0x16, 0x13, 0x0f,
  0x4c, 0x10, 0xfa, 0xf3, 0x01, 0x1a, 0x09, 0x15, 0xed, 0xec, 0xe9, 0x2a,
  0x00, 0xfd, 0xf5, 0xfa, 0xd0, 0xf1, 0x29, 0xcc, 0x00, 0xfa, 0x16, 0xf8,
  0x14, 0x2b, 0x0d, 0xd9, 0xff, 0xdf, 0x1e, 0x35, 0x07, 0xfb, 0xff, 0xe4,
  0x17, 0x14, 0xeb, 0xce, 0xc1, 0xca, 0x81, 0xd3, 0x03, 0x53, 0xe6, 0xd9,
  0xe4, 0x00, 0xef, 0x5c, 0x06, 0x0f, 0xe9, 0x15, 0xd2, 0x1c, 0x0d, 0xd5,
  0x09, 0x07, 0x21, 0xda, 0xbf, 0x02, 0x07, 0xf0, 0xeb, 0x25, 0x11, 0x20,
  0x22, 0x07, 0x1c, 0xea, 0x0a, 0x22, 0xd2, 0xf0, 0xf7, 0xe5, 0xe6, 0x38,
  0x0a, 0xf5, 0x29, 0xa8, 0x30, 0x32, 0x19, 0x20, 0x01, 0x10, 0xf2, 0x1c,
  0x0d, 0x1c, 0xf5, 0x30, 0xb3, 0x0a, 0x26, 0x08, 0x0d, 0xfc, 0xcc, 0xd4,
  0x0d, 0xb9, 0xbd, 0xe2, 0xee, 0xed, 0xf1, 0x07, 0xc6, 0xf8, 0xf6, 0xec,
  0xee, 0x2a, 0x1a, 0x2d, 0x15, 0x04, 0x3d, 0xbf, 0x35, 0x08, 0x1e, 0x2e,
  0xd6, 0xc8, 0xfc, 0x2b, 0x47, 0x3f, 0xd6, 0x2a, 0x33, 0xc1, 0x03, 0x29,
  0x0c, 0xff, 0x3b, 0xfc, 0xe9, 0xf6, 0x01, 0xe0, 0xf4, 0xee, 0xee, 0x2e,
  0x0a, 0x0c, 0xbf, 0x16, 0x64, 0xff, 0x17, 0xd7, 0x41, 0x40, 0x07, 0x6d,
  0x18, 0x26, 0xf4, 0xe3, 0x13, 0xc6, 0x14, 0xf8, 0xf1, 0xf5, 0x04, 0x15,
  0xfa, 0xe7, 0xed, 0x26, 0xc2, 0x3e, 0xef, 0xfe, 0xf9, 0xee, 0x38, 0xc3,
  0x0f, 0xec, 0xf0, 0xfb, 0xf2, 0xe6, 0xf8, 0xdb, 0x76, 0xe1, 0x19, 0x2a,
  0xe1, 0x60, 0xdd, 0x4a, 0xe8, 0xf6, 0x32, 0xcb, 0x30, 0x16, 0x06, 0x1c,
  0x2e, 0xfd, 0x1b, 0xe7, 0x0f, 0x4c, 0x18, 0x4b, 0xe3, 0xe1, 0xfc, 0x12,
  0x17, 0x50, 0xeb, 0xd2, 0x70, 0x28, 0xd7, 0x27, 0xf2, 0xd8, 0x1e, 0xfc,
  0x3b, 0x0a, 0xfd, 0x08, 0xe0, 0xda, 0x03, 0xe2, 0xc6, 0x98, 0x9e, 0x22,
  0xfc, 0xc8, 0xf9, 0x01, 0x2c, 0x10, 0xf4, 0xeb, 0xe8, 0x21, 0xf5, 0xff,
  0xd5, 0xd2, 0xf7, 0x34, 0x00, 0xbd, 0xf6, 0x0d, 0xe4, 0xf0, 0x18, 0x15,
  0xfd, 0xf9, 0xd3, 0x50, 0x3a, 0x0d, 0x0d, 0xf3, 0x12, 0x12, 0x0e, 0xed,
  0xb8, 0x06, 0x28, 0x0f, 0xc6, 0x10, 0x0e, 0xd3, 0x09, 0x0b, 0x38, 0xbc,
  0x02, 0x96, 0xe9, 0x01, 0x2a, 0x28, 0x0a, 0xd4, 0x18, 0xdd, 0x0a, 0x2e,
  0xcf, 0x8e, 0x17, 0xe3, 0xf8, 0xc0, 0x4c, 0x4e, 0xe6, 0xc3, 0x04, 0x82,
  0x13, 0x05, 0xce, 0x0a, 0x07, 0xe2, 0x03, 0x48, 0x12, 0x24, 0xc8, 0xf6,
  0x1d, 0x08, 0x3f, 0xed, 0x0d, 0xdc, 0xd9, 0x34, 0xd7, 0xad, 0x04, 0x05,
  0xe3, 0x10, 0x08, 0xdb, 0x1e, 0x01, 0xd7, 0x3a, 0xb1, 0xb7, 0x1d, 0x4a,
  0x25, 0x1c, 0x2e, 0xa8, 0x06, 0x15, 0xb9, 0x02, 0xef, 0x14, 0x51, 0x2e,
  0x4c, 0x2f, 0xfc, 0x1e, 0x2c, 0x2a, 0xf9, 0xef, 0x40, 0x10, 0x02, 0xfb,
  0x0b, 0x36, 0x42, 0xa2, 0x3a, 0x0b, 0xe7, 0x41, 0xfe, 0x11, 0x1e, 0xd0,
  0x07, 0xcd, 0xf2, 0xf2, 0x3e, 0xdb, 0x40, 0xe5, 0x2b, 0x2a, 0xf3, 0xe6,
  0xb5, 0x07, 0xe6, 0xf3, 0x58, 0xce, 0xec, 0xf9, 0x01, 0xf6, 0x34, 0xe0,
  0xf2, 0x99, 0xe0, 0x0a, 0x12, 0x1e, 0x0c, 0x21, 0xf1, 0x11, 0xc6, 0xf7,
  0x4a, 0xee, 0x04, 0xd3, 0x4d, 0x47, 0xf5, 0xf7, 0x0f, 0xf9, 0x28, 0xb3,
  0x26, 0x6c, 0xf8, 0x2f, 0x23, 0x2b, 0x26, 0xeb, 0x30, 0x40, 0xe2, 0xde,
  0xbc, 0xee, 0x4e, 0xbe, 0xf3, 0xee, 0x62, 0xa9, 0xd0, 0x69, 0xf6, 0x72,
  0xe4, 0xd7, 0xe1, 0x08, 0xe6, 0xe1, 0xe6, 0xfc, 0xe9, 0xa1, 0x7f, 0xba,
  0x24, 0xff, 0xc7, 0x39, 0xa5, 0x92, 0xd3, 0x6d, 0xfe, 0x47, 0x2d, 0xf2,
  0x22, 0xf2, 0x14, 0xf7, 0x0a, 0x23, 0xf2, 0xe5, 0xe9, 0xee, 0xfc, 0x55,
  0xff, 0x1d, 0x11, 0xfa, 0x1f, 0xe3, 0xdd, 0x0f, 0xf3, 0xfc, 0xef, 0xd1,
  0x08, 0xe8, 0xe4, 0xef, 0xd9, 0xf7, 0x5a, 0x59, 0x16, 0x36, 0x0f, 0x23,
  0x0e, 0x17, 0xfa, 0x9c, 0x30, 0x34, 0xb1, 0x0b, 0x2c, 0x01, 0xfe, 0xc8,
  0x0d, 0x36, 0x31, 0x2e, 0x34, 0x10, 0x02, 0x06, 0x1a, 0xdc, 0xfc, 0x63,
  0xbd, 0xed, 0xe8, 0xf0, 0x06, 0x16, 0x0a, 0xfc, 0xf3, 0xfd, 0x03, 0x05,
  0x41, 0x1f, 0x07, 0xdf, 0x06, 0x06, 0xdb, 0xdb, 0xe3, 0xce, 0x3c, 0xf0,
  0xee, 0xea, 0xdf, 0x22, 0x09, 0xf7, 0x30, 0xf5, 0x40, 0x3d, 0xa9, 0xc5,
  0xd4, 0x75, 0xab, 0x24, 0xe2, 0xfd, 0x81, 0xc2, 0xf6, 0x3a, 0x06, 0xbc,
  0x59, 0x45, 0x0e, 0xf8, 0x18, 0xb1, 0x03, 0xa5, 0xad, 0xb2, 0x10, 0x49,
  0x95, 0xe3, 0xc8, 0x56, 0xea, 0x34, 0x91, 0x48, 0xd2, 0xa6, 0x52, 0x8f,
  0xac, 0x9f, 0xd3, 0x72, 0x81, 0xab, 0xfd, 0x4d, 0xd9, 0xf0, 0x04, 0x6b,
  0x81, 0xda, 0x6b, 0x0b, 0xe1, 0x11, 0xc7, 0x1c, 0xaf, 0xb9, 0x7f, 0x07,
  0x2c, 0x7f, 0xaf, 0xe3, 0x98, 0x5d, 0x1b, 0xb8, 0xd7, 0x25, 0xa6, 0x0c,
  0xea, 0xda, 0x7b, 0xe0, 0x2d, 0x3a, 0xfb, 0xd0, 0x3f, 0x81, 0xc3, 0xc2,
  0x81, 0x81, 0x27, 0x7f, 0xa6, 0xbd, 0xe9, 0x45, 0xc3, 0xc3, 0xf9, 0x7f,
  0x35, 0xfb, 0xc0, 0x17, 0x27, 0x0b, 0xec, 0xd6, 0x13, 0x7c, 0xf9, 0x08,
  0x81, 0xae, 0x3c, 0x5d, 0xdf, 0x39, 0xd1, 0x43, 0x3b, 0x07, 0xd6, 0x1a,
  0x1b, 0x2d, 0x4b, 0x81, 0x12, 0x36, 0xcf, 0x3c, 0x28, 0xe5, 0xab, 0x7f,
  0x39, 0x28, 0x59, 0xbb, 0x71, 0x7f, 0xd7, 0x97, 0xba, 0xaf, 0x2d, 0xd5,
  0x1a, 0xfe, 0xff, 0xff, 0x04, 0x00, 0x00, 0x00, 0x20, 0x00, 0x00, 0x00,
  0x1e, 0xfd, 0xff, 0xff, 0x92, 0xfb, 0xff, 0xff, 0xed, 0xf9, 0xff, 0xff,
  0x31, 0x01, 0x00, 0x00, 0x97, 0xfe, 0xff, 0xff, 0xaf, 0x02, 0x00, 0x00,
  0x98, 0xfa, 0xff, 0xff, 0xd5, 0xfb, 0xff, 0xff, 0x46, 0xfe, 0xff, 0xff,
  0x04, 0x00, 0x00, 0x00, 0x00, 0x01, 0x00, 0x00, 0xe6, 0x9f, 0x2e, 0xe8,
  0x2e, 0xef, 0xf3, 0xd7, 0xf1, 0x05, 0xb7, 0x44, 0xe3, 0xe4, 0xc6, 0x03,
  0xe7, 0xf8, 0xbe, 0xe0, 0xc4, 0x9a, 0xac, 0xd2, 0x9b, 0xe3, 0xa7, 0xd2,
  0xb2, 0x81, 0xc8, 0xa0, 0x2f, 0x21, 0xe3, 0x29, 0xf3, 0x0b, 0xe3, 0xfd,
  0x04, 0xe4, 0xf9, 0xe4, 0x03, 0xb3, 0x29, 0x05, 0xf8, 0x09, 0x34, 0xf4,
  0x3c, 0x52, 0x27, 0xe3, 0x7f, 0xdf, 0x60, 0xfd, 0x4f, 0x1a, 0x16, 0x68,
  0x7f, 0x22, 0x1f, 0x16, 0xfe, 0xc2, 0x0b, 0xef, 0xc6, 0x1a, 0x94, 0xdc,
  0xce, 0xb6, 0x11, 0x28, 0x39, 0x28, 0x51, 0xf3, 0x03, 0x0b, 0x1f, 0xe6,
  0x06, 0xda, 0xb5, 0xe1, 0x9c, 0xfe, 0x9a, 0x0c, 0x6b, 0x3a, 0x0f, 0xf7,
  0x1b, 0x26, 0xc8, 0x27, 0xe2, 0x09, 0xf8, 0xfb, 0xd5, 0x18, 0xe4, 0xd0,
  0x28, 0xda, 0x08, 0x09, 0xf2, 0x1c, 0xf4, 0x3d, 0x2c, 0xed, 0x41, 0xfd,
  0x0d, 0x22, 0xff, 0x7f, 0x81, 0x04, 0xc3, 0xb9, 0x0b, 0xe0, 0xea, 0xd5,
  0xdb, 0xc2, 0xd2, 0x32, 0xbf, 0x32, 0x40, 0xd2, 0x2f, 0x1e, 0x0c, 0x11,
  0xef, 0xeb, 0x0a, 0xeb, 0xf2, 0xf6, 0x9b, 0x0d, 0xb8, 0xc7, 0xbe, 0xb6,
  0x4a, 0x08, 0xe0, 0x6d, 0xcd, 0x40, 0x3b, 0x42, 0xd7, 0x37, 0x7f, 0xe0,
  0xb3, 0x37, 0xc4, 0x8e, 0x83, 0xd4, 0xd8, 0xc1, 0x8b, 0xdb, 0x00, 0x8c,
  0xf3, 0xd3, 0x5e, 0x93, 0x57, 0xd2, 0x59, 0x17, 0x14, 0x29, 0x26, 0x0d,
  0x26, 0x10, 0x74, 0x00, 0x5d, 0x1b, 0x3c, 0x74, 0x65, 0x38, 0x5e, 0x39,
  0x58, 0x7f, 0xf4, 0x76, 0x1e, 0x77, 0x34, 0x1d, 0x30, 0x32, 0x44, 0xec,
  0x39, 0xe9, 0x10, 0x49, 0xd9, 0xe0, 0x0c, 0x31, 0x5f, 0x01, 0xe3, 0xd1,
  0x9f, 0x1b, 0x64, 0x50, 0xf3, 0xcb, 0xd7, 0xf3, 0x63, 0x53, 0x1f, 0xc3,
  0xa9, 0xa4, 0x7f, 0x2a, 0x6c, 0x02, 0xc8, 0x93, 0x03, 0x43, 0x3c, 0x0c,
  0x52, 0xff, 0xff, 0xff, 0x04, 0x00, 0x00, 0x00, 0x08, 0x00, 0x00, 0x00,
  0xff, 0xff, 0xff, 0xff, 0x40, 0x00, 0x00, 0x00, 0x68, 0xec, 0xff, 0xff,
  0x6c, 0xec, 0xff, 0xff, 0x0f, 0x00, 0x00, 0x00, 0x4d, 0x4c, 0x49, 0x52,
  0x20, 0x43, 0x6f, 0x6e, 0x76, 0x65, 0x72, 0x74, 0x65, 0x64, 0x2e, 0x00,
  0x01, 0x00, 0x00, 0x00, 0x14, 0x00, 0x00, 0x00, 0x00, 0x00, 0x0e, 0x00,
  0x18, 0x00, 0x14, 0x00, 0x10, 0x00, 0x0c, 0x00, 0x08, 0x00, 0x04, 0x00,
  0x0e, 0x00, 0x00, 0x00, 0x14, 0x00, 0x00, 0x00, 0x1c, 0x00, 0x00, 0x00,
  0xc0, 0x02, 0x00, 0x00, 0xc4, 0x02, 0x00, 0x00, 0xc8, 0x02, 0x00, 0x00,
  0x04, 0x00, 0x00, 0x00, 0x6d, 0x61, 0x69, 0x6e, 0x00, 0x00, 0x00, 0x00,
  0x09, 0x00, 0x00, 0x00, 0x60, 0x02, 0x00, 0x00, 0xf4, 0x01, 0x00, 0x00,
  0x90, 0x01, 0x00, 0x00, 0x40, 0x01, 0x00, 0x00, 0xf0, 0x00, 0x00, 0x00,
  0xac, 0x00, 0x00, 0x00, 0x84, 0x00, 0x00, 0x00, 0x40, 0x00, 0x00, 0x00,
  0x04, 0x00, 0x00, 0x00, 0x3a, 0xfe, 0xff, 0xff, 0x1c, 0x00, 0x00, 0x00,
  0x00, 0x00, 0x00, 0x09, 0x1c, 0x00, 0x00, 0x00, 0x20, 0x00, 0x00, 0x00,
  0x05, 0x00, 0x00, 0x00, 0x00, 0x00, 0x06, 0x00, 0x08, 0x00, 0x04, 0x00,
  0x06, 0x00, 0x00, 0x00, 0x00, 0x00, 0x80, 0x3f, 0x01, 0x00, 0x00, 0x00,
  0x14, 0x00, 0x00, 0x00, 0x01, 0x00, 0x00, 0x00, 0x13, 0x00, 0x00, 0x00,
  0x72, 0xfe, 0xff, 0xff, 0x14, 0x00, 0x00, 0x00, 0x00, 0x00, 0x00, 0x08,
  0x10, 0x00, 0x00, 0x00, 0x14, 0x00, 0x00, 0x00, 0x04, 0x00, 0x00, 0x00,
  0x38, 0xed, 0xff, 0xff, 0x01, 0x00, 0x00, 0x00, 0x13, 0x00, 0x00, 0x00,
  0x03, 0x00, 0x00, 0x00, 0x12, 0x00, 0x00, 0x00, 0x0a, 0x00, 0x00, 0x00,
  0x0b, 0x00, 0x00, 0x00, 0x00, 0x00, 0x0a, 0x00, 0x10, 0x00, 0x0c, 0x00,
  0x08, 0x00, 0x04, 0x00, 0x0a, 0x00, 0x00, 0x00, 0x0c, 0x00, 0x00, 0x00,
  0x10, 0x00, 0x00, 0x00, 0x03, 0x00, 0x00, 0x00, 0x01, 0x00, 0x00, 0x00,
  0x12, 0x00, 0x00, 0x00, 0x02, 0x00, 0x00, 0x00, 0x11, 0x00, 0x00, 0x00,
  0x01, 0x00, 0x00, 0x00, 0xd6, 0xfe, 0xff, 0xff, 0x14, 0x00, 0x00, 0x00,
  0x00, 0x00, 0x00, 0x05, 0x24, 0x00, 0x00, 0x00, 0x28, 0x00, 0x00, 0x00,
  0x02, 0x00, 0x00, 0x00, 0x26, 0xff, 0xff, 0xff, 0x01, 0x00, 0x00, 0x00,
  0x08, 0x00, 0x00, 0x00, 0x01, 0x00, 0x00, 0x00, 0x08, 0x00, 0x00, 0x00,
  0x00, 0x00, 0x00, 0x01, 0x01, 0x00, 0x00, 0x00, 0x11, 0x00, 0x00, 0x00,
  0x01, 0x00, 0x00, 0x00, 0x10, 0x00, 0x00, 0x00, 0xae, 0xfe, 0xff, 0xff,
  0x1c, 0x00, 0x00, 0x00, 0x00, 0x00, 0x00, 0x01, 0x28, 0x00, 0x00, 0x00,
  0x2c, 0x00, 0x00, 0x00, 0x0c, 0x00, 0x14, 0x00, 0x13, 0x00, 0x0c, 0x00,
  0x08, 0x00, 0x07, 0x00, 0x0c, 0x00, 0x00, 0x00, 0x00, 0x00, 0x00, 0x01,
  0x01, 0x00, 0x00, 0x00, 0x01, 0x00, 0x00, 0x00, 0x00, 0x00, 0x00, 0x01,
  0x01, 0x00, 0x00, 0x00, 0x10, 0x00, 0x00, 0x00, 0x03, 0x00, 0x00, 0x00,
  0x0f, 0x00, 0x00, 0x00, 0x08, 0x00, 0x00, 0x00, 0x09, 0x00, 0x00, 0x00,
  0x62, 0xff, 0xff, 0xff, 0x20, 0x00, 0x00, 0x00, 0x00, 0x00, 0x00, 0x02,
  0x28, 0x00, 0x00, 0x00, 0x2c, 0x00, 0x00, 0x00, 0x01, 0x00, 0x00, 0x00,
  0x0c, 0x00, 0x10, 0x00, 0x00, 0x00, 0x0c, 0x00, 0x08, 0x00, 0x04, 0x00,
  0x0c, 0x00, 0x00, 0x00, 0x01, 0x00, 0x00, 0x00, 0x01, 0x00, 0x00, 0x00,
  0x01, 0x00, 0x00, 0x00, 0x01, 0x00, 0x00, 0x00, 0x0f, 0x00, 0x00, 0x00,
  0x03, 0x00, 0x00, 0x00, 0x0e, 0x00, 0x00, 0x00, 0x06, 0x00, 0x00, 0x00,
  0x07, 0x00, 0x00, 0x00, 0xae, 0xff, 0xff, 0xff, 0x24, 0x00, 0x00, 0x00,
  0x00, 0x00, 0x00, 0x05, 0x34, 0x00, 0x00, 0x00, 0x38, 0x00, 0x00, 0x00,
  0x02, 0x00, 0x00, 0x00, 0x00, 0x00, 0x0e, 0x00, 0x18, 0x00, 0x17, 0x00,
  0x10, 0x00, 0x0c, 0x00, 0x08, 0x00, 0x04, 0x00, 0x0e, 0x00, 0x00, 0x00,
  0x01, 0x00, 0x00, 0x00, 0x04, 0x00, 0x00, 0x00, 0x01, 0x00, 0x00, 0x00,
  0x04, 0x00, 0x00, 0x00, 0x00, 0x00, 0x00, 0x01, 0x01, 0x00, 0x00, 0x00,
  0x0e, 0x00, 0x00, 0x00, 0x01, 0x00, 0x00, 0x00, 0x0d, 0x00, 0x00, 0x00,
  0x00, 0x00, 0x0e, 0x00, 0x1a, 0x00, 0x14, 0x00, 0x10, 0x00, 0x0c, 0x00,
  0x0b, 0x00, 0x04, 0x00, 0x0e, 0x00, 0x00, 0x00, 0x24, 0x00, 0x00, 0x00,
  0x00, 0x00, 0x00, 0x02, 0x34, 0x00, 0x00, 0x00, 0x38, 0x00, 0x00, 0x00,
  0x01, 0x00, 0x00, 0x00, 0x00, 0x00, 0x0e, 0x00, 0x18, 0x00, 0x17, 0x00,
  0x10, 0x00, 0x0c, 0x00, 0x08, 0x00, 0x07, 0x00, 0x0e, 0x00, 0x00, 0x00,
  0x00, 0x00, 0x00, 0x01, 0x02, 0x00, 0x00, 0x00, 0x01, 0x00, 0x00, 0x00,
  0x01, 0x00, 0x00, 0x00, 0x00, 0x00, 0x00, 0x01, 0x01, 0x00, 0x00, 0x00,
  0x0d, 0x00, 0x00, 0x00, 0x03, 0x00, 0x00, 0x00, 0x0c, 0x00, 0x00, 0x00,
  0x04, 0x00, 0x00, 0x00, 0x05, 0x00, 0x00, 0x00, 0x00, 0x00, 0x0e, 0x00,
  0x16, 0x00, 0x00, 0x00, 0x10, 0x00, 0x0c, 0x00, 0x0b, 0x00, 0x04, 0x00,
  0x0e, 0x00, 0x00, 0x00, 0x1c, 0x00, 0x00, 0x00, 0x00, 0x00, 0x00, 0x01,
  0x20, 0x00, 0x00, 0x00, 0x24, 0x00, 0x00, 0x00, 0x00, 0x00, 0x0a, 0x00,
  0x0c, 0x00, 0x00, 0x00, 0x08, 0x00, 0x04, 0x00, 0x0a, 0x00, 0x00, 0x00,
  0x01, 0x00, 0x00, 0x00, 0x01, 0x00, 0x00, 0x00, 0x01, 0x00, 0x00, 0x00,
  0x0c, 0x00, 0x00, 0x00, 0x03, 0x00, 0x00, 0x00, 0x00, 0x00, 0x00, 0x00,
  0x02, 0x00, 0x00, 0x00, 0x03, 0x00, 0x00, 0x00, 0x01, 0x00, 0x00, 0x00,
  0x14, 0x00, 0x00, 0x00, 0x01, 0x00, 0x00, 0x00, 0x00, 0x00, 0x00, 0x00,
  0x15, 0x00, 0x00, 0x00, 0xc0, 0x10, 0x00, 0x00, 0x68, 0x10, 0x00, 0x00,
  0x9c, 0x0f, 0x00, 0x00, 0xc0, 0x0e, 0x00, 0x00, 0x24, 0x0d, 0x00, 0x00,
  0xf8, 0x0b, 0x00, 0x00, 0xb8, 0x0a, 0x00, 0x00, 0x40, 0x09, 0x00, 0x00,
  0x0c, 0x08, 0x00, 0x00, 0xe0, 0x06, 0x00, 0x00, 0x7c, 0x06, 0x00, 0x00,
  0x10, 0x06, 0x00, 0x00, 0x64, 0x05, 0x00, 0x00, 0x68, 0x04, 0x00, 0x00,
  0xdc, 0x03, 0x00, 0x00, 0x38, 0x03, 0x00, 0x00, 0x0c, 0x02, 0x00, 0x00,
  0x78, 0x01, 0x00, 0x00, 0x04, 0x01, 0x00, 0x00, 0x80, 0x00, 0x00, 0x00,
  0x04, 0x00, 0x00, 0x00, 0xa8, 0xef, 0xff, 0xff, 0x18, 0x00, 0x00, 0x00,
  0x20, 0x00, 0x00, 0x00, 0x40, 0x00, 0x00, 0x00, 0x15, 0x00, 0x00, 0x00,
  0x00, 0x00, 0x00, 0x09, 0x54, 0x00, 0x00, 0x00, 0x02, 0x00, 0x00, 0x00,
  0xff, 0xff, 0xff, 0xff, 0x04, 0x00, 0x00, 0x00, 0x8c, 0xef, 0xff, 0xff,
  0x08, 0x00, 0x00, 0x00, 0x14, 0x00, 0x00, 0x00, 0x01, 0x00, 0x00, 0x00,
  0x80, 0xff, 0xff, 0xff, 0xff, 0xff, 0xff, 0xff, 0x00, 0x00, 0x00, 0x00,
  0x01, 0x00, 0x00, 0x00, 0x00, 0x00, 0x80, 0x3b, 0x19, 0x00, 0x00, 0x00,
  0x53, 0x74, 0x61, 0x74, 0x65, 0x66, 0x75, 0x6c, 0x50, 0x61, 0x72, 0x74,
  0x69, 0x74, 0x69, 0x6f, 0x6e, 0x65, 0x64, 0x43, 0x61, 0x6c, 0x6c, 0x3a,
  0x30, 0x00, 0x00, 0x00, 0x02, 0x00, 0x00, 0x00, 0x01, 0x00, 0x00, 0x00,
  0x04, 0x00, 0x00, 0x00, 0x20, 0xf0, 0xff, 0xff, 0x18, 0x00, 0x00, 0x00,
  0x20, 0x00, 0x00, 0x00, 0x3c, 0x00, 0x00, 0x00, 0x14, 0x00, 0x00, 0x00,
  0x00, 0x00, 0x00, 0x09, 0x5c, 0x00, 0x00, 0x00, 0x02, 0x00, 0x00, 0x00,
  0xff, 0xff, 0xff, 0xff, 0x04, 0x00, 0x00, 0x00, 0x04, 0xf0, 0xff, 0xff,
  0x08, 0x00, 0x00, 0x00, 0x10, 0x00, 0x00, 0x00, 0x01, 0x00, 0x00, 0x00,
  0xfa, 0xff, 0xff, 0xff, 0xff, 0xff, 0xff, 0xff, 0x01, 0x00, 0x00, 0x00,
  0xc7, 0xdc, 0x0e, 0x3d, 0x26, 0x00, 0x00, 0x00, 0x6d, 0x6f, 0x64, 0x65,
  0x6c, 0x2f, 0x64, 0x65, 0x6e, 0x73, 0x65, 0x2f, 0x4d, 0x61, 0x74, 0x4d,
  0x75, 0x6c, 0x3b, 0x6d, 0x6f, 0x64, 0x65, 0x6c, 0x2f, 0x64, 0x65, 0x6e,
  0x73, 0x65, 0x2f, 0x42, 0x69, 0x61, 0x73, 0x41, 0x64, 0x64, 0x00, 0x00,
  0x02, 0x00, 0x00, 0x00, 0x01, 0x00, 0x00, 0x00, 0x04, 0x00, 0x00, 0x00,
  0xa0, 0xf0, 0xff, 0xff, 0x18, 0x00, 0x00, 0x00, 0x20, 0x00, 0x00, 0x00,
  0x3c, 0x00, 0x00, 0x00, 0x13, 0x00, 0x00, 0x00, 0x00, 0x00, 0x00, 0x09,
  0x4c, 0x00, 0x00, 0x00, 0x02, 0x00, 0x00, 0x00, 0xff, 0xff, 0xff, 0xff,
  0x40, 0x00, 0x00, 0x00, 0x84, 0xf0, 0xff, 0xff, 0x08, 0x00, 0x00, 0x00,
  0x10, 0x00, 0x00, 0x00, 0x01, 0x00, 0x00, 0x00, 0x80, 0xff, 0xff, 0xff,
  0xff, 0xff, 0xff, 0xff, 0x01, 0x00, 0x00, 0x00, 0x88, 0xa2, 0x6c, 0x3d,
  0x15, 0x00, 0x00, 0x00, 0x6d, 0x6f, 0x64, 0x65, 0x6c, 0x2f, 0x66, 0x6c,
  0x61, 0x74, 0x74, 0x65, 0x6e, 0x2f, 0x52, 0x65, 0x73, 0x68, 0x61, 0x70,
  0x65, 0x00, 0x00, 0x00, 0x02, 0x00, 0x00, 0x00, 0x01, 0x00, 0x00, 0x00,
  0x40, 0x00, 0x00, 0x00, 0x10, 0xf1, 0xff, 0xff, 0x18, 0x00, 0x00, 0x00,
  0x28, 0x00, 0x00, 0x00, 0x48, 0x00, 0x00, 0x00, 0x12, 0x00, 0x00, 0x00,
  0x00, 0x00, 0x00, 0x09, 0x64, 0x00, 0x00, 0x00, 0x04, 0x00, 0x00, 0x00,
  0xff, 0xff, 0xff, 0xff, 0x01, 0x00, 0x00, 0x00, 0x04, 0x00, 0x00, 0x00,
  0x10, 0x00, 0x00, 0x00, 0xfc, 0xf0, 0xff, 0xff, 0x08, 0x00, 0x00, 0x00,
  0x14, 0x00, 0x00, 0x00, 0x01, 0x00, 0x00, 0x00, 0x80, 0xff, 0xff, 0xff,
  0xff, 0xff, 0xff, 0xff, 0x00, 0x00, 0x00, 0x00, 0x01, 0x00, 0x00, 0x00,
  0x88, 0xa2, 0x6c, 0x3d, 0x21, 0x00, 0x00, 0x00, 0x6d, 0x6f, 0x64, 0x65,
  0x6c, 0x2f, 0x61, 0x76, 0x65, 0x72, 0x61, 0x67, 0x65, 0x5f, 0x70, 0x6f,
  0x6f, 0x6c, 0x69, 0x6e, 0x67, 0x32, 0x64, 0x5f, 0x31, 0x2f, 0x41, 0x76,
  0x67, 0x50, 0x6f, 0x6f, 0x6c, 0x00, 0x00, 0x00, 0x04, 0x00, 0x00, 0x00,
  0x01, 0x00, 0x00, 0x00, 0x01, 0x00, 0x00, 0x00, 0x04, 0x00, 0x00, 0x00,
  0x10, 0x00, 0x00, 0x00, 0xa0, 0xf1, 0xff, 0xff, 0x18, 0x00, 0x00, 0x00,
  0x28, 0x00, 0x00, 0x00, 0x48, 0x00, 0x00, 0x00, 0x11, 0x00, 0x00, 0x00,
  0x00, 0x00, 0x00, 0x09, 0xfc, 0x00, 0x00, 0x00, 0x04, 0x00, 0x00, 0x00,
  0xff, 0xff, 0xff, 0xff, 0x01, 0x00, 0x00, 0x00, 0x25, 0x00, 0x00, 0x00,
  0x10, 0x00, 0x00, 0x00, 0x8c, 0xf1, 0xff, 0xff, 0x08, 0x00, 0x00, 0x00,
  0x14, 0x00, 0x00, 0x00, 0x01, 0x00, 0x00, 0x00, 0x80, 0xff, 0xff, 0xff,
  0xff, 0xff, 0xff, 0xff, 0x00, 0x00, 0x00, 0x00, 0x01, 0x00, 0x00, 0x00,
  0x88, 0xa2, 0x6c, 0x3d, 0xba, 0x00, 0x00, 0x00, 0x6d, 0x6f, 0x64, 0x65,
  0x6c, 0x2f, 0x61, 0x63, 0x74, 0x69, 0x76, 0x61, 0x74, 0x69, 0x6f, 0x6e,
  0x5f, 0x31, 0x2f, 0x52, 0x65, 0x6c, 0x75, 0x3b, 0x6d, 0x6f, 0x64, 0x65,
  0x6c, 0x2f, 0x62, 0x61, 0x74, 0x63, 0x68, 0x5f, 0x6e, 0x6f, 0x72, 0x6d,
  0x61, 0x6c, 0x69, 0x7a, 0x61, 0x74, 0x69, 0x6f, 0x6e, 0x5f, 0x32, 0x2f,
  0x46, 0x75, 0x73, 0x65, 0x64, 0x42, 0x61, 0x74, 0x63, 0x68, 0x4e, 0x6f,
  0x72, 0x6d, 0x56, 0x33, 0x3b, 0x6d, 0x6f, 0x64, 0x65, 0x6c, 0x2f, 0x62,
  0x61, 0x74, 0x63, 0x68, 0x5f, 0x6e, 0x6f, 0x72, 0x6d, 0x61, 0x6c, 0x69,
  0x7a, 0x61, 0x74, 0x69, 0x6f, 0x6e, 0x5f, 0x31, 0x2f, 0x46, 0x75, 0x73,
  0x65, 0x64, 0x42, 0x61, 0x74, 0x63, 0x68, 0x4e, 0x6f, 0x72, 0x6d, 0x56,
  0x33, 0x3b, 0x6d, 0x6f, 0x64, 0x65, 0x6c, 0x2f, 0x64, 0x65, 0x70, 0x74,
  0x68, 0x77, 0x69, 0x73, 0x65, 0x5f, 0x63, 0x6f, 0x6e, 0x76, 0x32, 0x64,
  0x2f, 0x64, 0x65, 0x70, 0x74, 0x68, 0x77, 0x69, 0x73, 0x65, 0x3b, 0x6d,
  0x6f, 0x64, 0x65, 0x6c, 0x2f, 0x73, 0x65, 0x70, 0x61, 0x72, 0x61, 0x62,
  0x6c, 0x65, 0x5f, 0x63, 0x6f, 0x6e, 0x76, 0x32, 0x64, 0x2f, 0x73, 0x65,
  0x70, 0x61, 0x72, 0x61, 0x62, 0x6c, 0x65, 0x5f, 0x63, 0x6f, 0x6e, 0x76,
  0x32, 0x64, 0x00, 0x00, 0x04, 0x00, 0x00, 0x00, 0x01, 0x00, 0x00, 0x00,
  0x01, 0x00, 0x00, 0x00, 0x25, 0x00, 0x00, 0x00, 0x10, 0x00, 0x00, 0x00,
  0xc8, 0xf2, 0xff, 0xff, 0x18, 0x00, 0x00, 0x00, 0x28, 0x00, 0x00, 0x00,
  0x48, 0x00, 0x00, 0x00, 0x10, 0x00, 0x00, 0x00, 0x00, 0x00, 0x00, 0x09,
  0x74, 0x00, 0x00, 0x00, 0x04, 0x00, 0x00, 0x00, 0xff, 0xff, 0xff, 0xff,
  0x01, 0x00, 0x00, 0x00, 0x25, 0x00, 0x00, 0x00, 0x10, 0x00, 0x00, 0x00,
  0xb4, 0xf2, 0xff, 0xff, 0x08, 0x00, 0x00, 0x00, 0x14, 0x00, 0x00, 0x00,
  0x01, 0x00, 0x00, 0x00, 0x09, 0x00, 0x00, 0x00, 0x00, 0x00, 0x00, 0x00,
  0x00, 0x00, 0x00, 0x00, 0x01, 0x00, 0x00, 0x00, 0x56, 0xc6, 0x37, 0x3c,
  0x32, 0x00, 0x00, 0x00, 0x6d, 0x6f, 0x64, 0x65, 0x6c, 0x2f, 0x73, 0x65,
  0x70, 0x61, 0x72, 0x61, 0x62, 0x6c, 0x65, 0x5f, 0x63, 0x6f, 0x6e, 0x76,
  0x32, 0x64, 0x2f, 0x73, 0x65, 0x70, 0x61, 0x72, 0x61, 0x62, 0x6c, 0x65,
  0x5f, 0x63, 0x6f, 0x6e, 0x76, 0x32, 0x64, 0x2f, 0x64, 0x65, 0x70, 0x74,
  0x68, 0x77, 0x69, 0x73, 0x65, 0x31, 0x00, 0x00, 0x04, 0x00, 0x00, 0x00,
  0x01, 0x00, 0x00, 0x00, 0x01, 0x00, 0x00, 0x00, 0x25, 0x00, 0x00, 0x00,
  0x10, 0x00, 0x00, 0x00, 0x68, 0xf3, 0xff, 0xff, 0x18, 0x00, 0x00, 0x00,
  0x28, 0x00, 0x00, 0x00, 0x44, 0x00, 0x00, 0x00, 0x0f, 0x00, 0x00, 0x00,
  0x00, 0x00, 0x00, 0x09, 0x5c, 0x00, 0x00, 0x00, 0x04, 0x00, 0x00, 0x00,
  0xff, 0xff, 0xff, 0xff, 0x01, 0x00, 0x00, 0x00, 0x25, 0x00, 0x00, 0x00,
  0x10, 0x00, 0x00, 0x00, 0x54, 0xf3, 0xff, 0xff, 0x08, 0x00, 0x00, 0x00,
  0x10, 0x00, 0x00, 0x00, 0x01, 0x00, 0x00, 0x00, 0x80, 0xff, 0xff, 0xff,
  0xff, 0xff, 0xff, 0xff, 0x01, 0x00, 0x00, 0x00, 0x2c, 0x94, 0x64, 0x3c,
  0x1f, 0x00, 0x00, 0x00, 0x6d, 0x6f, 0x64, 0x65, 0x6c, 0x2f, 0x61, 0x76,
  0x65, 0x72, 0x61, 0x67, 0x65, 0x5f, 0x70, 0x6f, 0x6f, 0x6c, 0x69, 0x6e,
  0x67, 0x32, 0x64, 0x2f, 0x41, 0x76, 0x67, 0x50, 0x6f, 0x6f, 0x6c, 0x00,
  0x04, 0x00, 0x00, 0x00, 0x01, 0x00, 0x00, 0x00, 0x01, 0x00, 0x00, 0x00,
  0x25, 0x00, 0x00, 0x00, 0x10, 0x00, 0x00, 0x00, 0xf0, 0xf3, 0xff, 0xff,
  0x18, 0x00, 0x00, 0x00, 0x28, 0x00, 0x00, 0x00, 0x48, 0x00, 0x00, 0x00,
  0x0e, 0x00, 0x00, 0x00, 0x00, 0x00, 0x00, 0x09, 0xcc, 0x00, 0x00, 0x00,
  0x04, 0x00, 0x00, 0x00, 0xff, 0xff, 0xff, 0xff, 0x01, 0x00, 0x00, 0x00,
  0x97, 0x00, 0x00, 0x00, 0x10, 0x00, 0x00, 0x00, 0xdc, 0xf3, 0xff, 0xff,
  0x08, 0x00, 0x00, 0x00, 0x14, 0x00, 0x00, 0x00, 0x01, 0x00, 0x00, 0x00,
  0x80, 0xff, 0xff, 0xff, 0xff, 0xff, 0xff, 0xff, 0x00, 0x00, 0x00, 0x00,
  0x01, 0x00, 0x00, 0x00, 0x2c, 0x94, 0x64, 0x3c, 0x8b, 0x00, 0x00, 0x00,
  0x6d, 0x6f, 0x64, 0x65, 0x6c, 0x2f, 0x61, 0x63, 0x74, 0x69, 0x76, 0x61,
  0x74, 0x69, 0x6f, 0x6e, 0x2f, 0x52, 0x65, 0x6c, 0x75, 0x3b, 0x6d, 0x6f,
  0x64, 0x65, 0x6c, 0x2f, 0x62, 0x61, 0x74, 0x63, 0x68, 0x5f, 0x6e, 0x6f,
  0x72, 0x6d, 0x61, 0x6c, 0x69, 0x7a, 0x61, 0x74, 0x69, 0x6f, 0x6e, 0x5f,
  0x31, 0x2f, 0x46, 0x75, 0x73, 0x65, 0x64, 0x42, 0x61, 0x74, 0x63, 0x68,
  0x4e, 0x6f, 0x72, 0x6d, 0x56, 0x33, 0x3b, 0x6d, 0x6f, 0x64, 0x65, 0x6c,
  0x2f, 0x64, 0x65, 0x70, 0x74, 0x68, 0x77, 0x69, 0x73, 0x65, 0x5f, 0x63,
  0x6f, 0x6e, 0x76, 0x32, 0x64, 0x2f, 0x64, 0x65, 0x70, 0x74, 0x68, 0x77,
  0x69, 0x73, 0x65, 0x3b, 0x6d, 0x6f, 0x64, 0x65, 0x6c, 0x2f, 0x73, 0x65,
  0x70, 0x61, 0x72, 0x61, 0x62, 0x6c, 0x65, 0x5f, 0x63, 0x6f, 0x6e, 0x76,
  0x32, 0x64, 0x2f, 0x73, 0x65, 0x70, 0x61, 0x72, 0x61, 0x62, 0x6c, 0x65,
  0x5f, 0x63, 0x6f, 0x6e, 0x76, 0x32, 0x64, 0x00, 0x04, 0x00, 0x00, 0x00,
  0x01, 0x00, 0x00, 0x00, 0x01, 0x00, 0x00, 0x00, 0x97, 0x00, 0x00, 0x00,
  0x10, 0x00, 0x00, 0x00, 0xe8, 0xf4, 0xff, 0xff, 0x18, 0x00, 0x00, 0x00,
  0x28, 0x00, 0x00, 0x00, 0x44, 0x00, 0x00, 0x00, 0x0d, 0x00, 0x00, 0x00,
  0x00, 0x00, 0x00, 0x09, 0x7c, 0x00, 0x00, 0x00, 0x04, 0x00, 0x00, 0x00,
  0xff, 0xff, 0xff, 0xff, 0x3c, 0x00, 0x00, 0x00, 0x97, 0x00, 0x00, 0x00,
  0x08, 0x00, 0x00, 0x00, 0xd4, 0xf4, 0xff, 0xff, 0x08, 0x00, 0x00, 0x00,
  0x10, 0x00, 0x00, 0x00, 0x01, 0x00, 0x00, 0x00, 0x0e, 0x00, 0x00, 0x00,
  0x00, 0x00, 0x00, 0x00, 0x01, 0x00, 0x00, 0x00, 0x6d, 0x97, 0x6b, 0x3c,
  0x3f, 0x00, 0x00, 0x00, 0x6d, 0x6f, 0x64, 0x65, 0x6c, 0x2f, 0x62, 0x61,
  0x74, 0x63, 0x68, 0x5f, 0x6e, 0x6f, 0x72, 0x6d, 0x61, 0x6c, 0x69, 0x7a,
  0x61, 0x74, 0x69, 0x6f, 0x6e, 0x2f, 0x46, 0x75, 0x73, 0x65, 0x64, 0x42,
  0x61, 0x74, 0x63, 0x68, 0x4e, 0x6f, 0x72, 0x6d, 0x56, 0x33, 0x3b, 0x6d,
  0x6f, 0x64, 0x65, 0x6c, 0x2f, 0x63, 0x6f, 0x6e, 0x76, 0x32, 0x64, 0x2f,
  0x43, 0x6f, 0x6e, 0x76, 0x32, 0x44, 0x31, 0x00, 0x04, 0x00, 0x00, 0x00,
  0x01, 0x00, 0x00, 0x00, 0x3c, 0x00, 0x00, 0x00, 0x97, 0x00, 0x00, 0x00,
  0x08, 0x00, 0x00, 0x00, 0xde, 0xf5, 0xff, 0xff, 0x14, 0x00, 0x00, 0x00,
  0x30, 0x00, 0x00, 0x00, 0x0c, 0x00, 0x00, 0x00, 0x00, 0x00, 0x00, 0x02,
  0x4c, 0x00, 0x00, 0x00, 0x64, 0xf5, 0xff, 0xff, 0x08, 0x00, 0x00, 0x00,
  0x10, 0x00, 0x00, 0x00, 0x01, 0x00, 0x00, 0x00, 0x00, 0x00, 0x00, 0x00,
  0x00, 0x00, 0x00, 0x00, 0x01, 0x00, 0x00, 0x00, 0x98, 0xe5, 0xe1, 0x37,
  0x22, 0x00, 0x00, 0x00, 0x6d, 0x6f, 0x64, 0x65, 0x6c, 0x2f, 0x64, 0x65,
  0x6e, 0x73, 0x65, 0x2f, 0x42, 0x69, 0x61, 0x73, 0x41, 0x64, 0x64, 0x2f,
  0x52, 0x65, 0x61, 0x64, 0x56, 0x61, 0x72, 0x69, 0x61, 0x62, 0x6c, 0x65,
  0x4f, 0x70, 0x00, 0x00, 0x01, 0x00, 0x00, 0x00, 0x04, 0x00, 0x00, 0x00,
  0x46, 0xf6, 0xff, 0xff, 0x14, 0x00, 0x00, 0x00, 0x34, 0x00, 0x00, 0x00,
  0x0b, 0x00, 0x00, 0x00, 0x00, 0x00, 0x00, 0x09, 0x40, 0x00, 0x00, 0x00,
  0xcc, 0xf5, 0xff, 0xff, 0x08, 0x00, 0x00, 0x00, 0x14, 0x00, 0x00, 0x00,
  0x01, 0x00, 0x00, 0x00, 0x00, 0x00, 0x00, 0x00, 0x00, 0x00, 0x00, 0x00,
  0x00, 0x00, 0x00, 0x00, 0x01, 0x00, 0x00, 0x00, 0x1a, 0x62, 0xf4, 0x39,
  0x12, 0x00, 0x00, 0x00, 0x6d, 0x6f, 0x64, 0x65, 0x6c, 0x2f, 0x64, 0x65,
  0x6e, 0x73, 0x65, 0x2f, 0x4d, 0x61, 0x74, 0x4d, 0x75, 0x6c, 0x00, 0x00,
  0x02, 0x00, 0x00, 0x00, 0x04, 0x00, 0x00, 0x00, 0x40, 0x00, 0x00, 0x00,
  0xa6, 0xf6, 0xff, 0xff, 0x14, 0x00, 0x00, 0x00, 0xe4, 0x00, 0x00, 0x00,
  0x0a, 0x00, 0x00, 0x00, 0x00, 0x00, 0x00, 0x02, 0x0c, 0x01, 0x00, 0x00,
  0x2c, 0xf6, 0xff, 0xff, 0x08, 0x00, 0x00, 0x00, 0x88, 0x00, 0x00, 0x00,
  0x10, 0x00, 0x00, 0x00, 0x00, 0x00, 0x00, 0x00, 0x00, 0x00, 0x00, 0x00,
  0x00, 0x00, 0x00, 0x00, 0x00, 0x00, 0x00, 0x00, 0x00, 0x00, 0x00, 0x00,
  0x00, 0x00, 0x00, 0x00, 0x00, 0x00, 0x00, 0x00, 0x00, 0x00, 0x00, 0x00,
  0x00, 0x00, 0x00, 0x00, 0x00, 0x00, 0x00, 0x00, 0x00, 0x00, 0x00, 0x00,
  0x00, 0x00, 0x00, 0x00, 0x00, 0x00, 0x00, 0x00, 0x00, 0x00, 0x00, 0x00,
  0x00, 0x00, 0x00, 0x00, 0x00, 0x00, 0x00, 0x00, 0x00, 0x00, 0x00, 0x00,
  0x00, 0x00, 0x00, 0x00, 0x00, 0x00, 0x00, 0x00, 0x00, 0x00, 0x00, 0x00,
  0x00, 0x00, 0x00, 0x00, 0x00, 0x00, 0x00, 0x00, 0x00, 0x00, 0x00, 0x00,
  0x00, 0x00, 0x00, 0x00, 0x00, 0x00, 0x00, 0x00, 0x00, 0x00, 0x00, 0x00,
  0x00, 0x00, 0x00, 0x00, 0x00, 0x00, 0x00, 0x00, 0x00, 0x00, 0x00, 0x00,
  0x00, 0x00, 0x00, 0x00, 0x00, 0x00, 0x00, 0x00, 0x00, 0x00, 0x00, 0x00,
  0x10, 0x00, 0x00, 0x00, 0xe7, 0xd1, 0xf4, 0x39, 0x19, 0x34, 0x19, 0x3a,
  0x38, 0x9b, 0xdc, 0x39, 0xfd, 0xa6, 0x0d, 0x3a, 0x67, 0xd7, 0xda, 0x39,
  0x92, 0x80, 0xd8, 0x39, 0x60, 0x09, 0x08, 0x3a, 0x97, 0x79, 0xd7, 0x39,
  0x5e, 0xb3, 0x1e, 0x3a, 0x8e, 0x2c, 0x04, 0x3a, 0x81, 0x4a, 0xff, 0x39,
  0x85, 0x3e, 0xfb, 0x39, 0xa1, 0xd3, 0x04, 0x3a, 0x70, 0xa6, 0x0e, 0x3a,
  0xa8, 0xbe, 0x0c, 0x3a, 0x27, 0x57, 0xfc, 0x39, 0x2c, 0x00, 0x00, 0x00,
  0x6d, 0x6f, 0x64, 0x65, 0x6c, 0x2f, 0x62, 0x61, 0x74, 0x63, 0x68, 0x5f,
  0x6e, 0x6f, 0x72, 0x6d, 0x61, 0x6c, 0x69, 0x7a, 0x61, 0x74, 0x69, 0x6f,
  0x6e, 0x5f, 0x32, 0x2f, 0x46, 0x75, 0x73, 0x65, 0x64, 0x42, 0x61, 0x74,
  0x63, 0x68, 0x4e, 0x6f, 0x72, 0x6d, 0x56, 0x33, 0x00, 0x00, 0x00, 0x00,
  0x01, 0x00, 0x00, 0x00, 0x10, 0x00, 0x00, 0x00, 0xce, 0xf7, 0xff, 0xff,
  0x14, 0x00, 0x00, 0x00, 0xe8, 0x00, 0x00, 0x00, 0x09, 0x00, 0x00, 0x00,
  0x00, 0x00, 0x00, 0x09, 0x08, 0x01, 0x00, 0x00, 0x54, 0xf7, 0xff, 0xff,
  0x08, 0x00, 0x00, 0x00, 0x8c, 0x00, 0x00, 0x00, 0x10, 0x00, 0x00, 0x00,
  0x00, 0x00, 0x00, 0x00, 0x00, 0x00, 0x00, 0x00, 0x00, 0x00, 0x00, 0x00,
  0x00, 0x00, 0x00, 0x00, 0x00, 0x00, 0x00, 0x00, 0x00, 0x00, 0x00, 0x00,
  0x00, 0x00, 0x00, 0x00, 0x00, 0x00, 0x00, 0x00, 0x00, 0x00, 0x00, 0x00,
  0x00, 0x00, 0x00, 0x00, 0x00, 0x00, 0x00, 0x00, 0x00, 0x00, 0x00, 0x00,
  0x00, 0x00, 0x00, 0x00, 0x00, 0x00, 0x00, 0x00, 0x00, 0x00, 0x00, 0x00,
  0x00, 0x00, 0x00, 0x00, 0x00, 0x00, 0x00, 0x00, 0x00, 0x00, 0x00, 0x00,
  0x00, 0x00, 0x00, 0x00, 0x00, 0x00, 0x00, 0x00, 0x00, 0x00, 0x00, 0x00,
  0x00, 0x00, 0x00, 0x00, 0x00, 0x00, 0x00, 0x00, 0x00, 0x00, 0x00, 0x00,
  0x00, 0x00, 0x00, 0x00, 0x00, 0x00, 0x00, 0x00, 0x00, 0x00, 0x00, 0x00,
  0x00, 0x00, 0x00, 0x00, 0x00, 0x00, 0x00, 0x00, 0x00, 0x00, 0x00, 0x00,
  0x00, 0x00, 0x00, 0x00, 0x00, 0x00, 0x00, 0x00, 0x00, 0x00, 0x00, 0x00,
  0x10, 0x00, 0x00, 0x00, 0xad, 0x84, 0x2a, 0x3d, 0xfa, 0x69, 0x55, 0x3d,
  0x43, 0xa7, 0x19, 0x3d, 0xb1, 0x52, 0x45, 0x3d, 0x92, 0x6c, 0x18, 0x3d,
  0x7b, 0xcb, 0x16, 0x3d, 0x16, 0x80, 0x3d, 0x3d, 0x50, 0x14, 0x16, 0x3d,
  0x50, 0x12, 0x5d, 0x3d, 0xa5, 0x1e, 0x38, 0x3d, 0xba, 0xcf, 0x31, 0x3d,
  0x29, 0xfe, 0x2e, 0x3d, 0x62, 0x07, 0x39, 0x3d, 0x89, 0xb6, 0x46, 0x3d,
  0x0d, 0x0f, 0x44, 0x3d, 0x9f, 0xc1, 0x2f, 0x3d, 0x27, 0x00, 0x00, 0x00,
  0x6d, 0x6f, 0x64, 0x65, 0x6c, 0x2f, 0x73, 0x65, 0x70, 0x61, 0x72, 0x61,
  0x62, 0x6c, 0x65, 0x5f, 0x63, 0x6f, 0x6e, 0x76, 0x32, 0x64, 0x2f, 0x73,
  0x65, 0x70, 0x61, 0x72, 0x61, 0x62, 0x6c, 0x65, 0x5f, 0x63, 0x6f, 0x6e,
  0x76, 0x32, 0x64, 0x00, 0x04, 0x00, 0x00, 0x00, 0x10, 0x00, 0x00, 0x00,
  0x01, 0x00, 0x00, 0x00, 0x01, 0x00, 0x00, 0x00, 0x10, 0x00, 0x00, 0x00,
  0xfe, 0xf8, 0xff, 0xff, 0x14, 0x00, 0x00, 0x00, 0xe8, 0x00, 0x00, 0x00,
  0x08, 0x00, 0x00, 0x00, 0x00, 0x00, 0x00, 0x02, 0x58, 0x01, 0x00, 0x00,
  0x84, 0xf8, 0xff, 0xff, 0x08, 0x00, 0x00, 0x00, 0x8c, 0x00, 0x00, 0x00,
  0x10, 0x00, 0x00, 0x00, 0x00, 0x00, 0x00, 0x00, 0x00, 0x00, 0x00, 0x00,
  0x00, 0x00, 0x00, 0x00, 0x00, 0x00, 0x00, 0x00, 0x00, 0x00, 0x00, 0x00,
  0x00, 0x00, 0x00, 0x00, 0x00, 0x00, 0x00, 0x00, 0x00, 0x00, 0x00, 0x00,
  0x00, 0x00, 0x00, 0x00, 0x00, 0x00, 0x00, 0x00, 0x00, 0x00, 0x00, 0x00,
  0x00, 0x00, 0x00, 0x00, 0x00, 0x00, 0x00, 0x00, 0x00, 0x00, 0x00, 0x00,
  0x00, 0x00, 0x00, 0x00, 0x00, 0x00, 0x00, 0x00, 0x00, 0x00, 0x00, 0x00,
  0x00, 0x00, 0x00, 0x00, 0x00, 0x00, 0x00, 0x00, 0x00, 0x00, 0x00, 0x00,
  0x00, 0x00, 0x00, 0x00, 0x00, 0x00, 0x00, 0x00, 0x00, 0x00, 0x00, 0x00,
  0x00, 0x00, 0x00, 0x00, 0x00, 0x00, 0x00, 0x00, 0x00, 0x00, 0x00, 0x00,
  0x00, 0x00, 0x00, 0x00, 0x00, 0x00, 0x00, 0x00, 0x00, 0x00, 0x00, 0x00,
  0x00, 0x00, 0x00, 0x00, 0x00, 0x00, 0x00, 0x00, 0x00, 0x00, 0x00, 0x00,
  0x00, 0x00, 0x00, 0x00, 0x10, 0x00, 0x00, 0x00, 0xbb, 0xbb, 0xec, 0x37,
  0x32, 0x62, 0x18, 0x37, 0x37, 0x56, 0x98, 0x37, 0x4a, 0xcb, 0xd5, 0x37,
  0x82, 0x30, 0x88, 0x37, 0x34, 0x16, 0x0a, 0x38, 0xe3, 0xe8, 0x87, 0x37,
  0xbf, 0x6f, 0x6a, 0x37, 0xdd, 0xb9, 0x9a, 0x37, 0x7c, 0x8f, 0xb6, 0x37,
  0xc3, 0xbb, 0xd8, 0x37, 0x07, 0x32, 0x4d, 0x37, 0x96, 0xc9, 0x8d, 0x37,
  0xa9, 0x02, 0x55, 0x37, 0xd4, 0xcd, 0x01, 0x38, 0x7c, 0x9d, 0xaf, 0x37,
  0x75, 0x00, 0x00, 0x00, 0x6d, 0x6f, 0x64, 0x65, 0x6c, 0x2f, 0x62, 0x61,
  0x74, 0x63, 0x68, 0x5f, 0x6e, 0x6f, 0x72, 0x6d, 0x61, 0x6c, 0x69, 0x7a,
  0x61, 0x74, 0x69, 0x6f, 0x6e, 0x5f, 0x31, 0x2f, 0x46, 0x75, 0x73, 0x65,
  0x64, 0x42, 0x61, 0x74, 0x63, 0x68, 0x4e, 0x6f, 0x72, 0x6d, 0x56, 0x33,
  0x3b, 0x6d, 0x6f, 0x64, 0x65, 0x6c, 0x2f, 0x64, 0x65, 0x70, 0x74, 0x68,
  0x77, 0x69, 0x73, 0x65, 0x5f, 0x63, 0x6f, 0x6e, 0x76, 0x32, 0x64, 0x2f,
  0x64, 0x65, 0x70, 0x74, 0x68, 0x77, 0x69, 0x73, 0x65, 0x3b, 0x6d, 0x6f,
  0x64, 0x65, 0x6c, 0x2f, 0x73, 0x65, 0x70, 0x61, 0x72, 0x61, 0x62, 0x6c,
  0x65, 0x5f, 0x63, 0x6f, 0x6e, 0x76, 0x32, 0x64, 0x2f, 0x73, 0x65, 0x70,
  0x61, 0x72, 0x61, 0x62, 0x6c, 0x65, 0x5f, 0x63, 0x6f, 0x6e, 0x76, 0x32,
  0x64, 0x00, 0x00, 0x00, 0x01, 0x00, 0x00, 0x00, 0x10, 0x00, 0x00, 0x00,
  0x72, 0xfa, 0xff, 0xff, 0x14, 0x00, 0x00, 0x00, 0xe8, 0x00, 0x00, 0x00,
  0x07, 0x00, 0x00, 0x00, 0x00, 0x00, 0x00, 0x09, 0x14, 0x01, 0x00, 0x00,
  0x9a, 0xfd, 0xff, 0xff, 0x03, 0x00, 0x00, 0x00, 0x08, 0x00, 0x00, 0x00,
  0x88, 0x00, 0x00, 0x00, 0x10, 0x00, 0x00, 0x00, 0x00, 0x00, 0x00, 0x00,
  0x00, 0x00, 0x00, 0x00, 0x00, 0x00, 0x00, 0x00, 0x00, 0x00, 0x00, 0x00,
  0x00, 0x00, 0x00, 0x00, 0x00, 0x00, 0x00, 0x00, 0x00, 0x00, 0x00, 0x00,
  0x00, 0x00, 0x00, 0x00, 0x00, 0x00, 0x00, 0x00, 0x00, 0x00, 0x00, 0x00,
  0x00, 0x00, 0x00, 0x00, 0x00, 0x00, 0x00, 0x00, 0x00, 0x00, 0x00, 0x00,
  0x00, 0x00, 0x00, 0x00, 0x00, 0x00, 0x00, 0x00, 0x00, 0x00, 0x00, 0x00,
  0x00, 0x00, 0x00, 0x00, 0x00, 0x00, 0x00, 0x00, 0x00, 0x00, 0x00, 0x00,
  0x00, 0x00, 0x00, 0x00, 0x00, 0x00, 0x00, 0x00, 0x00, 0x00, 0x00, 0x00,
  0x00, 0x00, 0x00, 0x00, 0x00, 0x00, 0x00, 0x00, 0x00, 0x00, 0x00, 0x00,
  0x00, 0x00, 0x00, 0x00, 0x00, 0x00, 0x00, 0x00, 0x00, 0x00, 0x00, 0x00,
  0x00, 0x00, 0x00, 0x00, 0x00, 0x00, 0x00, 0x00, 0x00, 0x00, 0x00, 0x00,
  0x00, 0x00, 0x00, 0x00, 0x10, 0x00, 0x00, 0x00, 0xff, 0x90, 0x04, 0x3b,
  0x03, 0xaa, 0x2a, 0x3a, 0x98, 0x9c, 0xaa, 0x3a, 0x11, 0x71, 0xef, 0x3a,
  0xfd, 0x86, 0x98, 0x3a, 0xf3, 0xa6, 0x1a, 0x3b, 0xc7, 0x36, 0x98, 0x3a,
  0xbc, 0x47, 0x83, 0x3a, 0x9e, 0x49, 0xad, 0x3a, 0x0e, 0x76, 0xcc, 0x3a,
  0xcf, 0xbb, 0xf2, 0x3a, 0xbc, 0xcf, 0x65, 0x3a, 0xfc, 0xcb, 0x9e, 0x3a,
  0x5f, 0x90, 0x6e, 0x3a, 0x35, 0x60, 0x11, 0x3b, 0xc2, 0xae, 0xc4, 0x3a,
  0x31, 0x00, 0x00, 0x00, 0x6d, 0x6f, 0x64, 0x65, 0x6c, 0x2f, 0x73, 0x65,
  0x70, 0x61, 0x72, 0x61, 0x62, 0x6c, 0x65, 0x5f, 0x63, 0x6f, 0x6e, 0x76,
  0x32, 0x64, 0x2f, 0x73, 0x65, 0x70, 0x61, 0x72, 0x61, 0x62, 0x6c, 0x65,
  0x5f, 0x63, 0x6f, 0x6e, 0x76, 0x32, 0x64, 0x2f, 0x64, 0x65, 0x70, 0x74,
  0x68, 0x77, 0x69, 0x73, 0x65, 0x00, 0x00, 0x00, 0x04, 0x00, 0x00, 0x00,
  0x01, 0x00, 0x00, 0x00, 0x01, 0x00, 0x00, 0x00, 0x10, 0x00, 0x00, 0x00,
  0x10, 0x00, 0x00, 0x00, 0xae, 0xfb, 0xff, 0xff, 0x14, 0x00, 0x00, 0x00,
  0xe4, 0x00, 0x00, 0x00, 0x06, 0x00, 0x00, 0x00, 0x00, 0x00, 0x00, 0x02,
  0x0c, 0x01, 0x00, 0x00, 0x34, 0xfb, 0xff, 0xff, 0x08, 0x00, 0x00, 0x00,
  0x88, 0x00, 0x00, 0x00, 0x10, 0x00, 0x00, 0x00, 0x00, 0x00, 0x00, 0x00,
  0x00, 0x00, 0x00, 0x00, 0x00, 0x00, 0x00, 0x00, 0x00, 0x00, 0x00, 0x00,
  0x00, 0x00, 0x00, 0x00, 0x00, 0x00, 0x00, 0x00, 0x00, 0x00, 0x00, 0x00,
  0x00, 0x00, 0x00, 0x00, 0x00, 0x00, 0x00, 0x00, 0x00, 0x00, 0x00, 0x00,
  0x00, 0x00, 0x00, 0x00, 0x00, 0x00, 0x00, 0x00, 0x00, 0x00, 0x00, 0x00,
  0x00, 0x00, 0x00, 0x00, 0x00, 0x00, 0x00, 0x00, 0x00, 0x00, 0x00, 0x00,
  0x00, 0x00, 0x00, 0x00, 0x00, 0x00, 0x00, 0x00, 0x00, 0x00, 0x00, 0x00,
  0x00, 0x00, 0x00, 0x00, 0x00, 0x00, 0x00, 0x00, 0x00, 0x00, 0x00, 0x00,
  0x00, 0x00, 0x00, 0x00, 0x00, 0x00, 0x00, 0x00, 0x00, 0x00, 0x00, 0x00,
  0x00, 0x00, 0x00, 0x00, 0x00, 0x00, 0x00, 0x00, 0x00, 0x00, 0x00, 0x00,
  0x00, 0x00, 0x00, 0x00, 0x00, 0x00, 0x00, 0x00, 0x00, 0x00, 0x00, 0x00,
  0x00, 0x00, 0x00, 0x00, 0x10, 0x00, 0x00, 0x00, 0xbe, 0xb3, 0x42, 0x3a,
  0xed, 0x02, 0xa8, 0x39, 0xcd, 0xd1, 0x13, 0x3a, 0x21, 0x4c, 0xfa, 0x39,
  0x89, 0xa6, 0xca, 0x39, 0x77, 0xc7, 0x5d, 0x3a, 0xa2, 0xc9, 0x1f, 0x3a,
  0x1a, 0x01, 0xd0, 0x39, 0xe1, 0x55, 0xf5, 0x39, 0xa7, 0xd1, 0xe3, 0x39,
  0xbc, 0x7f, 0x1d, 0x3a, 0xb9, 0x2f, 0x82, 0x39, 0x6b, 0x9d, 0xdc, 0x39,
  0x45, 0xf4, 0xbf, 0x39, 0x43, 0x70, 0x2b, 0x3a, 0xe8, 0xb8, 0x03, 0x3a,
  0x2c, 0x00, 0x00, 0x00, 0x6d, 0x6f, 0x64, 0x65, 0x6c, 0x2f, 0x62, 0x61,
  0x74, 0x63, 0x68, 0x5f, 0x6e, 0x6f, 0x72, 0x6d, 0x61, 0x6c, 0x69, 0x7a,
  0x61, 0x74, 0x69, 0x6f, 0x6e, 0x5f, 0x31, 0x2f, 0x46, 0x75, 0x73, 0x65,
  0x64, 0x42, 0x61, 0x74, 0x63, 0x68, 0x4e, 0x6f, 0x72, 0x6d, 0x56, 0x33,
  0x00, 0x00, 0x00, 0x00, 0x01, 0x00, 0x00, 0x00, 0x10, 0x00, 0x00, 0x00,
  0xd6, 0xfc, 0xff, 0xff, 0x28, 0x00, 0x00, 0x00, 0x00, 0x01, 0x00, 0x00,
  0x05, 0x00, 0x00, 0x00, 0x00, 0x00, 0x00, 0x09, 0x70, 0x01, 0x00, 0x00,
  0x00, 0x00, 0x12, 0x00, 0x10, 0x00, 0x00, 0x00, 0x00, 0x00, 0x0c, 0x00,
  0x08, 0x00, 0x00, 0x00, 0x00, 0x00, 0x04, 0x00, 0x12, 0x00, 0x00, 0x00,
  0x03, 0x00, 0x00, 0x00, 0x08, 0x00, 0x00, 0x00, 0x8c, 0x00, 0x00, 0x00,
  0x10, 0x00, 0x00, 0x00, 0x00, 0x00, 0x00, 0x00, 0x00, 0x00, 0x00, 0x00,
  0x00, 0x00, 0x00, 0x00, 0x00, 0x00, 0x00, 0x00, 0x00, 0x00, 0x00, 0x00,
  0x00, 0x00, 0x00, 0x00, 0x00, 0x00, 0x00, 0x00, 0x00, 0x00, 0x00, 0x00,
  0x00, 0x00, 0x00, 0x00, 0x00, 0x00, 0x00, 0x00, 0x00, 0x00, 0x00, 0x00,
  0x00, 0x00, 0x00, 0x00, 0x00, 0x00, 0x00, 0x00, 0x00, 0x00, 0x00, 0x00,
  0x00, 0x00, 0x00, 0x00, 0x00, 0x00, 0x00, 0x00, 0x00, 0x00, 0x00, 0x00,
  0x00, 0x00, 0x00, 0x00, 0x00, 0x00, 0x00, 0x00, 0x00, 0x00, 0x00, 0x00,
  0x00, 0x00, 0x00, 0x00, 0x00, 0x00, 0x00, 0x00, 0x00, 0x00, 0x00, 0x00,
  0x00, 0x00, 0x00, 0x00, 0x00, 0x00, 0x00, 0x00, 0x00, 0x00, 0x00, 0x00,
  0x00, 0x00, 0x00, 0x00, 0x00, 0x00, 0x00, 0x00, 0x00, 0x00, 0x00, 0x00,
  0x00, 0x00, 0x00, 0x00, 0x00, 0x00, 0x00, 0x00, 0x00, 0x00, 0x00, 0x00,
  0x00, 0x00, 0x00, 0x00, 0x10, 0x00, 0x00, 0x00, 0x89, 0x91, 0x53, 0x3d,
  0xd1, 0x90, 0xb6, 0x3c, 0xe8, 0x9f, 0x20, 0x3d, 0x6a, 0xfd, 0x07, 0x3d,
  0x99, 0x34, 0xdc, 0x3c, 0xbb, 0xfd, 0x70, 0x3d, 0x26, 0xa1, 0x2d, 0x3d,
  0xe4, 0x05, 0xe2, 0x3c, 0x45, 0x4b, 0x05, 0x3d, 0xdc, 0x8d, 0xf7, 0x3c,
  0x7f, 0x24, 0x2b, 0x3d, 0xca, 0x76, 0x8d, 0x3c, 0xdd, 0xb9, 0xef, 0x3c,
  0x20, 0x95, 0xd0, 0x3c, 0x27, 0x4a, 0x3a, 0x3d, 0x09, 0x22, 0x0f, 0x3d,
  0x76, 0x00, 0x00, 0x00, 0x6d, 0x6f, 0x64, 0x65, 0x6c, 0x2f, 0x62, 0x61,
  0x74, 0x63, 0x68, 0x5f, 0x6e, 0x6f, 0x72, 0x6d, 0x61, 0x6c, 0x69, 0x7a,
  0x61, 0x74, 0x69, 0x6f, 0x6e, 0x5f, 0x31, 0x2f, 0x46, 0x75, 0x73, 0x65,
  0x64, 0x42, 0x61, 0x74, 0x63, 0x68, 0x4e, 0x6f, 0x72, 0x6d, 0x56, 0x33,
  0x3b, 0x6d, 0x6f, 0x64, 0x65, 0x6c, 0x2f, 0x64, 0x65, 0x70, 0x74, 0x68,
  0x77, 0x69, 0x73, 0x65, 0x5f, 0x63, 0x6f, 0x6e, 0x76, 0x32, 0x64, 0x2f,
  0x64, 0x65, 0x70, 0x74, 0x68, 0x77, 0x69, 0x73, 0x65, 0x3b, 0x6d, 0x6f,
  0x64, 0x65, 0x6c, 0x2f, 0x73, 0x65, 0x70, 0x61, 0x72, 0x61, 0x62, 0x6c,
  0x65, 0x5f, 0x63, 0x6f, 0x6e, 0x76, 0x32, 0x64, 0x2f, 0x73, 0x65, 0x70,
  0x61, 0x72, 0x61, 0x62, 0x6c, 0x65, 0x5f, 0x63, 0x6f, 0x6e, 0x76, 0x32,
  0x64, 0x31, 0x00, 0x00, 0x04, 0x00, 0x00, 0x00, 0x01, 0x00, 0x00, 0x00,
  0x3c, 0x00, 0x00, 0x00, 0x01, 0x00, 0x00, 0x00, 0x10, 0x00, 0x00, 0x00,
  0x6e, 0xfe, 0xff, 0xff, 0x14, 0x00, 0x00, 0x00, 0x84, 0x00, 0x00, 0x00,
  0x04, 0x00, 0x00, 0x00, 0x00, 0x00, 0x00, 0x02, 0xbc, 0x00, 0x00, 0x00,
  0xf4, 0xfd, 0xff, 0xff, 0x08, 0x00, 0x00, 0x00, 0x48, 0x00, 0x00, 0x00,
  0x08, 0x00, 0x00, 0x00, 0x00, 0x00, 0x00, 0x00, 0x00, 0x00, 0x00, 0x00,
  0x00, 0x00, 0x00, 0x00, 0x00, 0x00, 0x00, 0x00, 0x00, 0x00, 0x00, 0x00,
  0x00, 0x00, 0x00, 0x00, 0x00, 0x00, 0x00, 0x00, 0x00, 0x00, 0x00, 0x00,
  0x00, 0x00, 0x00, 0x00, 0x00, 0x00, 0x00, 0x00, 0x00, 0x00, 0x00, 0x00,
  0x00, 0x00, 0x00, 0x00, 0x00, 0x00, 0x00, 0x00, 0x00, 0x00, 0x00, 0x00,
  0x00, 0x00, 0x00, 0x00, 0x00, 0x00, 0x00, 0x00, 0x08, 0x00, 0x00, 0x00,
  0x2e, 0xec, 0x02, 0x38, 0x92, 0xfe, 0x02, 0x38, 0xc2, 0x91, 0x2a, 0x38,
  0x45, 0xb7, 0x12, 0x38, 0xcf, 0x08, 0x18, 0x38, 0x78, 0x67, 0xa5, 0x37,
  0x01, 0xf2, 0xda, 0x37, 0x90, 0x7c, 0xd6, 0x37, 0x3e, 0x00, 0x00, 0x00,
  0x6d, 0x6f, 0x64, 0x65, 0x6c, 0x2f, 0x62, 0x61, 0x74, 0x63, 0x68, 0x5f,
  0x6e, 0x6f, 0x72, 0x6d, 0x61, 0x6c, 0x69, 0x7a, 0x61, 0x74, 0x69, 0x6f,
  0x6e, 0x2f, 0x46, 0x75, 0x73, 0x65, 0x64, 0x42, 0x61, 0x74, 0x63, 0x68,
  0x4e, 0x6f, 0x72, 0x6d, 0x56, 0x33, 0x3b, 0x6d, 0x6f, 0x64, 0x65, 0x6c,
  0x2f, 0x63, 0x6f, 0x6e, 0x76, 0x32, 0x64, 0x2f, 0x43, 0x6f, 0x6e, 0x76,
  0x32, 0x44, 0x00, 0x00, 0x01, 0x00, 0x00, 0x00, 0x08, 0x00, 0x00, 0x00,
  0x46, 0xff, 0xff, 0xff, 0x14, 0x00, 0x00, 0x00, 0x84, 0x00, 0x00, 0x00,
  0x03, 0x00, 0x00, 0x00, 0x00, 0x00, 0x00, 0x09, 0x90, 0x00, 0x00, 0x00,
  0xcc, 0xfe, 0xff, 0xff, 0x08, 0x00, 0x00, 0x00, 0x48, 0x00, 0x00, 0x00,
  0x08, 0x00, 0x00, 0x00, 0x00, 0x00, 0x00, 0x00, 0x00, 0x00, 0x00, 0x00,
  0x00, 0x00, 0x00, 0x00, 0x00, 0x00, 0x00, 0x00, 0x00, 0x00, 0x00, 0x00,
  0x00, 0x00, 0x00, 0x00, 0x00, 0x00, 0x00, 0x00, 0x00, 0x00, 0x00, 0x00,
  0x00, 0x00, 0x00, 0x00, 0x00, 0x00, 0x00, 0x00, 0x00, 0x00, 0x00, 0x00,
  0x00, 0x00, 0x00, 0x00, 0x00, 0x00, 0x00, 0x00, 0x00, 0x00, 0x00, 0x00,
  0x00, 0x00, 0x00, 0x00, 0x00, 0x00, 0x00, 0x00, 0x08, 0x00, 0x00, 0x00,
  0xc5, 0x9b, 0x1c, 0x3d, 0xc5, 0xb1, 0x1c, 0x3d, 0x9c, 0x08, 0x4c, 0x3d,
  0x14, 0x80, 0x2f, 0x3d, 0xbe, 0xdc, 0x35, 0x3d, 0xe5, 0xda, 0xc5, 0x3c,
  0x45, 0xf3, 0x02, 0x3d, 0x94, 0x48, 0x00, 0x3d, 0x13, 0x00, 0x00, 0x00,
  0x6d, 0x6f, 0x64, 0x65, 0x6c, 0x2f, 0x63, 0x6f, 0x6e, 0x76, 0x32, 0x64,
  0x2f, 0x43, 0x6f, 0x6e, 0x76, 0x32, 0x44, 0x00, 0x04, 0x00, 0x00, 0x00,
  0x08, 0x00, 0x00, 0x00, 0x01, 0x00, 0x00, 0x00, 0x20, 0x00, 0x00, 0x00,
  0x01, 0x00, 0x00, 0x00, 0x00, 0x00, 0x0e, 0x00, 0x18, 0x00, 0x14, 0x00,
  0x13, 0x00, 0x0c, 0x00, 0x08, 0x00, 0x04, 0x00, 0x0e, 0x00, 0x00, 0x00,
  0x18, 0x00, 0x00, 0x00, 0x18, 0x00, 0x00, 0x00, 0x02, 0x00, 0x00, 0x00,
  0x00, 0x00, 0x00, 0x02, 0x24, 0x00, 0x00, 0x00, 0x04, 0x00, 0x04, 0x00,
  0x04, 0x00, 0x00, 0x00, 0x13, 0x00, 0x00, 0x00, 0x6d, 0x6f, 0x64, 0x65,
  0x6c, 0x2f, 0x66, 0x6c, 0x61, 0x74, 0x74, 0x65, 0x6e, 0x2f, 0x43, 0x6f,
  0x6e, 0x73, 0x74, 0x00, 0x01, 0x00, 0x00, 0x00, 0x02, 0x00, 0x00, 0x00,
  0x14, 0x00, 0x1c, 0x00, 0x18, 0x00, 0x17, 0x00, 0x10, 0x00, 0x0c, 0x00,
  0x08, 0x00, 0x00, 0x00, 0x00, 0x00, 0x04, 0x00, 0x14, 0x00, 0x00, 0x00,
  0x18, 0x00, 0x00, 0x00, 0x34, 0x00, 0x00, 0x00, 0x54, 0x00, 0x00, 0x00,
  0x01, 0x00, 0x00, 0x00, 0x00, 0x00, 0x00, 0x09, 0x68, 0x00, 0x00, 0x00,
  0x04, 0x00, 0x00, 0x00, 0xff, 0xff, 0xff, 0xff, 0x3c, 0x00, 0x00, 0x00,
  0x97, 0x00, 0x00, 0x00, 0x01, 0x00, 0x00, 0x00, 0x0c, 0x00, 0x0c, 0x00,
  0x00, 0x00, 0x00, 0x00, 0x08, 0x00, 0x04, 0x00, 0x0c, 0x00, 0x00, 0x00,
  0x08, 0x00, 0x00, 0x00, 0x14, 0x00, 0x00, 0x00, 0x01, 0x00, 0x00, 0x00,
  0xe8, 0xff, 0xff, 0xff, 0xff, 0xff, 0xff, 0xff, 0x00, 0x00, 0x00, 0x00,
  0x01, 0x00, 0x00, 0x00, 0x37, 0x03, 0x56, 0x3a, 0x19, 0x00, 0x00, 0x00,
  0x73, 0x65, 0x72, 0x76, 0x69, 0x6e, 0x67, 0x5f, 0x64, 0x65, 0x66, 0x61,
  0x75, 0x6c, 0x74, 0x5f, 0x69, 0x6e, 0x70, 0x75, 0x74, 0x5f, 0x31, 0x3a,
  0x30, 0x00, 0x00, 0x00, 0x04, 0x00, 0x00, 0x00, 0x01, 0x00, 0x00, 0x00,
  0x3c, 0x00, 0x00, 0x00, 0x97, 0x00, 0x00, 0x00, 0x01, 0x00, 0x00, 0x00,
  0x06, 0x00, 0x00, 0x00, 0x7c, 0x00, 0x00, 0x00, 0x5c, 0x00, 0x00, 0x00,
  0x48, 0x00, 0x00, 0x00, 0x38, 0x00, 0x00, 0x00, 0x18, 0x00, 0x00, 0x00,
  0x04, 0x00, 0x00, 0x00, 0xa8, 0xff, 0xff, 0xff, 0x19, 0x00, 0x00, 0x00,
  0x02, 0x00, 0x00, 0x00, 0x00, 0x00, 0x00, 0x19, 0xb8, 0xff, 0xff, 0xff,
  0x09, 0x00, 0x00, 0x00, 0x04, 0x00, 0x00, 0x00, 0x00, 0x00, 0x00, 0x09,
  0x0c, 0x00, 0x0c, 0x00, 0x0b, 0x00, 0x00, 0x00, 0x00, 0x00, 0x04, 0x00,
  0x0c, 0x00, 0x00, 0x00, 0x16, 0x00, 0x00, 0x00, 0x00, 0x00, 0x00, 0x16,
  0xe0, 0xff, 0xff, 0xff, 0x01, 0x00, 0x00, 0x00, 0x02, 0x00, 0x00, 0x00,
  0x00, 0x00, 0x00, 0x01, 0xf0, 0xff, 0xff, 0xff, 0x04, 0x00, 0x00, 0x00,
  0x03, 0x00, 0x00, 0x00, 0x00, 0x00, 0x00, 0x04, 0x0c, 0x00, 0x10, 0x00,
  0x0f, 0x00, 0x00, 0x00, 0x08, 0x00, 0x04, 0x00, 0x0c, 0x00, 0x00, 0x00,
  0x03, 0x00, 0x00, 0x00, 0x03, 0x00, 0x00, 0x00, 0x00, 0x00, 0x00, 0x03
 
};

#endif //MODEL_TFLITE_H