#ifndef MODEL_TFLITE_H
#define MODEL_TFLITE_H


unsigned int model_tflite_len = 8360;
unsigned char model_tflite[] = {
 0x20, 0x00, 0x00, 0x00, 0x54, 0x46, 0x4c, 0x33, 0x00, 0x00, 0x00, 0x00,
  0x14, 0x00, 0x20, 0x00, 0x1c, 0x00, 0x18, 0x00, 0x14, 0x00, 0x10, 0x00,
  0x0c, 0x00, 0x00, 0x00, 0x08, 0x00, 0x04, 0x00, 0x14, 0x00, 0x00, 0x00,
  0x1c, 0x00, 0x00, 0x00, 0x80, 0x00, 0x00, 0x00, 0xd8, 0x00, 0x00, 0x00,
  0x20, 0x0b, 0x00, 0x00, 0x30, 0x0b, 0x00, 0x00, 0xe0, 0x1f, 0x00, 0x00,
  0x03, 0x00, 0x00, 0x00, 0x01, 0x00, 0x00, 0x00, 0x04, 0x00, 0x00, 0x00,
  0x12, 0xf4, 0xff, 0xff, 0x0c, 0x00, 0x00, 0x00, 0x1c, 0x00, 0x00, 0x00,
  0x38, 0x00, 0x00, 0x00, 0x0f, 0x00, 0x00, 0x00, 0x73, 0x65, 0x72, 0x76,
  0x69, 0x6e, 0x67, 0x5f, 0x64, 0x65, 0x66, 0x61, 0x75, 0x6c, 0x74, 0x00,
  0x01, 0x00, 0x00, 0x00, 0x04, 0x00, 0x00, 0x00, 0x9c, 0xff, 0xff, 0xff,
  0x14, 0x00, 0x00, 0x00, 0x04, 0x00, 0x00, 0x00, 0x07, 0x00, 0x00, 0x00,
  0x73, 0x6f, 0x66, 0x74, 0x6d, 0x61, 0x78, 0x00, 0x01, 0x00, 0x00, 0x00,
  0x04, 0x00, 0x00, 0x00, 0xb2, 0xf4, 0xff, 0xff, 0x04, 0x00, 0x00, 0x00,
  0x07, 0x00, 0x00, 0x00, 0x69, 0x6e, 0x70, 0x75, 0x74, 0x5f, 0x32, 0x00,
  0x02, 0x00, 0x00, 0x00, 0x34, 0x00, 0x00, 0x00, 0x04, 0x00, 0x00, 0x00,
  0xdc, 0xff, 0xff, 0xff, 0x17, 0x00, 0x00, 0x00, 0x04, 0x00, 0x00, 0x00,
  0x13, 0x00, 0x00, 0x00, 0x43, 0x4f, 0x4e, 0x56, 0x45, 0x52, 0x53, 0x49,
  0x4f, 0x4e, 0x5f, 0x4d, 0x45, 0x54, 0x41, 0x44, 0x41, 0x54, 0x41, 0x00,
  0x08, 0x00, 0x0c, 0x00, 0x08, 0x00, 0x04, 0x00, 0x08, 0x00, 0x00, 0x00,
  0x16, 0x00, 0x00, 0x00, 0x04, 0x00, 0x00, 0x00, 0x13, 0x00, 0x00, 0x00,
  0x6d, 0x69, 0x6e, 0x5f, 0x72, 0x75, 0x6e, 0x74, 0x69, 0x6d, 0x65, 0x5f,
  0x76, 0x65, 0x72, 0x73, 0x69, 0x6f, 0x6e, 0x00, 0x18, 0x00, 0x00, 0x00,
  0x44, 0x0a, 0x00, 0x00, 0x3c, 0x0a, 0x00, 0x00, 0x24, 0x0a, 0x00, 0x00,
  0x14, 0x09, 0x00, 0x00, 0xe4, 0x08, 0x00, 0x00, 0x14, 0x05, 0x00, 0x00,
  0xc4, 0x04, 0x00, 0x00, 0xb4, 0x03, 0x00, 0x00, 0x64, 0x03, 0x00, 0x00,
  0x54, 0x02, 0x00, 0x00, 0x04, 0x02, 0x00, 0x00, 0xf4, 0x00, 0x00, 0x00,
  0xd4, 0x00, 0x00, 0x00, 0xcc, 0x00, 0x00, 0x00, 0xc4, 0x00, 0x00, 0x00,
  0xbc, 0x00, 0x00, 0x00, 0xb4, 0x00, 0x00, 0x00, 0xac, 0x00, 0x00, 0x00,
  0xa4, 0x00, 0x00, 0x00, 0x9c, 0x00, 0x00, 0x00, 0x94, 0x00, 0x00, 0x00,
  0x8c, 0x00, 0x00, 0x00, 0x6c, 0x00, 0x00, 0x00, 0x04, 0x00, 0x00, 0x00,
  0x86, 0xf5, 0xff, 0xff, 0x04, 0x00, 0x00, 0x00, 0x58, 0x00, 0x00, 0x00,
  0x0c, 0x00, 0x00, 0x00, 0x08, 0x00, 0x0e, 0x00, 0x08, 0x00, 0x04, 0x00,
  0x08, 0x00, 0x00, 0x00, 0x10, 0x00, 0x00, 0x00, 0x28, 0x00, 0x00, 0x00,
  0x00, 0x00, 0x06, 0x00, 0x08, 0x00, 0x04, 0x00, 0x06, 0x00, 0x00, 0x00,
  0x04, 0x00, 0x00, 0x00, 0x01, 0x00, 0x00, 0x00, 0xeb, 0x03, 0x00, 0x00,
  0x00, 0x00, 0x0a, 0x00, 0x10, 0x00, 0x0c, 0x00, 0x08, 0x00, 0x04, 0x00,
  0x0a, 0x00, 0x00, 0x00, 0x01, 0x00, 0x00, 0x00, 0x02, 0x00, 0x00, 0x00,
  0x04, 0x00, 0x00, 0x00, 0x05, 0x00, 0x00, 0x00, 0x32, 0x2e, 0x39, 0x2e,
  0x32, 0x00, 0x00, 0x00, 0xea, 0xf5, 0xff, 0xff, 0x04, 0x00, 0x00, 0x00,
  0x10, 0x00, 0x00, 0x00, 0x31, 0x2e, 0x31, 0x34, 0x2e, 0x30, 0x00, 0x00,
  0x00, 0x00, 0x00, 0x00, 0x00, 0x00, 0x00, 0x00, 0xa4, 0xe2, 0xff, 0xff,
  0xa8, 0xe2, 0xff, 0xff, 0xac, 0xe2, 0xff, 0xff, 0xb0, 0xe2, 0xff, 0xff,
  0xb4, 0xe2, 0xff, 0xff, 0xb8, 0xe2, 0xff, 0xff, 0xbc, 0xe2, 0xff, 0xff,
  0xc0, 0xe2, 0xff, 0xff, 0xc4, 0xe2, 0xff, 0xff, 0x2a, 0xf6, 0xff, 0xff,
  0x04, 0x00, 0x00, 0x00, 0x10, 0x00, 0x00, 0x00, 0x28, 0xff, 0xff, 0xff,
  0xa9, 0x1b, 0x00, 0x00, 0xc4, 0xef, 0xff, 0xff, 0x42, 0xf3, 0xff, 0xff,
  0x46, 0xf6, 0xff, 0xff, 0x04, 0x00, 0x00, 0x00, 0x00, 0x01, 0x00, 0x00,
  0x9d, 0xd8, 0x0e, 0xb0, 0x32, 0xcb, 0xd1, 0x9a, 0x8a, 0xd6, 0x87, 0xe0,
  0xc2, 0x30, 0x99, 0x31, 0xca, 0xcd, 0x22, 0xf8, 0x2f, 0xb9, 0xc4, 0xd5,
  0xc4, 0xcb, 0xc7, 0xc2, 0xc7, 0x2d, 0xca, 0x32, 0x0d, 0xd4, 0x2a, 0x21,
  0x2a, 0xcc, 0xd4, 0x06, 0x09, 0xce, 0x09, 0xd3, 0xe0, 0x1b, 0x1a, 0x1e,
  0x5f, 0xa3, 0x52, 0x69, 0xec, 0xb2, 0xa3, 0x56, 0x4b, 0xb4, 0x57, 0xa5,
  0xba, 0xec, 0x5e, 0xf3, 0xbd, 0xb2, 0xfc, 0xe4, 0x23, 0xbd, 0xa9, 0xc5,
  0xd2, 0xa8, 0xa0, 0xc6, 0xac, 0x28, 0xd0, 0x21, 0xd6, 0xb3, 0x1a, 0xfd,
  0x22, 0xb2, 0xbd, 0xe0, 0xd7, 0xa9, 0xb9, 0xbb, 0xbb, 0x24, 0xd7, 0x21,
  0xfb, 0x10, 0xff, 0x06, 0x03, 0x07, 0x01, 0x07, 0x09, 0x09, 0xfb, 0x01,
  0xf1, 0x0b, 0xf7, 0x14, 0xac, 0x72, 0x9c, 0x90, 0xd2, 0x6b, 0x7c, 0xbd,
  0xbe, 0x71, 0xd0, 0x7f, 0x73, 0xc3, 0xaf, 0xe6, 0xc5, 0x62, 0x8e, 0xb9,
  0x9a, 0x59, 0x5a, 0xca, 0xbf, 0x5e, 0xe3, 0x56, 0x5d, 0x96, 0xb6, 0x97,
  0xd5, 0x42, 0xa2, 0xca, 0xa0, 0x48, 0x3e, 0xdb, 0xda, 0x43, 0xf5, 0x43,
  0x3c, 0x8b, 0xd2, 0x95, 0xe5, 0x27, 0xd2, 0xdb, 0xd8, 0x2a, 0x16, 0xf9,
  0xe7, 0x26, 0xfd, 0x2b, 0x2a, 0xdc, 0xea, 0xcd, 0xc6, 0xec, 0x0e, 0xe0,
  0x3a, 0xe8, 0xd6, 0xcc, 0xd2, 0xdb, 0xc3, 0xd5, 0xd1, 0x34, 0xc7, 0x2a,
  0x62, 0xb4, 0x41, 0x5c, 0x9b, 0xcb, 0xca, 0x63, 0x6b, 0xc3, 0x6b, 0xb8,
  0xd8, 0xa8, 0x69, 0x9b, 0x49, 0xe7, 0xd4, 0x35, 0x8b, 0xf0, 0xf1, 0x42,
  0x48, 0xf1, 0x46, 0xed, 0xf4, 0x97, 0x50, 0x89, 0x0d, 0xdd, 0xc4, 0xd1,
  0xc3, 0xef, 0x03, 0xf2, 0x00, 0xf1, 0xfc, 0xe4, 0xf5, 0xd3, 0xfc, 0xc6,
  0xcd, 0xc4, 0xce, 0xc3, 0x02, 0xc8, 0xc8, 0xc9, 0xdf, 0xc5, 0xb0, 0xc3,
  0xc1, 0x0c, 0xce, 0xff, 0x52, 0xf7, 0xff, 0xff, 0x04, 0x00, 0x00, 0x00,
  0x40, 0x00, 0x00, 0x00, 0x0d, 0x02, 0x00, 0x00, 0x3b, 0x05, 0x00, 0x00,
  0x2f, 0xff, 0xff, 0xff, 0xec, 0x00, 0x00, 0x00, 0xad, 0x00, 0x00, 0x00,
  0x87, 0x04, 0x00, 0x00, 0x51, 0x06, 0x00, 0x00, 0x25, 0x02, 0x00, 0x00,
  0x4f, 0x02, 0x00, 0x00, 0x95, 0x04, 0x00, 0x00, 0xc5, 0x02, 0x00, 0x00,
  0xb1, 0x06, 0x00, 0x00, 0xb7, 0x03, 0x00, 0x00, 0x14, 0x02, 0x00, 0x00,
  0x97, 0x02, 0x00, 0x00, 0x7d, 0x03, 0x00, 0x00, 0x9e, 0xf7, 0xff, 0xff,
  0x04, 0x00, 0x00, 0x00, 0x00, 0x01, 0x00, 0x00, 0x01, 0x81, 0x10, 0x44,
  0x4d, 0x17, 0xed, 0xc3, 0x06, 0xf7, 0x57, 0x99, 0xca, 0xe3, 0x38, 0x61,
  0xec, 0x24, 0x83, 0xeb, 0x81, 0xbf, 0xbb, 0xa6, 0xc7, 0xda, 0xc8, 0x1c,
  0x64, 0xda, 0xe3, 0x4f, 0x91, 0x27, 0x35, 0xe2, 0x1d, 0xea, 0x18, 0xe0,
  0x6c, 0x23, 0x77, 0xe7, 0x98, 0x2b, 0x7f, 0x06, 0x38, 0xe5, 0x1b, 0x3b,
  0x3b, 0x37, 0xe9, 0x2a, 0x35, 0x5a, 0x7f, 0x8d, 0xbf, 0xf5, 0x78, 0x55,
  0x81, 0x68, 0x42, 0xa9, 0xfa, 0x17, 0x5e, 0x25, 0x61, 0x36, 0xf6, 0x4e,
  0xe0, 0x58, 0x23, 0xab, 0xff, 0x30, 0x81, 0xf5, 0x8a, 0x03, 0xcf, 0x00,
  0xc7, 0xf5, 0xb5, 0xfc, 0x5b, 0xde, 0xe4, 0x69, 0x21, 0xf6, 0x9b, 0xf5,
  0x81, 0xb9, 0xb3, 0x07, 0xc6, 0xec, 0xd1, 0x27, 0x2b, 0xe5, 0xd7, 0x4d,
  0x3d, 0x82, 0x1c, 0x2d, 0x43, 0x26, 0xcc, 0x3b, 0x04, 0x05, 0x7f, 0x81,
  0xec, 0xe8, 0x4a, 0x30, 0x06, 0x81, 0x14, 0x3e, 0x50, 0xdd, 0xe0, 0xf4,
  0xfc, 0x08, 0x41, 0xac, 0xec, 0xe8, 0x31, 0x3c, 0xef, 0x28, 0x81, 0xe7,
  0xb1, 0xf0, 0xa9, 0x48, 0xd0, 0xb1, 0xd2, 0x08, 0x67, 0xd0, 0xdc, 0xf4,
  0x4c, 0x8d, 0xea, 0x58, 0x31, 0xe1, 0xba, 0xdb, 0x08, 0x01, 0x5e, 0x81,
  0xdb, 0xdb, 0x39, 0x79, 0x0f, 0x3e, 0x81, 0xd8, 0x87, 0x0d, 0x94, 0xea,
  0xbe, 0xbf, 0xd5, 0x1c, 0x79, 0xd6, 0xe1, 0x0a, 0x44, 0x1f, 0x97, 0x08,
  0x81, 0xd0, 0xad, 0x5e, 0xe4, 0xae, 0xca, 0xfe, 0x3c, 0xe1, 0xd8, 0x0e,
  0x81, 0x50, 0x33, 0xc1, 0x13, 0x62, 0x5c, 0xdd, 0x4a, 0x39, 0xec, 0x39,
  0xc6, 0x3e, 0x1b, 0xd8, 0x28, 0x81, 0x15, 0x59, 0x49, 0x01, 0xd5, 0x5e,
  0x07, 0x18, 0x4b, 0x8e, 0xe3, 0xe9, 0x3f, 0x5d, 0xbb, 0x60, 0x3b, 0xbb,
  0x0f, 0x60, 0x47, 0x3c, 0x39, 0x0b, 0x01, 0x48, 0xd5, 0x7f, 0x1b, 0xdc,
  0xaa, 0xf8, 0xff, 0xff, 0x04, 0x00, 0x00, 0x00, 0x40, 0x00, 0x00, 0x00,
  0x00, 0x00, 0x00, 0x00, 0x00, 0x00, 0x00, 0x00, 0x00, 0x00, 0x00, 0x00,
  0x00, 0x00, 0x00, 0x00, 0x00, 0x00, 0x00, 0x00, 0x00, 0x00, 0x00, 0x00,
  0x00, 0x00, 0x00, 0x00, 0x00, 0x00, 0x00, 0x00, 0x00, 0x00, 0x00, 0x00,
  0x00, 0x00, 0x00, 0x00, 0x00, 0x00, 0x00, 0x00, 0x00, 0x00, 0x00, 0x00,
  0x00, 0x00, 0x00, 0x00, 0x00, 0x00, 0x00, 0x00, 0x00, 0x00, 0x00, 0x00,
  0x00, 0x00, 0x00, 0x00, 0xf6, 0xf8, 0xff, 0xff, 0x04, 0x00, 0x00, 0x00,
  0x00, 0x01, 0x00, 0x00, 0xcc, 0xe6, 0xd4, 0x37, 0xf2, 0xf9, 0x1c, 0xc0,
  0x60, 0xdb, 0x56, 0xc1, 0x41, 0x33, 0xa8, 0xce, 0xe0, 0xf2, 0xe7, 0x47,
  0xf2, 0xc0, 0x39, 0x05, 0x4c, 0xf1, 0x54, 0xc4, 0x33, 0x47, 0xc1, 0xd9,
  0xe8, 0xf1, 0xef, 0x4a, 0xf4, 0xd1, 0x64, 0x3e, 0x30, 0xfa, 0x31, 0xc5,
  0x2c, 0x5a, 0xd3, 0xd9, 0xde, 0xe9, 0xe8, 0x58, 0xec, 0xd7, 0x7c, 0x2c,
  0x39, 0x00, 0x54, 0xc7, 0x36, 0x62, 0xd1, 0xcb, 0xe2, 0xd9, 0xde, 0x51,
  0xf0, 0xe8, 0x7f, 0x07, 0x48, 0xf3, 0x5f, 0xce, 0x47, 0x5d, 0xc2, 0xc1,
  0xc8, 0xd2, 0xc6, 0x55, 0xe3, 0xda, 0x7c, 0xf6, 0x62, 0xf3, 0x4e, 0xcb,
  0x7a, 0x54, 0xc5, 0xc3, 0xb8, 0xc2, 0xb7, 0x56, 0xdb, 0xd8, 0x7d, 0xa5,
  0x74, 0xe7, 0x45, 0xc5, 0x72, 0x58, 0xdd, 0xc4, 0xb1, 0xb4, 0xb0, 0x5a,
  0xce, 0xec, 0x79, 0x02, 0x7f, 0xe9, 0x50, 0xbc, 0x75, 0x57, 0xf5, 0xc5,
  0xad, 0xa5, 0xa7, 0x60, 0xb4, 0xdc, 0x6e, 0xff, 0x75, 0xf0, 0x6f, 0xab,
  0x63, 0x55, 0x06, 0xc6, 0xbe, 0x97, 0x9d, 0x71, 0xa7, 0x1e, 0x6d, 0x2a,
  0x60, 0xf2, 0x6f, 0x9b, 0x5b, 0x3c, 0x2f, 0xc7, 0xae, 0x91, 0x96, 0x69,
  0x99, 0x38, 0x6e, 0xa5, 0x5d, 0x06, 0x7d, 0x8d, 0x67, 0x3e, 0x5c, 0xba,
  0x8f, 0x87, 0x81, 0x71, 0x8c, 0x37, 0x64, 0x81, 0x63, 0x19, 0x71, 0x81,
  0x4b, 0x3b, 0x67, 0xba, 0x81, 0x86, 0x83, 0x7f, 0x81, 0x5f, 0x51, 0x33,
  0x6d, 0x3c, 0x7f, 0x81, 0x60, 0x41, 0x7f, 0xb2, 0xac, 0x86, 0x91, 0x6b,
  0x85, 0x7f, 0x40, 0x40, 0x73, 0x39, 0x6f, 0xa0, 0x49, 0x39, 0x6d, 0x9d,
  0xca, 0x8f, 0xa5, 0x64, 0x8e, 0x7c, 0x3f, 0xc7, 0x6e, 0x63, 0x6c, 0xc8,
  0x3b, 0x48, 0x64, 0x93, 0xb7, 0x81, 0x8e, 0x74, 0xa0, 0x77, 0x29, 0xea,
  0x6a, 0x7f, 0x56, 0xf1, 0x7f, 0x7f, 0x69, 0x81, 0x02, 0xfa, 0xff, 0xff,
  0x04, 0x00, 0x00, 0x00, 0x40, 0x00, 0x00, 0x00, 0xac, 0xfd, 0xff, 0xff,
  0x1e, 0xfc, 0xff, 0xff, 0xa9, 0xfb, 0xff, 0xff, 0x59, 0xfb, 0xff, 0xff,
  0xb0, 0xfb, 0xff, 0xff, 0xf4, 0xfc, 0xff, 0xff, 0x46, 0xfa, 0xff, 0xff,
  0x55, 0xf8, 0xff, 0xff, 0x4a, 0xfd, 0xff, 0xff, 0x87, 0xfa, 0xff, 0xff,
  0x7f, 0xfd, 0xff, 0xff, 0x53, 0xfc, 0xff, 0xff, 0x2f, 0xfd, 0xff, 0xff,
  0xfa, 0xfb, 0xff, 0xff, 0x24, 0xfc, 0xff, 0xff, 0x63, 0xfc, 0xff, 0xff,
  0x4e, 0xfa, 0xff, 0xff, 0x04, 0x00, 0x00, 0x00, 0xc0, 0x03, 0x00, 0x00,
  0xeb, 0xfc, 0xdf, 0x23, 0x00, 0x03, 0xfb, 0x2b, 0x0a, 0x81, 0x10, 0x1a,
  0xff, 0x47, 0xf3, 0x18, 0xdb, 0xe0, 0x14, 0x12, 0x54, 0xa0, 0x5b, 0x00,
  0x1c, 0xce, 0x07, 0x06, 0x10, 0xea, 0x1e, 0x16, 0xd8, 0xfa, 0xfa, 0x29,
  0xe2, 0x1e, 0xf9, 0xad, 0x0c, 0x25, 0xf9, 0x05, 0x0f, 0x00, 0x0d, 0x21,
  0xfb, 0x0a, 0xff, 0xe6, 0xa6, 0x33, 0xf6, 0xe0, 0x0e, 0x0d, 0x09, 0xec,
  0xee, 0x05, 0x23, 0xda, 0x08, 0x02, 0x06, 0xdf, 0xc3, 0x39, 0x34, 0x1f,
  0x34, 0xdc, 0x12, 0xf4, 0xf8, 0xe2, 0x0d, 0xfd, 0x55, 0xed, 0xde, 0xe9,
  0xec, 0x29, 0x20, 0x0f, 0xfa, 0x14, 0xf9, 0xe5, 0x03, 0x05, 0xcf, 0x2e,
  0xde, 0x2c, 0x0d, 0x33, 0x19, 0xd4, 0x9d, 0x19, 0x28, 0xb8, 0x03, 0x06,
  0xe0, 0x28, 0xd7, 0xe6, 0x1c, 0x02, 0x0e, 0xdf, 0x60, 0x50, 0xed, 0x19,
  0xcb, 0x0c, 0x17, 0x12, 0x11, 0xeb, 0xe7, 0xf5, 0xff, 0xff, 0xe3, 0xe5,
  0x15, 0xbb, 0xf7, 0xe0, 0xe1, 0xc8, 0xf2, 0x31, 0x06, 0x3e, 0x09, 0xfa,
  0xee, 0x1e, 0x09, 0xde, 0xfe, 0xd4, 0xdf, 0x63, 0x21, 0x2c, 0xfb, 0x01,
  0xfe, 0xe5, 0xe2, 0xb5, 0xfb, 0x04, 0x0b, 0xe5, 0x0c, 0xee, 0xfb, 0x8b,
  0xf6, 0xdf, 0xf7, 0xe0, 0xfe, 0x0a, 0xfa, 0xea, 0x52, 0xe2, 0xf6, 0x08,
  0xfe, 0xae, 0xe2, 0x59, 0xe3, 0x8c, 0xff, 0x0e, 0x00, 0xc3, 0xb7, 0x23,
  0x3a, 0xe4, 0x26, 0xfd, 0x3a, 0xfc, 0x19, 0x11, 0x0a, 0xe5, 0xfb, 0x11,
  0xdc, 0xfd, 0x17, 0x06, 0x92, 0xf7, 0x24, 0xfa, 0xd3, 0x21, 0xc3, 0xb0,
  0xbe, 0x25, 0xfb, 0x1e, 0x10, 0x27, 0xf2, 0xe5, 0x30, 0x0b, 0x0e, 0x2e,
  0xf9, 0x81, 0x10, 0xf4, 0x0e, 0x13, 0xf3, 0x15, 0xfc, 0xe5, 0x0e, 0xfd,
  0xe3, 0xe3, 0x1d, 0x16, 0x27, 0x73, 0x28, 0x17, 0xf8, 0x20, 0x02, 0xf1,
  0x18, 0x0f, 0x2a, 0x30, 0x25, 0xf4, 0xf5, 0xf6, 0xaa, 0xf3, 0x81, 0x0d,
  0x15, 0x42, 0xf8, 0x08, 0x07, 0xb5, 0x0a, 0x09, 0xed, 0xf8, 0x08, 0x03,
  0xdf, 0xb9, 0xee, 0xc1, 0xf9, 0xf2, 0x09, 0xf2, 0x07, 0x11, 0xff, 0xd2,
  0xab, 0x19, 0x18, 0xe5, 0x47, 0xfa, 0x3d, 0xaf, 0xe1, 0xc9, 0xfd, 0xbe,
  0x11, 0x44, 0xfa, 0xeb, 0xf3, 0xd2, 0xf5, 0xf8, 0xd8, 0x6b, 0x2c, 0x50,
  0xa2, 0xa4, 0x37, 0xc8, 0x22, 0x2f, 0x1e, 0xe5, 0xec, 0x1c, 0x31, 0xf9,
  0x12, 0x01, 0x01, 0x79, 0x34, 0x59, 0xdd, 0x16, 0xfa, 0x01, 0x12, 0x0c,
  0xfa, 0x28, 0xef, 0xe3, 0x81, 0x02, 0xcb, 0x40, 0xfa, 0xae, 0xf2, 0xda,
  0xfa, 0xe8, 0x3f, 0xd9, 0x2a, 0x08, 0xd7, 0xdb, 0x39, 0x18, 0x16, 0x0f,
  0xe2, 0xac, 0x0d, 0x04, 0x07, 0x20, 0x18, 0xec, 0x1f, 0x04, 0xd5, 0x04,
  0x25, 0xee, 0xac, 0x56, 0x02, 0xde, 0x23, 0xe4, 0x17, 0x02, 0xf5, 0x34,
  0x24, 0xe2, 0x01, 0xf4, 0x3a, 0x2d, 0xd7, 0x30, 0x01, 0x33, 0xe9, 0x18,
  0xd0, 0x12, 0xf0, 0x15, 0x0d, 0x1b, 0xe9, 0xf3, 0x17, 0xe1, 0xde, 0x4b,
  0x18, 0x6e, 0xe8, 0xed, 0xef, 0x01, 0xbf, 0xbd, 0xaf, 0x04, 0xf1, 0xd3,
  0x6b, 0xc4, 0xc1, 0x26, 0xf3, 0xbc, 0x14, 0xbf, 0xd8, 0xed, 0x11, 0xdd,
  0xe1, 0xfe, 0x1b, 0xf9, 0xbd, 0xc0, 0xdf, 0xe2, 0xc7, 0x56, 0xe1, 0x31,
  0x12, 0xf6, 0xd3, 0x12, 0xd5, 0x0d, 0x25, 0x2c, 0x3f, 0xcc, 0x01, 0xba,
  0xb8, 0x14, 0x1d, 0x06, 0xe7, 0x39, 0xf7, 0xd6, 0x4e, 0x04, 0xfd, 0x14,
  0xe2, 0xbc, 0xe8, 0xd1, 0x04, 0xea, 0xd6, 0x06, 0x06, 0xf2, 0x03, 0xb8,
  0xd4, 0xe9, 0xf0, 0x11, 0x32, 0x52, 0x27, 0xf0, 0x12, 0xd3, 0x13, 0xf7,
  0x37, 0xb3, 0x15, 0x06, 0x1a, 0x02, 0xc9, 0x39, 0xd6, 0x3e, 0x36, 0x97,
  0xec, 0xeb, 0x29, 0xe2, 0xd0, 0xfd, 0xee, 0xb7, 0x99, 0x2c, 0xf4, 0xef,
  0x1c, 0xb6, 0xe5, 0x37, 0xef, 0xde, 0x00, 0x13, 0xfd, 0x1a, 0xfb, 0xcf,
  0x07, 0xf0, 0x0c, 0x19, 0xb9, 0xf7, 0xb7, 0x3a, 0x40, 0x64, 0xd8, 0x3b,
  0x1e, 0x13, 0x20, 0xf1, 0xec, 0xfe, 0xef, 0xf6, 0x28, 0xd1, 0xd0, 0x47,
  0xf5, 0x05, 0x03, 0xf6, 0xe2, 0xc7, 0xfd, 0x24, 0x7f, 0x04, 0xf6, 0x05,
  0x9e, 0x2d, 0x60, 0x20, 0xf7, 0x2c, 0xfe, 0x1d, 0x07, 0xb1, 0x40, 0xef,
  0xfc, 0xf5, 0x19, 0xf8, 0x03, 0x63, 0x19, 0xb0, 0xdc, 0x3f, 0x20, 0x05,
  0x2a, 0x08, 0x3d, 0xe5, 0xa4, 0xcd, 0xe9, 0x20, 0x47, 0xd6, 0xe6, 0x61,
  0xde, 0xf5, 0xf1, 0x42, 0xf8, 0xfb, 0xe3, 0x29, 0x10, 0xce, 0xc1, 0xfd,
  0xd4, 0xe6, 0xe2, 0x09, 0x16, 0x65, 0xec, 0xfe, 0xdf, 0xe7, 0xbe, 0x4a,
  0x09, 0xec, 0xdb, 0x04, 0x0c, 0x27, 0x01, 0xe8, 0x39, 0x59, 0xe8, 0xf3,
  0xd7, 0xf1, 0x24, 0x0e, 0xf7, 0x17, 0xef, 0x2c, 0x16, 0x43, 0x20, 0xb6,
  0x12, 0x35, 0x1b, 0xef, 0xe8, 0xf4, 0x0f, 0x20, 0x1e, 0x12, 0x0e, 0xfa,
  0x6b, 0x18, 0xde, 0xdc, 0xdf, 0xfb, 0x19, 0xe4, 0xc0, 0xef, 0xf0, 0xd3,
  0x29, 0xa4, 0xd6, 0x20, 0x60, 0x04, 0x72, 0x99, 0x3c, 0x2b, 0xd3, 0x29,
  0xf6, 0xdd, 0x8a, 0xe6, 0x25, 0x64, 0xff, 0x81, 0x21, 0x46, 0x2e, 0x3a,
  0x13, 0xda, 0xc3, 0xff, 0xea, 0x2b, 0x56, 0xb8, 0x9f, 0x7f, 0xfe, 0xc5,
  0xe5, 0x0c, 0xfa, 0x11, 0xfe, 0x20, 0x16, 0x2d, 0xf2, 0x50, 0x68, 0x35,
  0xcd, 0x08, 0xf4, 0xce, 0x58, 0x1e, 0x00, 0x58, 0xe5, 0xfb, 0xef, 0x0b,
  0xf4, 0x03, 0x0d, 0x37, 0xda, 0xe1, 0xe5, 0x09, 0x04, 0x44, 0x33, 0x56,
  0x44, 0x31, 0x01, 0x08, 0x9d, 0x0a, 0x28, 0x39, 0x33, 0xc7, 0xc7, 0x3c,
  0x00, 0x0d, 0x36, 0xf6, 0x06, 0x48, 0xd8, 0x35, 0xfe, 0x26, 0xf8, 0x2b,
  0x50, 0x1b, 0xfb, 0xff, 0x29, 0x03, 0xf1, 0x97, 0x17, 0x2c, 0xf9, 0x0f,
  0x05, 0xd8, 0xd5, 0x39, 0x1f, 0xeb, 0x0a, 0x12, 0xf2, 0x49, 0xd3, 0x47,
  0xe1, 0x1e, 0xf2, 0xe7, 0x01, 0x0c, 0xdc, 0xf0, 0xfb, 0x0b, 0x21, 0x09,
  0x87, 0xf7, 0x51, 0x56, 0xff, 0xbd, 0x13, 0x06, 0x3e, 0x09, 0x01, 0xef,
  0xed, 0x04, 0x4c, 0x18, 0x99, 0x25, 0xed, 0xc4, 0xa7, 0x8d, 0xea, 0xff,
  0x07, 0x07, 0xd8, 0xd7, 0x36, 0x23, 0xe4, 0xfa, 0x32, 0x09, 0x5b, 0x12,
  0x15, 0x97, 0x39, 0xb4, 0xc5, 0x55, 0xfe, 0x33, 0x42, 0x69, 0x21, 0xad,
  0xea, 0xe9, 0x19, 0xef, 0x2d, 0x72, 0x3e, 0xaf, 0xec, 0xd1, 0x47, 0xbd,
  0xbe, 0x01, 0x7f, 0xe7, 0x92, 0xb0, 0x0c, 0xf8, 0xa1, 0x2e, 0x09, 0xf9,
  0x7f, 0x7f, 0x16, 0xcc, 0xac, 0x0f, 0x50, 0xed, 0xd5, 0xfb, 0x4c, 0x28,
  0xe2, 0x99, 0xf7, 0x16, 0x49, 0x41, 0x24, 0xf2, 0xd4, 0x3b, 0xe6, 0xf0,
  0xe4, 0xfe, 0xf8, 0x81, 0x7f, 0x6e, 0x7f, 0x81, 0xec, 0xeb, 0x5e, 0x3b,
  0x21, 0xb8, 0xd6, 0x28, 0x66, 0x05, 0xc6, 0x7a, 0x3d, 0x3e, 0xf9, 0x02,
  0xf6, 0xbf, 0xf9, 0x09, 0x1e, 0x08, 0x42, 0xf8, 0x8d, 0xce, 0x19, 0xb5,
  0xf2, 0x02, 0xee, 0x1e, 0x71, 0xea, 0xce, 0x12, 0x30, 0xa7, 0xc5, 0x40,
  0x0f, 0x47, 0x2b, 0xb5, 0x56, 0x07, 0xc6, 0x40, 0xdc, 0xd5, 0x81, 0x7f,
  0x1a, 0xfe, 0xff, 0xff, 0x04, 0x00, 0x00, 0x00, 0x20, 0x00, 0x00, 0x00,
  0x69, 0xfe, 0xff, 0xff, 0xf8, 0x02, 0x00, 0x00, 0x72, 0x04, 0x00, 0x00,
  0x58, 0x04, 0x00, 0x00, 0x7f, 0x03, 0x00, 0x00, 0xd6, 0xfe, 0xff, 0xff,
  0x43, 0x00, 0x00, 0x00, 0x7a, 0xfb, 0xff, 0xff, 0x46, 0xfe, 0xff, 0xff,
  0x04, 0x00, 0x00, 0x00, 0x00, 0x01, 0x00, 0x00, 0x06, 0xf8, 0x10, 0x81,
  0xf6, 0xeb, 0x2d, 0xfe, 0x14, 0x24, 0xd9, 0xb2, 0x11, 0x99, 0x1e, 0xef,
  0x21, 0x5e, 0xe7, 0xf2, 0x52, 0xf7, 0x08, 0x77, 0xe6, 0x46, 0x63, 0xf0,
  0x51, 0x03, 0x5a, 0xf0, 0x14, 0x21, 0xda, 0x17, 0x07, 0xef, 0xe8, 0xdf,
  0xf4, 0x31, 0xcf, 0x2d, 0xe9, 0x2a, 0xd8, 0x36, 0x64, 0xf3, 0x46, 0x37,
  0x7f, 0x3d, 0x51, 0x06, 0x6f, 0x10, 0x41, 0x52, 0x32, 0x16, 0xfd, 0xbe,
  0x3a, 0x2b, 0xbc, 0x02, 0x00, 0x04, 0x1a, 0x30, 0xdf, 0xee, 0xb9, 0x29,
  0xe7, 0x50, 0x0b, 0x29, 0xee, 0xa8, 0x34, 0xd1, 0x64, 0x00, 0x7f, 0xd5,
  0xff, 0x0e, 0xde, 0x3d, 0x4a, 0x35, 0x29, 0xe3, 0xea, 0x58, 0xe9, 0x03,
  0xbe, 0xf2, 0x1c, 0x29, 0xfd, 0x37, 0x1d, 0xd3, 0xc5, 0xe6, 0x6a, 0x25,
  0x03, 0x32, 0x1c, 0xbb, 0xcd, 0x15, 0x55, 0x3f, 0xce, 0x43, 0x25, 0x81,
  0x0d, 0x2f, 0x27, 0x20, 0x18, 0x13, 0xdd, 0x53, 0xe1, 0x41, 0xf2, 0x0f,
  0x70, 0xff, 0x41, 0x14, 0x36, 0x60, 0x25, 0x2e, 0x71, 0x25, 0x55, 0x36,
  0x3a, 0x78, 0x25, 0x7f, 0x28, 0x76, 0xfb, 0x70, 0x08, 0xf3, 0x4e, 0x5c,
  0xba, 0xbe, 0xdf, 0xc9, 0x20, 0xe6, 0x3c, 0x0e, 0x20, 0x1c, 0x49, 0x2a,
  0x2e, 0x04, 0x0e, 0xed, 0x27, 0x0b, 0x04, 0xae, 0xb5, 0x0d, 0xaf, 0x07,
  0xc9, 0x32, 0x10, 0x05, 0x5b, 0x29, 0x12, 0x7f, 0xd5, 0x0e, 0xdc, 0x03,
  0xdd, 0xce, 0xf7, 0x81, 0xf6, 0xfc, 0xdb, 0xe9, 0x11, 0x1d, 0xf1, 0x24,
  0x2b, 0xea, 0x04, 0x33, 0x3a, 0x2c, 0x0a, 0x6e, 0x0f, 0x20, 0x78, 0xfd,
  0xf6, 0x54, 0xf3, 0x30, 0x7f, 0x43, 0x2a, 0x2f, 0x0a, 0xf8, 0x36, 0x40,
  0x2c, 0x70, 0xf7, 0xe8, 0xec, 0x1e, 0x96, 0x14, 0x07, 0xe4, 0xcd, 0x1c,
  0xdb, 0xe8, 0xe3, 0x28, 0x0c, 0x1a, 0x6d, 0x07, 0xea, 0x6f, 0x3f, 0x66,
  0x52, 0xff, 0xff, 0xff, 0x04, 0x00, 0x00, 0x00, 0x08, 0x00, 0x00, 0x00,
  0xff, 0xff, 0xff, 0xff, 0x40, 0x00, 0x00, 0x00, 0x04, 0xec, 0xff, 0xff,
  0x08, 0xec, 0xff, 0xff, 0x0f, 0x00, 0x00, 0x00, 0x4d, 0x4c, 0x49, 0x52,
  0x20, 0x43, 0x6f, 0x6e, 0x76, 0x65, 0x72, 0x74, 0x65, 0x64, 0x2e, 0x00,
  0x01, 0x00, 0x00, 0x00, 0x14, 0x00, 0x00, 0x00, 0x00, 0x00, 0x0e, 0x00,
  0x18, 0x00, 0x14, 0x00, 0x10, 0x00, 0x0c, 0x00, 0x08, 0x00, 0x04, 0x00,
  0x0e, 0x00, 0x00, 0x00, 0x14, 0x00, 0x00, 0x00, 0x1c, 0x00, 0x00, 0x00,
  0xc0, 0x02, 0x00, 0x00, 0xc4, 0x02, 0x00, 0x00, 0xc8, 0x02, 0x00, 0x00,
  0x04, 0x00, 0x00, 0x00, 0x6d, 0x61, 0x69, 0x6e, 0x00, 0x00, 0x00, 0x00,
  0x09, 0x00, 0x00, 0x00, 0x60, 0x02, 0x00, 0x00, 0xf4, 0x01, 0x00, 0x00,
  0x90, 0x01, 0x00, 0x00, 0x40, 0x01, 0x00, 0x00, 0xf0, 0x00, 0x00, 0x00,
  0xac, 0x00, 0x00, 0x00, 0x84, 0x00, 0x00, 0x00, 0x40, 0x00, 0x00, 0x00,
  0x04, 0x00, 0x00, 0x00, 0x3a, 0xfe, 0xff, 0xff, 0x1c, 0x00, 0x00, 0x00,
  0x00, 0x00, 0x00, 0x09, 0x1c, 0x00, 0x00, 0x00, 0x20, 0x00, 0x00, 0x00,
  0x05, 0x00, 0x00, 0x00, 0x00, 0x00, 0x06, 0x00, 0x08, 0x00, 0x04, 0x00,
  0x06, 0x00, 0x00, 0x00, 0x00, 0x00, 0x80, 0x3f, 0x01, 0x00, 0x00, 0x00,
  0x14, 0x00, 0x00, 0x00, 0x01, 0x00, 0x00, 0x00, 0x13, 0x00, 0x00, 0x00,
  0x72, 0xfe, 0xff, 0xff, 0x14, 0x00, 0x00, 0x00, 0x00, 0x00, 0x00, 0x08,
  0x10, 0x00, 0x00, 0x00, 0x14, 0x00, 0x00, 0x00, 0x04, 0x00, 0x00, 0x00,
  0xd4, 0xec, 0xff, 0xff, 0x01, 0x00, 0x00, 0x00, 0x13, 0x00, 0x00, 0x00,
  0x03, 0x00, 0x00, 0x00, 0x12, 0x00, 0x00, 0x00, 0x0a, 0x00, 0x00, 0x00,
  0x0b, 0x00, 0x00, 0x00, 0x00, 0x00, 0x0a, 0x00, 0x10, 0x00, 0x0c, 0x00,
  0x08, 0x00, 0x04, 0x00, 0x0a, 0x00, 0x00, 0x00, 0x0c, 0x00, 0x00, 0x00,
  0x10, 0x00, 0x00, 0x00, 0x03, 0x00, 0x00, 0x00, 0x01, 0x00, 0x00, 0x00,
  0x12, 0x00, 0x00, 0x00, 0x02, 0x00, 0x00, 0x00, 0x11, 0x00, 0x00, 0x00,
  0x01, 0x00, 0x00, 0x00, 0xd6, 0xfe, 0xff, 0xff, 0x14, 0x00, 0x00, 0x00,
  0x00, 0x00, 0x00, 0x05, 0x24, 0x00, 0x00, 0x00, 0x28, 0x00, 0x00, 0x00,
  0x02, 0x00, 0x00, 0x00, 0x26, 0xff, 0xff, 0xff, 0x01, 0x00, 0x00, 0x00,
  0x08, 0x00, 0x00, 0x00, 0x01, 0x00, 0x00, 0x00, 0x08, 0x00, 0x00, 0x00,
  0x00, 0x00, 0x00, 0x01, 0x01, 0x00, 0x00, 0x00, 0x11, 0x00, 0x00, 0x00,
  0x01, 0x00, 0x00, 0x00, 0x10, 0x00, 0x00, 0x00, 0xae, 0xfe, 0xff, 0xff,
  0x1c, 0x00, 0x00, 0x00, 0x00, 0x00, 0x00, 0x01, 0x28, 0x00, 0x00, 0x00,
  0x2c, 0x00, 0x00, 0x00, 0x0c, 0x00, 0x14, 0x00, 0x13, 0x00, 0x0c, 0x00,
  0x08, 0x00, 0x07, 0x00, 0x0c, 0x00, 0x00, 0x00, 0x00, 0x00, 0x00, 0x01,
  0x01, 0x00, 0x00, 0x00, 0x01, 0x00, 0x00, 0x00, 0x00, 0x00, 0x00, 0x01,
  0x01, 0x00, 0x00, 0x00, 0x10, 0x00, 0x00, 0x00, 0x03, 0x00, 0x00, 0x00,
  0x0f, 0x00, 0x00, 0x00, 0x08, 0x00, 0x00, 0x00, 0x09, 0x00, 0x00, 0x00,
  0x62, 0xff, 0xff, 0xff, 0x20, 0x00, 0x00, 0x00, 0x00, 0x00, 0x00, 0x02,
  0x28, 0x00, 0x00, 0x00, 0x2c, 0x00, 0x00, 0x00, 0x01, 0x00, 0x00, 0x00,
  0x0c, 0x00, 0x10, 0x00, 0x00, 0x00, 0x0c, 0x00, 0x08, 0x00, 0x04, 0x00,
  0x0c, 0x00, 0x00, 0x00, 0x01, 0x00, 0x00, 0x00, 0x01, 0x00, 0x00, 0x00,
  0x01, 0x00, 0x00, 0x00, 0x01, 0x00, 0x00, 0x00, 0x0f, 0x00, 0x00, 0x00,
  0x03, 0x00, 0x00, 0x00, 0x0e, 0x00, 0x00, 0x00, 0x06, 0x00, 0x00, 0x00,
  0x07, 0x00, 0x00, 0x00, 0xae, 0xff, 0xff, 0xff, 0x24, 0x00, 0x00, 0x00,
  0x00, 0x00, 0x00, 0x05, 0x34, 0x00, 0x00, 0x00, 0x38, 0x00, 0x00, 0x00,
  0x02, 0x00, 0x00, 0x00, 0x00, 0x00, 0x0e, 0x00, 0x18, 0x00, 0x17, 0x00,
  0x10, 0x00, 0x0c, 0x00, 0x08, 0x00, 0x04, 0x00, 0x0e, 0x00, 0x00, 0x00,
  0x01, 0x00, 0x00, 0x00, 0x04, 0x00, 0x00, 0x00, 0x01, 0x00, 0x00, 0x00,
  0x04, 0x00, 0x00, 0x00, 0x00, 0x00, 0x00, 0x01, 0x01, 0x00, 0x00, 0x00,
  0x0e, 0x00, 0x00, 0x00, 0x01, 0x00, 0x00, 0x00, 0x0d, 0x00, 0x00, 0x00,
  0x00, 0x00, 0x0e, 0x00, 0x1a, 0x00, 0x14, 0x00, 0x10, 0x00, 0x0c, 0x00,
  0x0b, 0x00, 0x04, 0x00, 0x0e, 0x00, 0x00, 0x00, 0x24, 0x00, 0x00, 0x00,
  0x00, 0x00, 0x00, 0x02, 0x34, 0x00, 0x00, 0x00, 0x38, 0x00, 0x00, 0x00,
  0x01, 0x00, 0x00, 0x00, 0x00, 0x00, 0x0e, 0x00, 0x18, 0x00, 0x17, 0x00,
  0x10, 0x00, 0x0c, 0x00, 0x08, 0x00, 0x07, 0x00, 0x0e, 0x00, 0x00, 0x00,
  0x00, 0x00, 0x00, 0x01, 0x02, 0x00, 0x00, 0x00, 0x01, 0x00, 0x00, 0x00,
  0x01, 0x00, 0x00, 0x00, 0x00, 0x00, 0x00, 0x01, 0x01, 0x00, 0x00, 0x00,
  0x0d, 0x00, 0x00, 0x00, 0x03, 0x00, 0x00, 0x00, 0x0c, 0x00, 0x00, 0x00,
  0x04, 0x00, 0x00, 0x00, 0x05, 0x00, 0x00, 0x00, 0x00, 0x00, 0x0e, 0x00,
  0x16, 0x00, 0x00, 0x00, 0x10, 0x00, 0x0c, 0x00, 0x0b, 0x00, 0x04, 0x00,
  0x0e, 0x00, 0x00, 0x00, 0x1c, 0x00, 0x00, 0x00, 0x00, 0x00, 0x00, 0x01,
  0x20, 0x00, 0x00, 0x00, 0x24, 0x00, 0x00, 0x00, 0x00, 0x00, 0x0a, 0x00,
  0x0c, 0x00, 0x00, 0x00, 0x08, 0x00, 0x04, 0x00, 0x0a, 0x00, 0x00, 0x00,
  0x01, 0x00, 0x00, 0x00, 0x01, 0x00, 0x00, 0x00, 0x01, 0x00, 0x00, 0x00,
  0x0c, 0x00, 0x00, 0x00, 0x03, 0x00, 0x00, 0x00, 0x00, 0x00, 0x00, 0x00,
  0x02, 0x00, 0x00, 0x00, 0x03, 0x00, 0x00, 0x00, 0x01, 0x00, 0x00, 0x00,
  0x14, 0x00, 0x00, 0x00, 0x01, 0x00, 0x00, 0x00, 0x00, 0x00, 0x00, 0x00,
  0x15, 0x00, 0x00, 0x00, 0x28, 0x11, 0x00, 0x00, 0xcc, 0x10, 0x00, 0x00,
  0xfc, 0x0f, 0x00, 0x00, 0x18, 0x0f, 0x00, 0x00, 0x74, 0x0d, 0x00, 0x00,
  0x48, 0x0c, 0x00, 0x00, 0x00, 0x0b, 0x00, 0x00, 0x80, 0x09, 0x00, 0x00,
  0x4c, 0x08, 0x00, 0x00, 0x20, 0x07, 0x00, 0x00, 0xbc, 0x06, 0x00, 0x00,
  0x48, 0x06, 0x00, 0x00, 0x94, 0x05, 0x00, 0x00, 0x88, 0x04, 0x00, 0x00,
  0xf4, 0x03, 0x00, 0x00, 0x50, 0x03, 0x00, 0x00, 0x14, 0x02, 0x00, 0x00,
  0x80, 0x01, 0x00, 0x00, 0x0c, 0x01, 0x00, 0x00, 0x80, 0x00, 0x00, 0x00,
  0x04, 0x00, 0x00, 0x00, 0x40, 0xef, 0xff, 0xff, 0x18, 0x00, 0x00, 0x00,
  0x20, 0x00, 0x00, 0x00, 0x40, 0x00, 0x00, 0x00, 0x15, 0x00, 0x00, 0x00,
  0x00, 0x00, 0x00, 0x09, 0x54, 0x00, 0x00, 0x00, 0x02, 0x00, 0x00, 0x00,
  0xff, 0xff, 0xff, 0xff, 0x04, 0x00, 0x00, 0x00, 0x24, 0xef, 0xff, 0xff,
  0x08, 0x00, 0x00, 0x00, 0x14, 0x00, 0x00, 0x00, 0x01, 0x00, 0x00, 0x00,
  0x80, 0xff, 0xff, 0xff, 0xff, 0xff, 0xff, 0xff, 0x00, 0x00, 0x00, 0x00,
  0x01, 0x00, 0x00, 0x00, 0x00, 0x00, 0x80, 0x3b, 0x19, 0x00, 0x00, 0x00,
  0x53, 0x74, 0x61, 0x74, 0x65, 0x66, 0x75, 0x6c, 0x50, 0x61, 0x72, 0x74,
  0x69, 0x74, 0x69, 0x6f, 0x6e, 0x65, 0x64, 0x43, 0x61, 0x6c, 0x6c, 0x3a,
  0x30, 0x00, 0x00, 0x00, 0x02, 0x00, 0x00, 0x00, 0x01, 0x00, 0x00, 0x00,
  0x04, 0x00, 0x00, 0x00, 0xb8, 0xef, 0xff, 0xff, 0x18, 0x00, 0x00, 0x00,
  0x20, 0x00, 0x00, 0x00, 0x40, 0x00, 0x00, 0x00, 0x14, 0x00, 0x00, 0x00,
  0x00, 0x00, 0x00, 0x09, 0x64, 0x00, 0x00, 0x00, 0x02, 0x00, 0x00, 0x00,
  0xff, 0xff, 0xff, 0xff, 0x04, 0x00, 0x00, 0x00, 0x9c, 0xef, 0xff, 0xff,
  0x08, 0x00, 0x00, 0x00, 0x14, 0x00, 0x00, 0x00, 0x01, 0x00, 0x00, 0x00,
  0x05, 0x00, 0x00, 0x00, 0x00, 0x00, 0x00, 0x00, 0x00, 0x00, 0x00, 0x00,
  0x01, 0x00, 0x00, 0x00, 0xaa, 0x7d, 0x09, 0x3d, 0x2a, 0x00, 0x00, 0x00,
  0x6d, 0x6f, 0x64, 0x65, 0x6c, 0x5f, 0x31, 0x2f, 0x64, 0x65, 0x6e, 0x73,
  0x65, 0x2f, 0x4d, 0x61, 0x74, 0x4d, 0x75, 0x6c, 0x3b, 0x6d, 0x6f, 0x64,
  0x65, 0x6c, 0x5f, 0x31, 0x2f, 0x64, 0x65, 0x6e, 0x73, 0x65, 0x2f, 0x42,
  0x69, 0x61, 0x73, 0x41, 0x64, 0x64, 0x00, 0x00, 0x02, 0x00, 0x00, 0x00,
  0x01, 0x00, 0x00, 0x00, 0x04, 0x00, 0x00, 0x00, 0x40, 0xf0, 0xff, 0xff,
  0x18, 0x00, 0x00, 0x00, 0x20, 0x00, 0x00, 0x00, 0x3c, 0x00, 0x00, 0x00,
  0x13, 0x00, 0x00, 0x00, 0x00, 0x00, 0x00, 0x09, 0x4c, 0x00, 0x00, 0x00,
  0x02, 0x00, 0x00, 0x00, 0xff, 0xff, 0xff, 0xff, 0x40, 0x00, 0x00, 0x00,
  0x24, 0xf0, 0xff, 0xff, 0x08, 0x00, 0x00, 0x00, 0x10, 0x00, 0x00, 0x00,
  0x01, 0x00, 0x00, 0x00, 0x80, 0xff, 0xff, 0xff, 0xff, 0xff, 0xff, 0xff,
  0x01, 0x00, 0x00, 0x00, 0x65, 0x21, 0x48, 0x3d, 0x17, 0x00, 0x00, 0x00,
  0x6d, 0x6f, 0x64, 0x65, 0x6c, 0x5f, 0x31, 0x2f, 0x66, 0x6c, 0x61, 0x74,
  0x74, 0x65, 0x6e, 0x2f, 0x52, 0x65, 0x73, 0x68, 0x61, 0x70, 0x65, 0x00,
  0x02, 0x00, 0x00, 0x00, 0x01, 0x00, 0x00, 0x00, 0x40, 0x00, 0x00, 0x00,
  0xb0, 0xf0, 0xff, 0xff, 0x18, 0x00, 0x00, 0x00, 0x28, 0x00, 0x00, 0x00,
  0x48, 0x00, 0x00, 0x00, 0x12, 0x00, 0x00, 0x00, 0x00, 0x00, 0x00, 0x09,
  0x64, 0x00, 0x00, 0x00, 0x04, 0x00, 0x00, 0x00, 0xff, 0xff, 0xff, 0xff,
  0x01, 0x00, 0x00, 0x00, 0x04, 0x00, 0x00, 0x00, 0x10, 0x00, 0x00, 0x00,
  0x9c, 0xf0, 0xff, 0xff, 0x08, 0x00, 0x00, 0x00, 0x14, 0x00, 0x00, 0x00,
  0x01, 0x00, 0x00, 0x00, 0x80, 0xff, 0xff, 0xff, 0xff, 0xff, 0xff, 0xff,
  0x00, 0x00, 0x00, 0x00, 0x01, 0x00, 0x00, 0x00, 0x65, 0x21, 0x48, 0x3d,
  0x23, 0x00, 0x00, 0x00, 0x6d, 0x6f, 0x64, 0x65, 0x6c, 0x5f, 0x31, 0x2f,
  0x61, 0x76, 0x65, 0x72, 0x61, 0x67, 0x65, 0x5f, 0x70, 0x6f, 0x6f, 0x6c,
  0x69, 0x6e, 0x67, 0x32, 0x64, 0x5f, 0x33, 0x2f, 0x41, 0x76, 0x67, 0x50,
  0x6f, 0x6f, 0x6c, 0x00, 0x04, 0x00, 0x00, 0x00, 0x01, 0x00, 0x00, 0x00,
  0x01, 0x00, 0x00, 0x00, 0x04, 0x00, 0x00, 0x00, 0x10, 0x00, 0x00, 0x00,
  0x40, 0xf1, 0xff, 0xff, 0x18, 0x00, 0x00, 0x00, 0x28, 0x00, 0x00, 0x00,
  0x48, 0x00, 0x00, 0x00, 0x11, 0x00, 0x00, 0x00, 0x00, 0x00, 0x00, 0x09,
  0x0c, 0x01, 0x00, 0x00, 0x04, 0x00, 0x00, 0x00, 0xff, 0xff, 0xff, 0xff,
  0x01, 0x00, 0x00, 0x00, 0x25, 0x00, 0x00, 0x00, 0x10, 0x00, 0x00, 0x00,
  0x2c, 0xf1, 0xff, 0xff, 0x08, 0x00, 0x00, 0x00, 0x14, 0x00, 0x00, 0x00,
  0x01, 0x00, 0x00, 0x00, 0x80, 0xff, 0xff, 0xff, 0xff, 0xff, 0xff, 0xff,
  0x00, 0x00, 0x00, 0x00, 0x01, 0x00, 0x00, 0x00, 0x65, 0x21, 0x48, 0x3d,
  0xc8, 0x00, 0x00, 0x00, 0x6d, 0x6f, 0x64, 0x65, 0x6c, 0x5f, 0x31, 0x2f,
  0x61, 0x63, 0x74, 0x69, 0x76, 0x61, 0x74, 0x69, 0x6f, 0x6e, 0x5f, 0x33,
  0x2f, 0x52, 0x65, 0x6c, 0x75, 0x3b, 0x6d, 0x6f, 0x64, 0x65, 0x6c, 0x5f,
  0x31, 0x2f, 0x62, 0x61, 0x74, 0x63, 0x68, 0x5f, 0x6e, 0x6f, 0x72, 0x6d,
  0x61, 0x6c, 0x69, 0x7a, 0x61, 0x74, 0x69, 0x6f, 0x6e, 0x5f, 0x35, 0x2f,
  0x46, 0x75, 0x73, 0x65, 0x64, 0x42, 0x61, 0x74, 0x63, 0x68, 0x4e, 0x6f,
  0x72, 0x6d, 0x56, 0x33, 0x3b, 0x6d, 0x6f, 0x64, 0x65, 0x6c, 0x5f, 0x31,
  0x2f, 0x62, 0x61, 0x74, 0x63, 0x68, 0x5f, 0x6e, 0x6f, 0x72, 0x6d, 0x61,
  0x6c, 0x69, 0x7a, 0x61, 0x74, 0x69, 0x6f, 0x6e, 0x5f, 0x34, 0x2f, 0x46,
  0x75, 0x73, 0x65, 0x64, 0x42, 0x61, 0x74, 0x63, 0x68, 0x4e, 0x6f, 0x72,
  0x6d, 0x56, 0x33, 0x3b, 0x6d, 0x6f, 0x64, 0x65, 0x6c, 0x5f, 0x31, 0x2f,
  0x64, 0x65, 0x70, 0x74, 0x68, 0x77, 0x69, 0x73, 0x65, 0x5f, 0x63, 0x6f,
  0x6e, 0x76, 0x32, 0x64, 0x5f, 0x31, 0x2f, 0x64, 0x65, 0x70, 0x74, 0x68,
  0x77, 0x69, 0x73, 0x65, 0x3b, 0x6d, 0x6f, 0x64, 0x65, 0x6c, 0x5f, 0x31,
  0x2f, 0x73, 0x65, 0x70, 0x61, 0x72, 0x61, 0x62, 0x6c, 0x65, 0x5f, 0x63,
  0x6f, 0x6e, 0x76, 0x32, 0x64, 0x5f, 0x31, 0x2f, 0x73, 0x65, 0x70, 0x61,
  0x72, 0x61, 0x62, 0x6c, 0x65, 0x5f, 0x63, 0x6f, 0x6e, 0x76, 0x32, 0x64,
  0x00, 0x00, 0x00, 0x00, 0x04, 0x00, 0x00, 0x00, 0x01, 0x00, 0x00, 0x00,
  0x01, 0x00, 0x00, 0x00, 0x25, 0x00, 0x00, 0x00, 0x10, 0x00, 0x00, 0x00,
  0x78, 0xf2, 0xff, 0xff, 0x18, 0x00, 0x00, 0x00, 0x28, 0x00, 0x00, 0x00,
  0x44, 0x00, 0x00, 0x00, 0x10, 0x00, 0x00, 0x00, 0x00, 0x00, 0x00, 0x09,
  0x74, 0x00, 0x00, 0x00, 0x04, 0x00, 0x00, 0x00, 0xff, 0xff, 0xff, 0xff,
  0x01, 0x00, 0x00, 0x00, 0x25, 0x00, 0x00, 0x00, 0x10, 0x00, 0x00, 0x00,
  0x64, 0xf2, 0xff, 0xff, 0x08, 0x00, 0x00, 0x00, 0x10, 0x00, 0x00, 0x00,
  0x01, 0x00, 0x00, 0x00, 0xfb, 0xff, 0xff, 0xff, 0xff, 0xff, 0xff, 0xff,
  0x01, 0x00, 0x00, 0x00, 0x01, 0x57, 0x56, 0x3c, 0x36, 0x00, 0x00, 0x00,
  0x6d, 0x6f, 0x64, 0x65, 0x6c, 0x5f, 0x31, 0x2f, 0x73, 0x65, 0x70, 0x61,
  0x72, 0x61, 0x62, 0x6c, 0x65, 0x5f, 0x63, 0x6f, 0x6e, 0x76, 0x32, 0x64,
  0x5f, 0x31, 0x2f, 0x73, 0x65, 0x70, 0x61, 0x72, 0x61, 0x62, 0x6c, 0x65,
  0x5f, 0x63, 0x6f, 0x6e, 0x76, 0x32, 0x64, 0x2f, 0x64, 0x65, 0x70, 0x74,
  0x68, 0x77, 0x69, 0x73, 0x65, 0x31, 0x00, 0x00, 0x04, 0x00, 0x00, 0x00,
  0x01, 0x00, 0x00, 0x00, 0x01, 0x00, 0x00, 0x00, 0x25, 0x00, 0x00, 0x00,
  0x10, 0x00, 0x00, 0x00, 0x18, 0xf3, 0xff, 0xff, 0x18, 0x00, 0x00, 0x00,
  0x28, 0x00, 0x00, 0x00, 0x48, 0x00, 0x00, 0x00, 0x0f, 0x00, 0x00, 0x00,
  0x00, 0x00, 0x00, 0x09, 0x64, 0x00, 0x00, 0x00, 0x04, 0x00, 0x00, 0x00,
  0xff, 0xff, 0xff, 0xff, 0x01, 0x00, 0x00, 0x00, 0x25, 0x00, 0x00, 0x00,
  0x10, 0x00, 0x00, 0x00, 0x04, 0xf3, 0xff, 0xff, 0x08, 0x00, 0x00, 0x00,
  0x14, 0x00, 0x00, 0x00, 0x01, 0x00, 0x00, 0x00, 0x80, 0xff, 0xff, 0xff,
  0xff, 0xff, 0xff, 0xff, 0x00, 0x00, 0x00, 0x00, 0x01, 0x00, 0x00, 0x00,
  0x0d, 0xc7, 0x51, 0x3c, 0x23, 0x00, 0x00, 0x00, 0x6d, 0x6f, 0x64, 0x65,
  0x6c, 0x5f, 0x31, 0x2f, 0x61, 0x76, 0x65, 0x72, 0x61, 0x67, 0x65, 0x5f,
  0x70, 0x6f, 0x6f, 0x6c, 0x69, 0x6e, 0x67, 0x32, 0x64, 0x5f, 0x32, 0x2f,
  0x41, 0x76, 0x67, 0x50, 0x6f, 0x6f, 0x6c, 0x00, 0x04, 0x00, 0x00, 0x00,
  0x01, 0x00, 0x00, 0x00, 0x01, 0x00, 0x00, 0x00, 0x25, 0x00, 0x00, 0x00,
  0x10, 0x00, 0x00, 0x00, 0xa8, 0xf3, 0xff, 0xff, 0x18, 0x00, 0x00, 0x00,
  0x28, 0x00, 0x00, 0x00, 0x48, 0x00, 0x00, 0x00, 0x0e, 0x00, 0x00, 0x00,
  0x00, 0x00, 0x00, 0x09, 0xdc, 0x00, 0x00, 0x00, 0x04, 0x00, 0x00, 0x00,
  0xff, 0xff, 0xff, 0xff, 0x01, 0x00, 0x00, 0x00, 0x97, 0x00, 0x00, 0x00,
  0x10, 0x00, 0x00, 0x00, 0x94, 0xf3, 0xff, 0xff, 0x08, 0x00, 0x00, 0x00,
  0x14, 0x00, 0x00, 0x00, 0x01, 0x00, 0x00, 0x00, 0x80, 0xff, 0xff, 0xff,
  0xff, 0xff, 0xff, 0xff, 0x00, 0x00, 0x00, 0x00, 0x01, 0x00, 0x00, 0x00,
  0x0d, 0xc7, 0x51, 0x3c, 0x99, 0x00, 0x00, 0x00, 0x6d, 0x6f, 0x64, 0x65,
  0x6c, 0x5f, 0x31, 0x2f, 0x61, 0x63, 0x74, 0x69, 0x76, 0x61, 0x74, 0x69,
  0x6f, 0x6e, 0x5f, 0x32, 0x2f, 0x52, 0x65, 0x6c, 0x75, 0x3b, 0x6d, 0x6f,
  0x64, 0x65, 0x6c, 0x5f, 0x31, 0x2f, 0x62, 0x61, 0x74, 0x63, 0x68, 0x5f,
  0x6e, 0x6f, 0x72, 0x6d, 0x61, 0x6c, 0x69, 0x7a, 0x61, 0x74, 0x69, 0x6f,
  0x6e, 0x5f, 0x34, 0x2f, 0x46, 0x75, 0x73, 0x65, 0x64, 0x42, 0x61, 0x74,
  0x63, 0x68, 0x4e, 0x6f, 0x72, 0x6d, 0x56, 0x33, 0x3b, 0x6d, 0x6f, 0x64,
  0x65, 0x6c, 0x5f, 0x31, 0x2f, 0x64, 0x65, 0x70, 0x74, 0x68, 0x77, 0x69,
  0x73, 0x65, 0x5f, 0x63, 0x6f, 0x6e, 0x76, 0x32, 0x64, 0x5f, 0x31, 0x2f,
  0x64, 0x65, 0x70, 0x74, 0x68, 0x77, 0x69, 0x73, 0x65, 0x3b, 0x6d, 0x6f,
  0x64, 0x65, 0x6c, 0x5f, 0x31, 0x2f, 0x73, 0x65, 0x70, 0x61, 0x72, 0x61,
  0x62, 0x6c, 0x65, 0x5f, 0x63, 0x6f, 0x6e, 0x76, 0x32, 0x64, 0x5f, 0x31,
  0x2f, 0x73, 0x65, 0x70, 0x61, 0x72, 0x61, 0x62, 0x6c, 0x65, 0x5f, 0x63,
  0x6f, 0x6e, 0x76, 0x32, 0x64, 0x00, 0x00, 0x00, 0x04, 0x00, 0x00, 0x00,
  0x01, 0x00, 0x00, 0x00, 0x01, 0x00, 0x00, 0x00, 0x97, 0x00, 0x00, 0x00,
  0x10, 0x00, 0x00, 0x00, 0xb0, 0xf4, 0xff, 0xff, 0x18, 0x00, 0x00, 0x00,
  0x28, 0x00, 0x00, 0x00, 0x44, 0x00, 0x00, 0x00, 0x0d, 0x00, 0x00, 0x00,
  0x00, 0x00, 0x00, 0x09, 0x84, 0x00, 0x00, 0x00, 0x04, 0x00, 0x00, 0x00,
  0xff, 0xff, 0xff, 0xff, 0x3c, 0x00, 0x00, 0x00, 0x97, 0x00, 0x00, 0x00,
  0x08, 0x00, 0x00, 0x00, 0x9c, 0xf4, 0xff, 0xff, 0x08, 0x00, 0x00, 0x00,
  0x10, 0x00, 0x00, 0x00, 0x01, 0x00, 0x00, 0x00, 0x04, 0x00, 0x00, 0x00,
  0x00, 0x00, 0x00, 0x00, 0x01, 0x00, 0x00, 0x00, 0x4d, 0xf1, 0x6e, 0x3c,
  0x47, 0x00, 0x00, 0x00, 0x6d, 0x6f, 0x64, 0x65, 0x6c, 0x5f, 0x31, 0x2f,
  0x62, 0x61, 0x74, 0x63, 0x68, 0x5f, 0x6e, 0x6f, 0x72, 0x6d, 0x61, 0x6c,
  0x69, 0x7a, 0x61, 0x74, 0x69, 0x6f, 0x6e, 0x5f, 0x33, 0x2f, 0x46, 0x75,
  0x73, 0x65, 0x64, 0x42, 0x61, 0x74, 0x63, 0x68, 0x4e, 0x6f, 0x72, 0x6d,
  0x56, 0x33, 0x3b, 0x6d, 0x6f, 0x64, 0x65, 0x6c, 0x5f, 0x31, 0x2f, 0x63,
  0x6f, 0x6e, 0x76, 0x32, 0x64, 0x5f, 0x31, 0x2f, 0x43, 0x6f, 0x6e, 0x76,
  0x32, 0x44, 0x31, 0x00, 0x04, 0x00, 0x00, 0x00, 0x01, 0x00, 0x00, 0x00,
  0x3c, 0x00, 0x00, 0x00, 0x97, 0x00, 0x00, 0x00, 0x08, 0x00, 0x00, 0x00,
  0xb2, 0xf5, 0xff, 0xff, 0x14, 0x00, 0x00, 0x00, 0x34, 0x00, 0x00, 0x00,
  0x0c, 0x00, 0x00, 0x00, 0x00, 0x00, 0x00, 0x02, 0x54, 0x00, 0x00, 0x00,
  0x34, 0xf5, 0xff, 0xff, 0x08, 0x00, 0x00, 0x00, 0x14, 0x00, 0x00, 0x00,
  0x01, 0x00, 0x00, 0x00, 0x00, 0x00, 0x00, 0x00, 0x00, 0x00, 0x00, 0x00,
  0x00, 0x00, 0x00, 0x00, 0x01, 0x00, 0x00, 0x00, 0x3a, 0x64, 0xcd, 0x37,
  0x24, 0x00, 0x00, 0x00, 0x6d, 0x6f, 0x64, 0x65, 0x6c, 0x5f, 0x31, 0x2f,
  0x64, 0x65, 0x6e, 0x73, 0x65, 0x2f, 0x42, 0x69, 0x61, 0x73, 0x41, 0x64,
  0x64, 0x2f, 0x52, 0x65, 0x61, 0x64, 0x56, 0x61, 0x72, 0x69, 0x61, 0x62,
  0x6c, 0x65, 0x4f, 0x70, 0x00, 0x00, 0x00, 0x00, 0x01, 0x00, 0x00, 0x00,
  0x04, 0x00, 0x00, 0x00, 0x22, 0xf6, 0xff, 0xff, 0x14, 0x00, 0x00, 0x00,
  0x30, 0x00, 0x00, 0x00, 0x0b, 0x00, 0x00, 0x00, 0x00, 0x00, 0x00, 0x09,
  0x40, 0x00, 0x00, 0x00, 0xa4, 0xf5, 0xff, 0xff, 0x08, 0x00, 0x00, 0x00,
  0x10, 0x00, 0x00, 0x00, 0x01, 0x00, 0x00, 0x00, 0x00, 0x00, 0x00, 0x00,
  0x00, 0x00, 0x00, 0x00, 0x01, 0x00, 0x00, 0x00, 0x69, 0x5d, 0x03, 0x3a,
  0x14, 0x00, 0x00, 0x00, 0x6d, 0x6f, 0x64, 0x65, 0x6c, 0x5f, 0x31, 0x2f,
  0x64, 0x65, 0x6e, 0x73, 0x65, 0x2f, 0x4d, 0x61, 0x74, 0x4d, 0x75, 0x6c,
  0x00, 0x00, 0x00, 0x00, 0x02, 0x00, 0x00, 0x00, 0x04, 0x00, 0x00, 0x00,
  0x40, 0x00, 0x00, 0x00, 0x82, 0xf6, 0xff, 0xff, 0x14, 0x00, 0x00, 0x00,
  0xe4, 0x00, 0x00, 0x00, 0x0a, 0x00, 0x00, 0x00, 0x00, 0x00, 0x00, 0x02,
  0x0c, 0x01, 0x00, 0x00, 0x04, 0xf6, 0xff, 0xff, 0x08, 0x00, 0x00, 0x00,
  0x88, 0x00, 0x00, 0x00, 0x10, 0x00, 0x00, 0x00, 0x00, 0x00, 0x00, 0x00,
  0x00, 0x00, 0x00, 0x00, 0x00, 0x00, 0x00, 0x00, 0x00, 0x00, 0x00, 0x00,
  0x00, 0x00, 0x00, 0x00, 0x00, 0x00, 0x00, 0x00, 0x00, 0x00, 0x00, 0x00,
  0x00, 0x00, 0x00, 0x00, 0x00, 0x00, 0x00, 0x00, 0x00, 0x00, 0x00, 0x00,
  0x00, 0x00, 0x00, 0x00, 0x00, 0x00, 0x00, 0x00, 0x00, 0x00, 0x00, 0x00,
  0x00, 0x00, 0x00, 0x00, 0x00, 0x00, 0x00, 0x00, 0x00, 0x00, 0x00, 0x00,
  0x00, 0x00, 0x00, 0x00, 0x00, 0x00, 0x00, 0x00, 0x00, 0x00, 0x00, 0x00,
  0x00, 0x00, 0x00, 0x00, 0x00, 0x00, 0x00, 0x00, 0x00, 0x00, 0x00, 0x00,
  0x00, 0x00, 0x00, 0x00, 0x00, 0x00, 0x00, 0x00, 0x00, 0x00, 0x00, 0x00,
  0x00, 0x00, 0x00, 0x00, 0x00, 0x00, 0x00, 0x00, 0x00, 0x00, 0x00, 0x00,
  0x00, 0x00, 0x00, 0x00, 0x00, 0x00, 0x00, 0x00, 0x00, 0x00, 0x00, 0x00,
  0x00, 0x00, 0x00, 0x00, 0x10, 0x00, 0x00, 0x00, 0xcf, 0x14, 0x09, 0x3a,
  0xe0, 0xfc, 0xef, 0x39, 0x98, 0xb8, 0x00, 0x3a, 0x09, 0xc8, 0xfb, 0x39,
  0xb1, 0x63, 0x07, 0x3a, 0x9d, 0x29, 0xe8, 0x39, 0xbd, 0x59, 0x15, 0x3a,
  0xee, 0xbf, 0xf8, 0x39, 0x06, 0xa1, 0x1e, 0x3a, 0x8b, 0xb4, 0xf1, 0x39,
  0x58, 0x96, 0xfe, 0x39, 0x12, 0x78, 0xdd, 0x39, 0x1e, 0x44, 0x10, 0x3a,
  0x70, 0xf0, 0x27, 0x3a, 0x2d, 0x8c, 0x07, 0x3a, 0x59, 0xce, 0x10, 0x3a,
  0x2e, 0x00, 0x00, 0x00, 0x6d, 0x6f, 0x64, 0x65, 0x6c, 0x5f, 0x31, 0x2f,
  0x62, 0x61, 0x74, 0x63, 0x68, 0x5f, 0x6e, 0x6f, 0x72, 0x6d, 0x61, 0x6c,
  0x69, 0x7a, 0x61, 0x74, 0x69, 0x6f, 0x6e, 0x5f, 0x35, 0x2f, 0x46, 0x75,
  0x73, 0x65, 0x64, 0x42, 0x61, 0x74, 0x63, 0x68, 0x4e, 0x6f, 0x72, 0x6d,
  0x56, 0x33, 0x00, 0x00, 0x01, 0x00, 0x00, 0x00, 0x10, 0x00, 0x00, 0x00,
  0xaa, 0xf7, 0xff, 0xff, 0x14, 0x00, 0x00, 0x00, 0xe4, 0x00, 0x00, 0x00,
  0x09, 0x00, 0x00, 0x00, 0x00, 0x00, 0x00, 0x09, 0x08, 0x01, 0x00, 0x00,
  0x2c, 0xf7, 0xff, 0xff, 0x08, 0x00, 0x00, 0x00, 0x88, 0x00, 0x00, 0x00,
  0x10, 0x00, 0x00, 0x00, 0x00, 0x00, 0x00, 0x00, 0x00, 0x00, 0x00, 0x00,
  0x00, 0x00, 0x00, 0x00, 0x00, 0x00, 0x00, 0x00, 0x00, 0x00, 0x00, 0x00,
  0x00, 0x00, 0x00, 0x00, 0x00, 0x00, 0x00, 0x00, 0x00, 0x00, 0x00, 0x00,
  0x00, 0x00, 0x00, 0x00, 0x00, 0x00, 0x00, 0x00, 0x00, 0x00, 0x00, 0x00,
  0x00, 0x00, 0x00, 0x00, 0x00, 0x00, 0x00, 0x00, 0x00, 0x00, 0x00, 0x00,
  0x00, 0x00, 0x00, 0x00, 0x00, 0x00, 0x00, 0x00, 0x00, 0x00, 0x00, 0x00,
  0x00, 0x00, 0x00, 0x00, 0x00, 0x00, 0x00, 0x00, 0x00, 0x00, 0x00, 0x00,
  0x00, 0x00, 0x00, 0x00, 0x00, 0x00, 0x00, 0x00, 0x00, 0x00, 0x00, 0x00,
  0x00, 0x00, 0x00, 0x00, 0x00, 0x00, 0x00, 0x00, 0x00, 0x00, 0x00, 0x00,
  0x00, 0x00, 0x00, 0x00, 0x00, 0x00, 0x00, 0x00, 0x00, 0x00, 0x00, 0x00,
  0x00, 0x00, 0x00, 0x00, 0x00, 0x00, 0x00, 0x00, 0x00, 0x00, 0x00, 0x00,
  0x10, 0x00, 0x00, 0x00, 0x9e, 0xb9, 0x23, 0x3d, 0x06, 0x51, 0x0f, 0x3d,
  0x6c, 0xbd, 0x19, 0x3d, 0x03, 0x5c, 0x16, 0x3d, 0x52, 0xb4, 0x21, 0x3d,
  0xb6, 0xa4, 0x0a, 0x3d, 0x09, 0x61, 0x32, 0x3d, 0x89, 0x8c, 0x14, 0x3d,
  0xfe, 0x75, 0x3d, 0x3d, 0x96, 0x57, 0x10, 0x3d, 0xf9, 0x08, 0x18, 0x3d,
  0xe6, 0x41, 0x04, 0x3d, 0x6d, 0x4e, 0x2c, 0x3d, 0xa8, 0x94, 0x48, 0x3d,
  0xac, 0xe4, 0x21, 0x3d, 0x85, 0xf3, 0x2c, 0x3d, 0x2b, 0x00, 0x00, 0x00,
  0x6d, 0x6f, 0x64, 0x65, 0x6c, 0x5f, 0x31, 0x2f, 0x73, 0x65, 0x70, 0x61,
  0x72, 0x61, 0x62, 0x6c, 0x65, 0x5f, 0x63, 0x6f, 0x6e, 0x76, 0x32, 0x64,
  0x5f, 0x31, 0x2f, 0x73, 0x65, 0x70, 0x61, 0x72, 0x61, 0x62, 0x6c, 0x65,
  0x5f, 0x63, 0x6f, 0x6e, 0x76, 0x32, 0x64, 0x00, 0x04, 0x00, 0x00, 0x00,
  0x10, 0x00, 0x00, 0x00, 0x01, 0x00, 0x00, 0x00, 0x01, 0x00, 0x00, 0x00,
  0x10, 0x00, 0x00, 0x00, 0xda, 0xf8, 0xff, 0xff, 0x14, 0x00, 0x00, 0x00,
  0xe8, 0x00, 0x00, 0x00, 0x08, 0x00, 0x00, 0x00, 0x00, 0x00, 0x00, 0x02,
  0x60, 0x01, 0x00, 0x00, 0x5c, 0xf8, 0xff, 0xff, 0x08, 0x00, 0x00, 0x00,
  0x8c, 0x00, 0x00, 0x00, 0x10, 0x00, 0x00, 0x00, 0x00, 0x00, 0x00, 0x00,
  0x00, 0x00, 0x00, 0x00, 0x00, 0x00, 0x00, 0x00, 0x00, 0x00, 0x00, 0x00,
  0x00, 0x00, 0x00, 0x00, 0x00, 0x00, 0x00, 0x00, 0x00, 0x00, 0x00, 0x00,
  0x00, 0x00, 0x00, 0x00, 0x00, 0x00, 0x00, 0x00, 0x00, 0x00, 0x00, 0x00,
  0x00, 0x00, 0x00, 0x00, 0x00, 0x00, 0x00, 0x00, 0x00, 0x00, 0x00, 0x00,
  0x00, 0x00, 0x00, 0x00, 0x00, 0x00, 0x00, 0x00, 0x00, 0x00, 0x00, 0x00,
  0x00, 0x00, 0x00, 0x00, 0x00, 0x00, 0x00, 0x00, 0x00, 0x00, 0x00, 0x00,
  0x00, 0x00, 0x00, 0x00, 0x00, 0x00, 0x00, 0x00, 0x00, 0x00, 0x00, 0x00,
  0x00, 0x00, 0x00, 0x00, 0x00, 0x00, 0x00, 0x00, 0x00, 0x00, 0x00, 0x00,
  0x00, 0x00, 0x00, 0x00, 0x00, 0x00, 0x00, 0x00, 0x00, 0x00, 0x00, 0x00,
  0x00, 0x00, 0x00, 0x00, 0x00, 0x00, 0x00, 0x00, 0x00, 0x00, 0x00, 0x00,
  0x00, 0x00, 0x00, 0x00, 0x00, 0x00, 0x00, 0x00, 0x10, 0x00, 0x00, 0x00,
  0x30, 0xc3, 0xf7, 0x36, 0xc9, 0x7c, 0xac, 0x37, 0x99, 0x36, 0xe2, 0x37,
  0x68, 0x63, 0x2f, 0x37, 0x1a, 0x65, 0xf3, 0x37, 0xfe, 0x94, 0xe8, 0x36,
  0xeb, 0x60, 0x9e, 0x37, 0xda, 0xfd, 0x0c, 0x37, 0x8d, 0xa1, 0x22, 0x37,
  0xe7, 0x9c, 0x0a, 0x37, 0x31, 0x7b, 0x97, 0x37, 0x08, 0xed, 0xc9, 0x37,
  0xe9, 0xb0, 0x72, 0x37, 0x74, 0x92, 0x87, 0x37, 0xcc, 0xcd, 0x9f, 0x37,
  0xee, 0x8e, 0x79, 0x37, 0x7f, 0x00, 0x00, 0x00, 0x6d, 0x6f, 0x64, 0x65,
  0x6c, 0x5f, 0x31, 0x2f, 0x62, 0x61, 0x74, 0x63, 0x68, 0x5f, 0x6e, 0x6f,
  0x72, 0x6d, 0x61, 0x6c, 0x69, 0x7a, 0x61, 0x74, 0x69, 0x6f, 0x6e, 0x5f,
  0x34, 0x2f, 0x46, 0x75, 0x73, 0x65, 0x64, 0x42, 0x61, 0x74, 0x63, 0x68,
  0x4e, 0x6f, 0x72, 0x6d, 0x56, 0x33, 0x3b, 0x6d, 0x6f, 0x64, 0x65, 0x6c,
  0x5f, 0x31, 0x2f, 0x64, 0x65, 0x70, 0x74, 0x68, 0x77, 0x69, 0x73, 0x65,
  0x5f, 0x63, 0x6f, 0x6e, 0x76, 0x32, 0x64, 0x5f, 0x31, 0x2f, 0x64, 0x65,
  0x70, 0x74, 0x68, 0x77, 0x69, 0x73, 0x65, 0x3b, 0x6d, 0x6f, 0x64, 0x65,
  0x6c, 0x5f, 0x31, 0x2f, 0x73, 0x65, 0x70, 0x61, 0x72, 0x61, 0x62, 0x6c,
  0x65, 0x5f, 0x63, 0x6f, 0x6e, 0x76, 0x32, 0x64, 0x5f, 0x31, 0x2f, 0x73,
  0x65, 0x70, 0x61, 0x72, 0x61, 0x62, 0x6c, 0x65, 0x5f, 0x63, 0x6f, 0x6e,
  0x76, 0x32, 0x64, 0x00, 0x01, 0x00, 0x00, 0x00, 0x10, 0x00, 0x00, 0x00,
  0x56, 0xfa, 0xff, 0xff, 0x14, 0x00, 0x00, 0x00, 0xec, 0x00, 0x00, 0x00,
  0x07, 0x00, 0x00, 0x00, 0x00, 0x00, 0x00, 0x09, 0x1c, 0x01, 0x00, 0x00,
  0x92, 0xfd, 0xff, 0xff, 0x03, 0x00, 0x00, 0x00, 0x08, 0x00, 0x00, 0x00,
  0x8c, 0x00, 0x00, 0x00, 0x10, 0x00, 0x00, 0x00, 0x00, 0x00, 0x00, 0x00,
  0x00, 0x00, 0x00, 0x00, 0x00, 0x00, 0x00, 0x00, 0x00, 0x00, 0x00, 0x00,
  0x00, 0x00, 0x00, 0x00, 0x00, 0x00, 0x00, 0x00, 0x00, 0x00, 0x00, 0x00,
  0x00, 0x00, 0x00, 0x00, 0x00, 0x00, 0x00, 0x00, 0x00, 0x00, 0x00, 0x00,
  0x00, 0x00, 0x00, 0x00, 0x00, 0x00, 0x00, 0x00, 0x00, 0x00, 0x00, 0x00,
  0x00, 0x00, 0x00, 0x00, 0x00, 0x00, 0x00, 0x00, 0x00, 0x00, 0x00, 0x00,
  0x00, 0x00, 0x00, 0x00, 0x00, 0x00, 0x00, 0x00, 0x00, 0x00, 0x00, 0x00,
  0x00, 0x00, 0x00, 0x00, 0x00, 0x00, 0x00, 0x00, 0x00, 0x00, 0x00, 0x00,
  0x00, 0x00, 0x00, 0x00, 0x00, 0x00, 0x00, 0x00, 0x00, 0x00, 0x00, 0x00,
  0x00, 0x00, 0x00, 0x00, 0x00, 0x00, 0x00, 0x00, 0x00, 0x00, 0x00, 0x00,
  0x00, 0x00, 0x00, 0x00, 0x00, 0x00, 0x00, 0x00, 0x00, 0x00, 0x00, 0x00,
  0x00, 0x00, 0x00, 0x00, 0x00, 0x00, 0x00, 0x00, 0x10, 0x00, 0x00, 0x00,
  0x61, 0x2d, 0x17, 0x3a, 0x4f, 0x7e, 0xd2, 0x3a, 0x52, 0x07, 0x0a, 0x3b,
  0x8f, 0x08, 0x56, 0x3a, 0x28, 0x83, 0x14, 0x3b, 0x23, 0xea, 0x0d, 0x3a,
  0x99, 0x46, 0xc1, 0x3a, 0xc8, 0x0e, 0x2c, 0x3a, 0x1a, 0x77, 0x46, 0x3a,
  0xa8, 0x27, 0x29, 0x3a, 0xd0, 0xdb, 0xb8, 0x3a, 0x18, 0x6b, 0xf6, 0x3a,
  0x35, 0x15, 0x94, 0x3a, 0xb0, 0x71, 0xa5, 0x3a, 0xe0, 0x03, 0xc3, 0x3a,
  0xe6, 0x45, 0x98, 0x3a, 0x35, 0x00, 0x00, 0x00, 0x6d, 0x6f, 0x64, 0x65,
  0x6c, 0x5f, 0x31, 0x2f, 0x73, 0x65, 0x70, 0x61, 0x72, 0x61, 0x62, 0x6c,
  0x65, 0x5f, 0x63, 0x6f, 0x6e, 0x76, 0x32, 0x64, 0x5f, 0x31, 0x2f, 0x73,
  0x65, 0x70, 0x61, 0x72, 0x61, 0x62, 0x6c, 0x65, 0x5f, 0x63, 0x6f, 0x6e,
  0x76, 0x32, 0x64, 0x2f, 0x64, 0x65, 0x70, 0x74, 0x68, 0x77, 0x69, 0x73,
  0x65, 0x00, 0x00, 0x00, 0x04, 0x00, 0x00, 0x00, 0x01, 0x00, 0x00, 0x00,
  0x01, 0x00, 0x00, 0x00, 0x10, 0x00, 0x00, 0x00, 0x10, 0x00, 0x00, 0x00,
  0x9a, 0xfb, 0xff, 0xff, 0x14, 0x00, 0x00, 0x00, 0xe4, 0x00, 0x00, 0x00,
  0x06, 0x00, 0x00, 0x00, 0x00, 0x00, 0x00, 0x02, 0x0c, 0x01, 0x00, 0x00,
  0x1c, 0xfb, 0xff, 0xff, 0x08, 0x00, 0x00, 0x00, 0x88, 0x00, 0x00, 0x00,
  0x10, 0x00, 0x00, 0x00, 0x00, 0x00, 0x00, 0x00, 0x00, 0x00, 0x00, 0x00,
  0x00, 0x00, 0x00, 0x00, 0x00, 0x00, 0x00, 0x00, 0x00, 0x00, 0x00, 0x00,
  0x00, 0x00, 0x00, 0x00, 0x00, 0x00, 0x00, 0x00, 0x00, 0x00, 0x00, 0x00,
  0x00, 0x00, 0x00, 0x00, 0x00, 0x00, 0x00, 0x00, 0x00, 0x00, 0x00, 0x00,
  0x00, 0x00, 0x00, 0x00, 0x00, 0x00, 0x00, 0x00, 0x00, 0x00, 0x00, 0x00,
  0x00, 0x00, 0x00, 0x00, 0x00, 0x00, 0x00, 0x00, 0x00, 0x00, 0x00, 0x00,
  0x00, 0x00, 0x00, 0x00, 0x00, 0x00, 0x00, 0x00, 0x00, 0x00, 0x00, 0x00,
  0x00, 0x00, 0x00, 0x00, 0x00, 0x00, 0x00, 0x00, 0x00, 0x00, 0x00, 0x00,
  0x00, 0x00, 0x00, 0x00, 0x00, 0x00, 0x00, 0x00, 0x00, 0x00, 0x00, 0x00,
  0x00, 0x00, 0x00, 0x00, 0x00, 0x00, 0x00, 0x00, 0x00, 0x00, 0x00, 0x00,
  0x00, 0x00, 0x00, 0x00, 0x00, 0x00, 0x00, 0x00, 0x00, 0x00, 0x00, 0x00,
  0x10, 0x00, 0x00, 0x00, 0x49, 0xb6, 0xc6, 0x39, 0xf2, 0xfe, 0x1b, 0x3a,
  0x8c, 0x73, 0x22, 0x3a, 0x31, 0xdb, 0xb7, 0x39, 0x39, 0x0d, 0xf4, 0x39,
  0x59, 0x1a, 0xa1, 0x39, 0xd6, 0x8f, 0xf3, 0x39, 0x4e, 0xec, 0x77, 0x39,
  0xf9, 0x6b, 0x02, 0x3a, 0x78, 0x39, 0x46, 0x39, 0x86, 0xac, 0x42, 0x3a,
  0x91, 0x96, 0x37, 0x3a, 0x4c, 0x61, 0x06, 0x3a, 0xe6, 0x4a, 0x09, 0x3a,
  0x70, 0xc3, 0xf5, 0x39, 0x90, 0x53, 0xeb, 0x39, 0x2e, 0x00, 0x00, 0x00,
  0x6d, 0x6f, 0x64, 0x65, 0x6c, 0x5f, 0x31, 0x2f, 0x62, 0x61, 0x74, 0x63,
  0x68, 0x5f, 0x6e, 0x6f, 0x72, 0x6d, 0x61, 0x6c, 0x69, 0x7a, 0x61, 0x74,
  0x69, 0x6f, 0x6e, 0x5f, 0x34, 0x2f, 0x46, 0x75, 0x73, 0x65, 0x64, 0x42,
  0x61, 0x74, 0x63, 0x68, 0x4e, 0x6f, 0x72, 0x6d, 0x56, 0x33, 0x00, 0x00,
  0x01, 0x00, 0x00, 0x00, 0x10, 0x00, 0x00, 0x00, 0xc2, 0xfc, 0xff, 0xff,
  0x28, 0x00, 0x00, 0x00, 0xfc, 0x00, 0x00, 0x00, 0x05, 0x00, 0x00, 0x00,
  0x00, 0x00, 0x00, 0x09, 0x78, 0x01, 0x00, 0x00, 0x00, 0x00, 0x12, 0x00,
  0x10, 0x00, 0x00, 0x00, 0x00, 0x00, 0x0c, 0x00, 0x08, 0x00, 0x00, 0x00,
  0x00, 0x00, 0x04, 0x00, 0x12, 0x00, 0x00, 0x00, 0x03, 0x00, 0x00, 0x00,
  0x08, 0x00, 0x00, 0x00, 0x88, 0x00, 0x00, 0x00, 0x10, 0x00, 0x00, 0x00,
  0x00, 0x00, 0x00, 0x00, 0x00, 0x00, 0x00, 0x00, 0x00, 0x00, 0x00, 0x00,
  0x00, 0x00, 0x00, 0x00, 0x00, 0x00, 0x00, 0x00, 0x00, 0x00, 0x00, 0x00,
  0x00, 0x00, 0x00, 0x00, 0x00, 0x00, 0x00, 0x00, 0x00, 0x00, 0x00, 0x00,
  0x00, 0x00, 0x00, 0x00, 0x00, 0x00, 0x00, 0x00, 0x00, 0x00, 0x00, 0x00,
  0x00, 0x00, 0x00, 0x00, 0x00, 0x00, 0x00, 0x00, 0x00, 0x00, 0x00, 0x00,
  0x00, 0x00, 0x00, 0x00, 0x00, 0x00, 0x00, 0x00, 0x00, 0x00, 0x00, 0x00,
  0x00, 0x00, 0x00, 0x00, 0x00, 0x00, 0x00, 0x00, 0x00, 0x00, 0x00, 0x00,
  0x00, 0x00, 0x00, 0x00, 0x00, 0x00, 0x00, 0x00, 0x00, 0x00, 0x00, 0x00,
  0x00, 0x00, 0x00, 0x00, 0x00, 0x00, 0x00, 0x00, 0x00, 0x00, 0x00, 0x00,
  0x00, 0x00, 0x00, 0x00, 0x00, 0x00, 0x00, 0x00, 0x00, 0x00, 0x00, 0x00,
  0x00, 0x00, 0x00, 0x00, 0x00, 0x00, 0x00, 0x00, 0x10, 0x00, 0x00, 0x00,
  0xc4, 0xe5, 0xd4, 0x3c, 0xc9, 0x21, 0x27, 0x3d, 0x5c, 0x0c, 0x2e, 0x3d,
  0x2f, 0xfb, 0xc4, 0x3c, 0xa5, 0xbc, 0x02, 0x3d, 0x85, 0x9a, 0xac, 0x3c,
  0x7a, 0x79, 0x02, 0x3d, 0x90, 0xcf, 0x84, 0x3c, 0x72, 0xbb, 0x0b, 0x3d,
  0x0a, 0x60, 0x54, 0x3c, 0x35, 0x92, 0x50, 0x3d, 0xa8, 0xb1, 0x44, 0x3d,
  0x1b, 0xf9, 0x0f, 0x3d, 0xef, 0x17, 0x13, 0x3d, 0x65, 0xa7, 0x03, 0x3d,
  0x2d, 0x20, 0xfc, 0x3c, 0x80, 0x00, 0x00, 0x00, 0x6d, 0x6f, 0x64, 0x65,
  0x6c, 0x5f, 0x31, 0x2f, 0x62, 0x61, 0x74, 0x63, 0x68, 0x5f, 0x6e, 0x6f,
  0x72, 0x6d, 0x61, 0x6c, 0x69, 0x7a, 0x61, 0x74, 0x69, 0x6f, 0x6e, 0x5f,
  0x34, 0x2f, 0x46, 0x75, 0x73, 0x65, 0x64, 0x42, 0x61, 0x74, 0x63, 0x68,
  0x4e, 0x6f, 0x72, 0x6d, 0x56, 0x33, 0x3b, 0x6d, 0x6f, 0x64, 0x65, 0x6c,
  0x5f, 0x31, 0x2f, 0x64, 0x65, 0x70, 0x74, 0x68, 0x77, 0x69, 0x73, 0x65,
  0x5f, 0x63, 0x6f, 0x6e, 0x76, 0x32, 0x64, 0x5f, 0x31, 0x2f, 0x64, 0x65,
  0x70, 0x74, 0x68, 0x77, 0x69, 0x73, 0x65, 0x3b, 0x6d, 0x6f, 0x64, 0x65,
  0x6c, 0x5f, 0x31, 0x2f, 0x73, 0x65, 0x70, 0x61, 0x72, 0x61, 0x62, 0x6c,
  0x65, 0x5f, 0x63, 0x6f, 0x6e, 0x76, 0x32, 0x64, 0x5f, 0x31, 0x2f, 0x73,
  0x65, 0x70, 0x61, 0x72, 0x61, 0x62, 0x6c, 0x65, 0x5f, 0x63, 0x6f, 0x6e,
  0x76, 0x32, 0x64, 0x31, 0x00, 0x00, 0x00, 0x00, 0x04, 0x00, 0x00, 0x00,
  0x01, 0x00, 0x00, 0x00, 0x3c, 0x00, 0x00, 0x00, 0x01, 0x00, 0x00, 0x00,
  0x10, 0x00, 0x00, 0x00, 0x62, 0xfe, 0xff, 0xff, 0x14, 0x00, 0x00, 0x00,
  0x84, 0x00, 0x00, 0x00, 0x04, 0x00, 0x00, 0x00, 0x00, 0x00, 0x00, 0x02,
  0xc4, 0x00, 0x00, 0x00, 0xe4, 0xfd, 0xff, 0xff, 0x08, 0x00, 0x00, 0x00,
  0x48, 0x00, 0x00, 0x00, 0x08, 0x00, 0x00, 0x00, 0x00, 0x00, 0x00, 0x00,
  0x00, 0x00, 0x00, 0x00, 0x00, 0x00, 0x00, 0x00, 0x00, 0x00, 0x00, 0x00,
  0x00, 0x00, 0x00, 0x00, 0x00, 0x00, 0x00, 0x00, 0x00, 0x00, 0x00, 0x00,
  0x00, 0x00, 0x00, 0x00, 0x00, 0x00, 0x00, 0x00, 0x00, 0x00, 0x00, 0x00,
  0x00, 0x00, 0x00, 0x00, 0x00, 0x00, 0x00, 0x00, 0x00, 0x00, 0x00, 0x00,
  0x00, 0x00, 0x00, 0x00, 0x00, 0x00, 0x00, 0x00, 0x00, 0x00, 0x00, 0x00,
  0x08, 0x00, 0x00, 0x00, 0xb2, 0x7e, 0x05, 0x38, 0x43, 0xe7, 0x03, 0x38,
  0x4e, 0x7b, 0x19, 0x38, 0x07, 0xad, 0x0c, 0x38, 0xda, 0x5c, 0xe7, 0x37,
  0x80, 0x05, 0x3a, 0x38, 0xff, 0x12, 0x03, 0x38, 0xc2, 0x7d, 0xc8, 0x37,
  0x46, 0x00, 0x00, 0x00, 0x6d, 0x6f, 0x64, 0x65, 0x6c, 0x5f, 0x31, 0x2f,
  0x62, 0x61, 0x74, 0x63, 0x68, 0x5f, 0x6e, 0x6f, 0x72, 0x6d, 0x61, 0x6c,
  0x69, 0x7a, 0x61, 0x74, 0x69, 0x6f, 0x6e, 0x5f, 0x33, 0x2f, 0x46, 0x75,
  0x73, 0x65, 0x64, 0x42, 0x61, 0x74, 0x63, 0x68, 0x4e, 0x6f, 0x72, 0x6d,
  0x56, 0x33, 0x3b, 0x6d, 0x6f, 0x64, 0x65, 0x6c, 0x5f, 0x31, 0x2f, 0x63,
  0x6f, 0x6e, 0x76, 0x32, 0x64, 0x5f, 0x31, 0x2f, 0x43, 0x6f, 0x6e, 0x76,
  0x32, 0x44, 0x00, 0x00, 0x01, 0x00, 0x00, 0x00, 0x08, 0x00, 0x00, 0x00,
  0x42, 0xff, 0xff, 0xff, 0x14, 0x00, 0x00, 0x00, 0x84, 0x00, 0x00, 0x00,
  0x03, 0x00, 0x00, 0x00, 0x00, 0x00, 0x00, 0x09, 0x94, 0x00, 0x00, 0x00,
  0xc4, 0xfe, 0xff, 0xff, 0x08, 0x00, 0x00, 0x00, 0x48, 0x00, 0x00, 0x00,
  0x08, 0x00, 0x00, 0x00, 0x00, 0x00, 0x00, 0x00, 0x00, 0x00, 0x00, 0x00,
  0x00, 0x00, 0x00, 0x00, 0x00, 0x00, 0x00, 0x00, 0x00, 0x00, 0x00, 0x00,
  0x00, 0x00, 0x00, 0x00, 0x00, 0x00, 0x00, 0x00, 0x00, 0x00, 0x00, 0x00,
  0x00, 0x00, 0x00, 0x00, 0x00, 0x00, 0x00, 0x00, 0x00, 0x00, 0x00, 0x00,
  0x00, 0x00, 0x00, 0x00, 0x00, 0x00, 0x00, 0x00, 0x00, 0x00, 0x00, 0x00,
  0x00, 0x00, 0x00, 0x00, 0x00, 0x00, 0x00, 0x00, 0x08, 0x00, 0x00, 0x00,
  0x7b, 0xaf, 0x1f, 0x3d, 0x1d, 0xc8, 0x1d, 0x3d, 0xed, 0x97, 0x37, 0x3d,
  0x7a, 0x46, 0x28, 0x3d, 0x86, 0x60, 0x0a, 0x3d, 0x6f, 0x84, 0x5e, 0x3d,
  0x33, 0xca, 0x1c, 0x3d, 0x6f, 0xd3, 0xef, 0x3c, 0x17, 0x00, 0x00, 0x00,
  0x6d, 0x6f, 0x64, 0x65, 0x6c, 0x5f, 0x31, 0x2f, 0x63, 0x6f, 0x6e, 0x76,
  0x32, 0x64, 0x5f, 0x31, 0x2f, 0x43, 0x6f, 0x6e, 0x76, 0x32, 0x44, 0x00,
  0x04, 0x00, 0x00, 0x00, 0x08, 0x00, 0x00, 0x00, 0x01, 0x00, 0x00, 0x00,
  0x20, 0x00, 0x00, 0x00, 0x01, 0x00, 0x00, 0x00, 0x00, 0x00, 0x0e, 0x00,
  0x18, 0x00, 0x14, 0x00, 0x13, 0x00, 0x0c, 0x00, 0x08, 0x00, 0x04, 0x00,
  0x0e, 0x00, 0x00, 0x00, 0x18, 0x00, 0x00, 0x00, 0x18, 0x00, 0x00, 0x00,
  0x02, 0x00, 0x00, 0x00, 0x00, 0x00, 0x00, 0x02, 0x28, 0x00, 0x00, 0x00,
  0x04, 0x00, 0x04, 0x00, 0x04, 0x00, 0x00, 0x00, 0x15, 0x00, 0x00, 0x00,
  0x6d, 0x6f, 0x64, 0x65, 0x6c, 0x5f, 0x31, 0x2f, 0x66, 0x6c, 0x61, 0x74,
  0x74, 0x65, 0x6e, 0x2f, 0x43, 0x6f, 0x6e, 0x73, 0x74, 0x00, 0x00, 0x00,
  0x01, 0x00, 0x00, 0x00, 0x02, 0x00, 0x00, 0x00, 0x14, 0x00, 0x1c, 0x00,
  0x18, 0x00, 0x17, 0x00, 0x10, 0x00, 0x0c, 0x00, 0x08, 0x00, 0x00, 0x00,
  0x00, 0x00, 0x04, 0x00, 0x14, 0x00, 0x00, 0x00, 0x18, 0x00, 0x00, 0x00,
  0x34, 0x00, 0x00, 0x00, 0x54, 0x00, 0x00, 0x00, 0x01, 0x00, 0x00, 0x00,
  0x00, 0x00, 0x00, 0x09, 0x68, 0x00, 0x00, 0x00, 0x04, 0x00, 0x00, 0x00,
  0xff, 0xff, 0xff, 0xff, 0x3c, 0x00, 0x00, 0x00, 0x97, 0x00, 0x00, 0x00,
  0x01, 0x00, 0x00, 0x00, 0x0c, 0x00, 0x0c, 0x00, 0x00, 0x00, 0x00, 0x00,
  0x08, 0x00, 0x04, 0x00, 0x0c, 0x00, 0x00, 0x00, 0x08, 0x00, 0x00, 0x00,
  0x14, 0x00, 0x00, 0x00, 0x01, 0x00, 0x00, 0x00, 0xe8, 0xff, 0xff, 0xff,
  0xff, 0xff, 0xff, 0xff, 0x00, 0x00, 0x00, 0x00, 0x01, 0x00, 0x00, 0x00,
  0x37, 0x03, 0x56, 0x3a, 0x19, 0x00, 0x00, 0x00, 0x73, 0x65, 0x72, 0x76,
  0x69, 0x6e, 0x67, 0x5f, 0x64, 0x65, 0x66, 0x61, 0x75, 0x6c, 0x74, 0x5f,
  0x69, 0x6e, 0x70, 0x75, 0x74, 0x5f, 0x32, 0x3a, 0x30, 0x00, 0x00, 0x00,
  0x04, 0x00, 0x00, 0x00, 0x01, 0x00, 0x00, 0x00, 0x3c, 0x00, 0x00, 0x00,
  0x97, 0x00, 0x00, 0x00, 0x01, 0x00, 0x00, 0x00, 0x06, 0x00, 0x00, 0x00,
  0x7c, 0x00, 0x00, 0x00, 0x5c, 0x00, 0x00, 0x00, 0x48, 0x00, 0x00, 0x00,
  0x38, 0x00, 0x00, 0x00, 0x18, 0x00, 0x00, 0x00, 0x04, 0x00, 0x00, 0x00,
  0xa8, 0xff, 0xff, 0xff, 0x19, 0x00, 0x00, 0x00, 0x02, 0x00, 0x00, 0x00,
  0x00, 0x00, 0x00, 0x19, 0xb8, 0xff, 0xff, 0xff, 0x09, 0x00, 0x00, 0x00,
  0x04, 0x00, 0x00, 0x00, 0x00, 0x00, 0x00, 0x09, 0x0c, 0x00, 0x0c, 0x00,
  0x0b, 0x00, 0x00, 0x00, 0x00, 0x00, 0x04, 0x00, 0x0c, 0x00, 0x00, 0x00,
  0x16, 0x00, 0x00, 0x00, 0x00, 0x00, 0x00, 0x16, 0xe0, 0xff, 0xff, 0xff,
  0x01, 0x00, 0x00, 0x00, 0x02, 0x00, 0x00, 0x00, 0x00, 0x00, 0x00, 0x01,
  0xf0, 0xff, 0xff, 0xff, 0x04, 0x00, 0x00, 0x00, 0x03, 0x00, 0x00, 0x00,
  0x00, 0x00, 0x00, 0x04, 0x0c, 0x00, 0x10, 0x00, 0x0f, 0x00, 0x00, 0x00,
  0x08, 0x00, 0x04, 0x00, 0x0c, 0x00, 0x00, 0x00, 0x03, 0x00, 0x00, 0x00,
  0x03, 0x00, 0x00, 0x00, 0x00, 0x00, 0x00, 0x03
};

#endif //MODEL_TFLITE_H
