#ifndef MODEL_TFLITE_FLOAT_H
#define MODEL_TFLITE_FLOAT_H


unsigned int model_tflite_float_len = 12320;
unsigned char model_tflite_float[] = {
 0x1c, 0x00, 0x00, 0x00, 0x54, 0x46, 0x4c, 0x33, 0x14, 0x00, 0x20, 0x00,
  0x1c, 0x00, 0x18, 0x00, 0x14, 0x00, 0x10, 0x00, 0x0c, 0x00, 0x00, 0x00,
  0x08, 0x00, 0x04, 0x00, 0x14, 0x00, 0x00, 0x00, 0x1c, 0x00, 0x00, 0x00,
  0x80, 0x00, 0x00, 0x00, 0xd8, 0x00, 0x00, 0x00, 0x5c, 0x22, 0x00, 0x00,
  0x6c, 0x22, 0x00, 0x00, 0x7c, 0x2f, 0x00, 0x00, 0x03, 0x00, 0x00, 0x00,
  0x01, 0x00, 0x00, 0x00, 0x04, 0x00, 0x00, 0x00, 0xd6, 0xdc, 0xff, 0xff,
  0x0c, 0x00, 0x00, 0x00, 0x1c, 0x00, 0x00, 0x00, 0x38, 0x00, 0x00, 0x00,
  0x0f, 0x00, 0x00, 0x00, 0x73, 0x65, 0x72, 0x76, 0x69, 0x6e, 0x67, 0x5f,
  0x64, 0x65, 0x66, 0x61, 0x75, 0x6c, 0x74, 0x00, 0x01, 0x00, 0x00, 0x00,
  0x04, 0x00, 0x00, 0x00, 0x9c, 0xff, 0xff, 0xff, 0x14, 0x00, 0x00, 0x00,
  0x04, 0x00, 0x00, 0x00, 0x07, 0x00, 0x00, 0x00, 0x73, 0x6f, 0x66, 0x74,
  0x6d, 0x61, 0x78, 0x00, 0x01, 0x00, 0x00, 0x00, 0x04, 0x00, 0x00, 0x00,
  0x76, 0xdd, 0xff, 0xff, 0x04, 0x00, 0x00, 0x00, 0x07, 0x00, 0x00, 0x00,
  0x69, 0x6e, 0x70, 0x75, 0x74, 0x5f, 0x32, 0x00, 0x02, 0x00, 0x00, 0x00,
  0x34, 0x00, 0x00, 0x00, 0x04, 0x00, 0x00, 0x00, 0xdc, 0xff, 0xff, 0xff,
  0x17, 0x00, 0x00, 0x00, 0x04, 0x00, 0x00, 0x00, 0x13, 0x00, 0x00, 0x00,
  0x43, 0x4f, 0x4e, 0x56, 0x45, 0x52, 0x53, 0x49, 0x4f, 0x4e, 0x5f, 0x4d,
  0x45, 0x54, 0x41, 0x44, 0x41, 0x54, 0x41, 0x00, 0x08, 0x00, 0x0c, 0x00,
  0x08, 0x00, 0x04, 0x00, 0x08, 0x00, 0x00, 0x00, 0x16, 0x00, 0x00, 0x00,
  0x04, 0x00, 0x00, 0x00, 0x13, 0x00, 0x00, 0x00, 0x6d, 0x69, 0x6e, 0x5f,
  0x72, 0x75, 0x6e, 0x74, 0x69, 0x6d, 0x65, 0x5f, 0x76, 0x65, 0x72, 0x73,
  0x69, 0x6f, 0x6e, 0x00, 0x18, 0x00, 0x00, 0x00, 0x80, 0x21, 0x00, 0x00,
  0x78, 0x21, 0x00, 0x00, 0x58, 0x21, 0x00, 0x00, 0x40, 0x21, 0x00, 0x00,
  0xf0, 0x20, 0x00, 0x00, 0xa0, 0x20, 0x00, 0x00, 0x90, 0x1c, 0x00, 0x00,
  0x80, 0x18, 0x00, 0x00, 0x30, 0x18, 0x00, 0x00, 0x20, 0x14, 0x00, 0x00,
  0x10, 0x10, 0x00, 0x00, 0xe0, 0x0f, 0x00, 0x00, 0xd0, 0x00, 0x00, 0x00,
  0xc8, 0x00, 0x00, 0x00, 0xc0, 0x00, 0x00, 0x00, 0xb8, 0x00, 0x00, 0x00,
  0xb0, 0x00, 0x00, 0x00, 0xa8, 0x00, 0x00, 0x00, 0xa0, 0x00, 0x00, 0x00,
  0x98, 0x00, 0x00, 0x00, 0x90, 0x00, 0x00, 0x00, 0x88, 0x00, 0x00, 0x00,
  0x68, 0x00, 0x00, 0x00, 0x04, 0x00, 0x00, 0x00, 0x4a, 0xde, 0xff, 0xff,
  0x04, 0x00, 0x00, 0x00, 0x54, 0x00, 0x00, 0x00, 0x0c, 0x00, 0x00, 0x00,
  0x08, 0x00, 0x0e, 0x00, 0x08, 0x00, 0x04, 0x00, 0x08, 0x00, 0x00, 0x00,
  0x10, 0x00, 0x00, 0x00, 0x24, 0x00, 0x00, 0x00, 0x00, 0x00, 0x06, 0x00,
  0x08, 0x00, 0x04, 0x00, 0x06, 0x00, 0x00, 0x00, 0x04, 0x00, 0x00, 0x00,
  0x00, 0x00, 0x00, 0x00, 0x00, 0x00, 0x0a, 0x00, 0x10, 0x00, 0x0c, 0x00,
  0x08, 0x00, 0x04, 0x00, 0x0a, 0x00, 0x00, 0x00, 0x01, 0x00, 0x00, 0x00,
  0x02, 0x00, 0x00, 0x00, 0x04, 0x00, 0x00, 0x00, 0x05, 0x00, 0x00, 0x00,
  0x32, 0x2e, 0x39, 0x2e, 0x32, 0x00, 0x00, 0x00, 0xaa, 0xde, 0xff, 0xff,
  0x04, 0x00, 0x00, 0x00, 0x10, 0x00, 0x00, 0x00, 0x31, 0x2e, 0x35, 0x2e,
  0x30, 0x00, 0x00, 0x00, 0x00, 0x00, 0x00, 0x00, 0x00, 0x00, 0x00, 0x00,
  0x6c, 0xd2, 0xff, 0xff, 0x70, 0xd2, 0xff, 0xff, 0x74, 0xd2, 0xff, 0xff,
  0x78, 0xd2, 0xff, 0xff, 0x7c, 0xd2, 0xff, 0xff, 0x80, 0xd2, 0xff, 0xff,
  0x84, 0xd2, 0xff, 0xff, 0x88, 0xd2, 0xff, 0xff, 0x8c, 0xd2, 0xff, 0xff,
  0xea, 0xde, 0xff, 0xff, 0x04, 0x00, 0x00, 0x00, 0x00, 0x0f, 0x00, 0x00,
  0x4c, 0x28, 0x0b, 0xbf, 0xf2, 0x0e, 0x2d, 0xbe, 0x1b, 0xc9, 0xb5, 0xbf,
  0xee, 0x7e, 0x56, 0x3f, 0x81, 0xdf, 0x46, 0xbc, 0xed, 0xd8, 0x8b, 0x3d,
  0x41, 0x17, 0x1d, 0xbe, 0xb9, 0xb1, 0x32, 0x3f, 0xdc, 0xd4, 0xb0, 0x3e,
  0x4a, 0xb7, 0xd2, 0xbf, 0x8d, 0xb5, 0x4b, 0x3f, 0x96, 0x2c, 0x9f, 0x3f,
  0x4f, 0xe5, 0x06, 0xbd, 0x0a, 0x93, 0x23, 0x40, 0xde, 0xaf, 0xcf, 0xbe,
  0x14, 0xd7, 0x3c, 0x3f, 0xdd, 0x74, 0x73, 0xbf, 0x93, 0x9b, 0xa7, 0xbf,
  0x25, 0x54, 0x58, 0x3f, 0xbf, 0xdc, 0xdd, 0x3e, 0x25, 0xf4, 0x2b, 0x40,
  0x73, 0xba, 0x01, 0xc0, 0x25, 0x4b, 0x39, 0x40, 0xbf, 0x9f, 0x77, 0xbb,
  0x0b, 0x92, 0x78, 0x3f, 0x60, 0xf9, 0x26, 0xbf, 0xf5, 0xd5, 0xba, 0x3e,
  0xba, 0xe9, 0x99, 0x3e, 0xdf, 0xbd, 0x13, 0x3f, 0x4d, 0xa0, 0x47, 0xbf,
  0xa0, 0xed, 0x73, 0x3f, 0xd5, 0x1e, 0x2f, 0x3f, 0x75, 0x9e, 0x85, 0xbf,
  0x42, 0x7c, 0x86, 0xbe, 0x40, 0x13, 0x8a, 0xbe, 0xbb, 0x36, 0x7c, 0x3f,
  0xbf, 0xe3, 0x74, 0xbf, 0x80, 0x77, 0x23, 0x3f, 0x7a, 0x9a, 0x6c, 0xbe,
  0xf4, 0xc1, 0xac, 0xbf, 0xc8, 0xcf, 0xcd, 0x3e, 0xca, 0x5a, 0xf2, 0x3e,
  0x46, 0x41, 0xb7, 0xbe, 0xa1, 0x86, 0x83, 0x3e, 0x20, 0x17, 0x08, 0x3f,
  0x7f, 0x51, 0xe2, 0x3b, 0x4e, 0x01, 0xdb, 0x3e, 0xea, 0x43, 0x82, 0x3f,
  0xed, 0xb0, 0x02, 0xbe, 0x06, 0x01, 0xd7, 0x3e, 0xbe, 0x41, 0x07, 0xbd,
  0x98, 0xe0, 0x1e, 0xbf, 0x23, 0x0d, 0x37, 0xc0, 0x14, 0x7d, 0x88, 0x3f,
  0x3f, 0xde, 0x9d, 0xbe, 0xed, 0xc1, 0x06, 0xbf, 0xc3, 0xe6, 0xec, 0x3e,
  0x4e, 0x43, 0x32, 0x3e, 0x1e, 0xd3, 0xe5, 0x3e, 0x1b, 0x1d, 0x71, 0xbf,
  0x0b, 0x57, 0x24, 0xbf, 0xb0, 0xb9, 0x44, 0x3e, 0xe7, 0xf1, 0x90, 0x3f,
  0x07, 0x49, 0x94, 0xbf, 0x7a, 0xc1, 0x60, 0x3e, 0x3f, 0xc7, 0x9b, 0x3d,
  0x63, 0x2a, 0x8c, 0x3e, 0xb9, 0x52, 0x4b, 0xbf, 0x10, 0xe2, 0xfa, 0xbf,
  0xc4, 0x0b, 0x9a, 0x3f, 0x28, 0x4b, 0xd4, 0x3f, 0x27, 0x58, 0xfd, 0x3e,
  0x97, 0x1a, 0xe4, 0x3f, 0x9e, 0xde, 0xf0, 0xbe, 0x2d, 0x02, 0x66, 0x3f,
  0x25, 0xa2, 0x12, 0xbf, 0x95, 0xcf, 0x91, 0xbe, 0xff, 0x7b, 0x88, 0xbf,
  0x4c, 0x97, 0xd5, 0x3e, 0x74, 0x08, 0xd9, 0xbd, 0x87, 0x18, 0x0e, 0x40,
  0xdf, 0xe8, 0x48, 0xbf, 0x6a, 0xa2, 0xb7, 0xbf, 0x23, 0xa7, 0x0c, 0xbf,
  0x16, 0xde, 0x26, 0xbf, 0xba, 0xcf, 0x5c, 0x3f, 0x0c, 0x48, 0x83, 0x3f,
  0x16, 0x3a, 0x7f, 0x3e, 0xe4, 0xbc, 0x57, 0xbe, 0x40, 0x29, 0x87, 0x3e,
  0xee, 0xe0, 0xb1, 0xbe, 0x1b, 0xfa, 0xa3, 0xbf, 0x1b, 0x48, 0xeb, 0x3d,
  0x20, 0xe9, 0x3a, 0x3e, 0x37, 0x4a, 0xcb, 0xbf, 0xa4, 0xcb, 0xb6, 0x3f,
  0xbc, 0x3d, 0x63, 0xbf, 0xab, 0xce, 0xe7, 0x3f, 0x15, 0x05, 0x10, 0x3f,
  0x5a, 0x97, 0x9c, 0x3f, 0x2b, 0x01, 0x4a, 0x3f, 0x23, 0xe5, 0x6f, 0xbf,
  0x6a, 0x0e, 0x4a, 0xc0, 0x81, 0x0e, 0xce, 0x3e, 0x49, 0xc6, 0xae, 0x3f,
  0xab, 0x06, 0x6f, 0xbf, 0x40, 0xe8, 0x07, 0x3e, 0xd4, 0x99, 0x99, 0x3e,
  0xd5, 0x99, 0x8f, 0xbf, 0x82, 0x5b, 0xb9, 0x3f, 0xf0, 0x07, 0xa9, 0xbf,
  0xfe, 0xeb, 0x4c, 0xbf, 0xa0, 0x32, 0x3a, 0x3f, 0x37, 0xc8, 0x8d, 0x3d,
  0x1f, 0xf3, 0x1b, 0x3f, 0xeb, 0xf3, 0x4a, 0xbf, 0xfd, 0xed, 0x43, 0x40,
  0x87, 0x63, 0xd8, 0x3f, 0x95, 0xf4, 0x19, 0xbf, 0x4a, 0x9a, 0xcd, 0x3e,
  0xbc, 0x94, 0xe9, 0xbf, 0xa3, 0xf9, 0x24, 0x3e, 0xe3, 0xc8, 0x94, 0x3f,
  0x4a, 0x0d, 0x5b, 0x3f, 0x44, 0x46, 0x1a, 0x3f, 0x5d, 0x5f, 0x41, 0xbf,
  0x33, 0x73, 0x4c, 0xbf, 0x52, 0xfd, 0xac, 0xbe, 0x29, 0x22, 0xd8, 0xbc,
  0xea, 0xf0, 0xdd, 0xbc, 0xb1, 0xd8, 0x9e, 0xbf, 0xbb, 0xb9, 0x26, 0xbf,
  0xb9, 0x03, 0x2b, 0x3f, 0xfd, 0xb8, 0xb9, 0xbf, 0xbe, 0xeb, 0x96, 0xbe,
  0xdd, 0xc3, 0x02, 0xbf, 0xcc, 0xf5, 0x87, 0xbf, 0xb6, 0xe3, 0x3a, 0xbf,
  0xf8, 0x7c, 0x31, 0xbf, 0x29, 0x27, 0x15, 0x40, 0x00, 0xa5, 0x4b, 0x3e,
  0xc7, 0x71, 0x0e, 0x40, 0x91, 0x73, 0x8f, 0x3e, 0x1b, 0xfc, 0x44, 0xbe,
  0xf3, 0x75, 0xec, 0xbe, 0x9b, 0x3a, 0x9d, 0x3f, 0xc8, 0x84, 0xbd, 0x3e,
  0xef, 0x57, 0x50, 0xbf, 0x34, 0x2f, 0x91, 0xbd, 0xb6, 0x9b, 0x6c, 0xbf,
  0x46, 0xdb, 0x86, 0xbf, 0xc2, 0x17, 0xce, 0x3f, 0x99, 0x2f, 0x92, 0x3f,
  0xf8, 0x03, 0x12, 0x3f, 0xb7, 0x1c, 0x8c, 0xbe, 0xf4, 0xdf, 0x92, 0x3d,
  0x27, 0x6f, 0x94, 0xbd, 0xcd, 0x40, 0x79, 0xbf, 0xed, 0x50, 0x77, 0xbf,
  0x73, 0x53, 0x13, 0xc0, 0x2c, 0xe2, 0x0e, 0xbe, 0x38, 0x8d, 0x3b, 0x3e,
  0x1d, 0x8b, 0xf6, 0x3e, 0x77, 0x7e, 0x25, 0xbf, 0xbf, 0x43, 0xcb, 0x3e,
  0x62, 0x63, 0xbf, 0xbe, 0xab, 0x00, 0x33, 0xbe, 0x47, 0xa3, 0xf3, 0xbf,
  0x28, 0x19, 0xb5, 0xbe, 0x72, 0xa0, 0xdc, 0xbe, 0xb9, 0x8c, 0xdf, 0xbe,
  0xbf, 0xc3, 0xc2, 0xbf, 0x16, 0x73, 0x65, 0xbd, 0x20, 0xae, 0xba, 0x3e,
  0xf9, 0xd2, 0x38, 0xbe, 0xb8, 0x01, 0x2c, 0xbf, 0xc2, 0xa5, 0x08, 0x40,
  0xba, 0xa5, 0x9e, 0xbf, 0xf2, 0xd2, 0xe0, 0xbe, 0xd4, 0x5c, 0x42, 0x3e,
  0x5d, 0x9a, 0x82, 0xbd, 0xb2, 0x11, 0xdc, 0xbf, 0x3c, 0x71, 0x75, 0xbf,
  0x17, 0xbd, 0xb7, 0x3f, 0x52, 0x4f, 0x7f, 0xbf, 0x2f, 0x25, 0xc1, 0xbf,
  0x12, 0xcb, 0x8c, 0xbd, 0x8b, 0x23, 0x30, 0x3f, 0x8a, 0x3f, 0xf8, 0x3a,
  0xea, 0x61, 0x0b, 0xc0, 0x3d, 0x52, 0x15, 0xc0, 0xd1, 0x66, 0x88, 0x3f,
  0x93, 0x37, 0xc1, 0x3f, 0x8f, 0xa9, 0x8f, 0xbf, 0xb5, 0x7d, 0xce, 0x3f,
  0x62, 0x65, 0x85, 0xbd, 0xf5, 0xb9, 0xec, 0x3f, 0x4f, 0x61, 0xb1, 0xbd,
  0x24, 0xce, 0x4f, 0x3f, 0x4b, 0x2f, 0x91, 0x3e, 0x04, 0xf3, 0xb2, 0x3e,
  0x88, 0x02, 0xb5, 0xbe, 0x6a, 0x11, 0x6d, 0xbe, 0x4d, 0xc2, 0x51, 0x3f,
  0x01, 0xca, 0xa3, 0xbf, 0x55, 0x38, 0xe9, 0xbd, 0x47, 0x0e, 0x40, 0x3f,
  0xe9, 0xc2, 0x44, 0x3e, 0x63, 0x5c, 0x37, 0xc0, 0x61, 0x6a, 0xc0, 0xbe,
  0x0d, 0x80, 0xc5, 0x3f, 0x53, 0x14, 0x18, 0xbe, 0x7e, 0x65, 0xb8, 0xbf,
  0xc3, 0xb5, 0x33, 0x3f, 0xa9, 0xed, 0xf6, 0xbf, 0x3d, 0x43, 0xa6, 0xbf,
  0x75, 0x97, 0x10, 0xc0, 0x4e, 0x9d, 0xf5, 0x3e, 0xe2, 0xb9, 0x8b, 0xbe,
  0x64, 0x1e, 0xbb, 0x3f, 0xdf, 0x18, 0x0f, 0x3f, 0xce, 0x10, 0xb2, 0x3f,
  0x7a, 0x6c, 0xe8, 0xbe, 0x5f, 0x6e, 0x54, 0xbf, 0xb3, 0x93, 0xa0, 0x3f,
  0xe6, 0x5a, 0xeb, 0x3e, 0x18, 0xfe, 0x15, 0x3f, 0xb1, 0xa6, 0x8e, 0x3f,
  0x7b, 0x0a, 0x6f, 0xbe, 0x50, 0x41, 0x2b, 0xc0, 0xb4, 0x1e, 0xff, 0x3e,
  0xeb, 0x79, 0x46, 0xbe, 0x2c, 0x75, 0xf7, 0x3e, 0x12, 0xad, 0x7e, 0x3e,
  0x9d, 0x14, 0x2e, 0xbf, 0x0a, 0x16, 0x7e, 0x3f, 0xfd, 0x56, 0x1d, 0xbe,
  0x7c, 0xc6, 0x73, 0xbf, 0x02, 0xfb, 0xe4, 0x3e, 0x78, 0xa8, 0xcf, 0xbd,
  0xb0, 0x83, 0x43, 0xbf, 0x2e, 0x7e, 0x96, 0xbf, 0xde, 0x63, 0x9b, 0x3f,
  0x69, 0x72, 0x05, 0x3f, 0x68, 0x36, 0xa0, 0x3f, 0xb0, 0x81, 0x1b, 0x40,
  0x90, 0x64, 0xa3, 0x3f, 0x76, 0x08, 0xbb, 0x3e, 0x6d, 0x81, 0x8a, 0xbe,
  0x4f, 0x34, 0xd7, 0x3e, 0xab, 0xc5, 0xdc, 0x3d, 0x51, 0xaf, 0x3b, 0xbf,
  0x86, 0x59, 0x56, 0x3f, 0xa0, 0xf6, 0x0c, 0x3f, 0xe1, 0x6b, 0xad, 0x3f,
  0x74, 0x00, 0xbe, 0x3f, 0x6b, 0x4d, 0x77, 0x3f, 0xbb, 0xd5, 0xf9, 0xbe,
  0xdd, 0x40, 0xf4, 0xbe, 0xb4, 0xc6, 0x7e, 0xbe, 0x32, 0xb0, 0x30, 0xc0,
  0x96, 0x87, 0x90, 0xbe, 0x87, 0x74, 0x81, 0xc0, 0xb8, 0x3d, 0x55, 0x3e,
  0xce, 0x15, 0x38, 0x3f, 0xc2, 0x89, 0x5a, 0x3f, 0x6f, 0x5e, 0xcc, 0xbe,
  0xec, 0xa0, 0xcf, 0x3e, 0xd3, 0xc6, 0x7a, 0x3e, 0xf8, 0x98, 0x2b, 0xc0,
  0x7a, 0x08, 0xa2, 0x3e, 0x33, 0xc8, 0x94, 0x3e, 0x6c, 0x7d, 0xfe, 0xbe,
  0xbf, 0x0b, 0xa2, 0xbe, 0xf8, 0x77, 0xa8, 0x3e, 0x41, 0xc3, 0x8b, 0x3d,
  0xcb, 0xa4, 0x86, 0xbf, 0x52, 0x7d, 0xc0, 0xbf, 0xe6, 0xea, 0x15, 0xbf,
  0xe8, 0x46, 0x82, 0xbf, 0xe9, 0xf7, 0x7e, 0xbe, 0x54, 0xac, 0x38, 0xbe,
  0xfb, 0x77, 0xec, 0x3e, 0xd2, 0x18, 0x31, 0xbf, 0xe4, 0x8b, 0x7f, 0x3e,
  0xf5, 0xd1, 0x19, 0x3f, 0x19, 0x69, 0xc2, 0xbc, 0x79, 0x40, 0xb3, 0xbf,
  0xec, 0x6b, 0x0d, 0xc0, 0xc7, 0x16, 0x83, 0x3f, 0xf7, 0x23, 0x81, 0x3f,
  0x3f, 0x63, 0x28, 0xbf, 0xa0, 0x5a, 0x10, 0x40, 0x54, 0x96, 0x06, 0xbe,
  0xed, 0xf7, 0xf7, 0x3f, 0xe1, 0x72, 0xa8, 0xbf, 0xb9, 0x42, 0x85, 0xbf,
  0xe1, 0xa0, 0x35, 0xbf, 0x6c, 0x6a, 0x2f, 0xbe, 0xf7, 0x51, 0x4c, 0xc0,
  0x86, 0xca, 0x16, 0x3f, 0x70, 0xf1, 0x1c, 0x40, 0xca, 0xca, 0x3d, 0xbe,
  0x8e, 0x6f, 0x22, 0xbf, 0xe0, 0x1d, 0xb2, 0xbe, 0x0b, 0x66, 0xf2, 0xbf,
  0x68, 0x35, 0xe5, 0xbe, 0x92, 0x60, 0x39, 0xbe, 0x1e, 0x70, 0xa1, 0xbf,
  0x5c, 0xbb, 0x10, 0x40, 0xd9, 0xee, 0xb1, 0x3f, 0xc0, 0x08, 0xa6, 0x3f,
  0x2f, 0xc6, 0x4c, 0xc0, 0xac, 0xd1, 0x97, 0xbf, 0x7d, 0x35, 0x34, 0x40,
  0x6a, 0x06, 0x2b, 0xc0, 0x0c, 0x53, 0x97, 0x3f, 0x4d, 0xa3, 0xd9, 0x3f,
  0x48, 0xba, 0x76, 0x3f, 0xee, 0x7b, 0x52, 0xbf, 0xcb, 0x62, 0x08, 0xbf,
  0xd6, 0x18, 0x91, 0x3f, 0x4f, 0x52, 0x06, 0x40, 0x05, 0xb5, 0x30, 0xbe,
  0x87, 0xd0, 0x15, 0x3f, 0x14, 0xa5, 0xe3, 0x3c, 0x6a, 0xf1, 0x04, 0x3d,
  0xde, 0xcd, 0xfb, 0x3f, 0x65, 0xc1, 0xe3, 0x3f, 0xbe, 0xaf, 0x93, 0x3f,
  0xda, 0x81, 0xe5, 0xbf, 0x12, 0x9d, 0x85, 0x3f, 0x66, 0x6f, 0x60, 0xbe,
  0xcb, 0x66, 0xf2, 0x3c, 0x50, 0xf3, 0x10, 0x3f, 0xaa, 0xfe, 0xbb, 0x3e,
  0x50, 0xcd, 0x1f, 0xbe, 0x91, 0x2a, 0xcf, 0x3f, 0x32, 0x81, 0x37, 0xbf,
  0x62, 0xd8, 0x30, 0xbf, 0x2c, 0xb7, 0x81, 0xc0, 0xa5, 0xb5, 0x50, 0x3d,
  0xfd, 0xf2, 0xd8, 0xbf, 0x3d, 0x34, 0x84, 0x3f, 0xb1, 0xa1, 0x4f, 0xbe,
  0x02, 0x9b, 0x88, 0xbf, 0x0d, 0x69, 0x32, 0xbf, 0xdc, 0x7f, 0xec, 0xbf,
  0x37, 0xab, 0x66, 0xbe, 0x95, 0x64, 0x5b, 0xbf, 0x9b, 0xf6, 0x01, 0x40,
  0x51, 0xdd, 0x97, 0xbf, 0xbf, 0x97, 0x8b, 0x3f, 0xd1, 0xd9, 0xa3, 0x3e,
  0x78, 0xae, 0xdf, 0xbf, 0xc3, 0xd0, 0x64, 0xbf, 0x7c, 0xb3, 0xea, 0x3f,
  0x3a, 0xe1, 0x00, 0x3f, 0x10, 0xbe, 0x2f, 0x3f, 0x12, 0x31, 0x73, 0x3e,
  0x2e, 0xb1, 0x83, 0xbf, 0xe7, 0xe0, 0x8a, 0xbf, 0x88, 0x8f, 0x29, 0x3f,
  0xc1, 0x99, 0x5c, 0x3e, 0x61, 0x17, 0x82, 0x3e, 0x72, 0x26, 0x95, 0x3f,
  0x82, 0x81, 0x42, 0x3f, 0xce, 0xf8, 0x1f, 0xbf, 0x36, 0x78, 0x4c, 0x3f,
  0x0e, 0x8f, 0x1b, 0x3e, 0xf7, 0xa0, 0xe7, 0xbf, 0xe1, 0x27, 0xc5, 0x3d,
  0xcb, 0x86, 0x97, 0x3f, 0xea, 0xde, 0xc2, 0xbe, 0xd2, 0x9a, 0x2a, 0xc0,
  0x7b, 0x47, 0xb2, 0x3f, 0x20, 0x76, 0x96, 0x3d, 0x94, 0x3f, 0xe2, 0xbe,
  0x89, 0x17, 0xe5, 0x3f, 0x49, 0x2a, 0xab, 0xbf, 0xd3, 0xa3, 0x51, 0x3f,
  0x9a, 0x0a, 0x80, 0x3d, 0xb5, 0x0d, 0xb5, 0xbe, 0x22, 0x8d, 0xcb, 0x3f,
  0x54, 0xd3, 0x70, 0x3f, 0xb0, 0xb0, 0x9c, 0xbf, 0x13, 0x08, 0x65, 0x3d,
  0x4b, 0xc8, 0x95, 0xbe, 0xab, 0xc8, 0xeb, 0x3f, 0x9b, 0xc0, 0x72, 0x3f,
  0xae, 0x28, 0xa9, 0xbf, 0x50, 0x81, 0x47, 0x3f, 0x6b, 0x8e, 0x3f, 0x3d,
  0x2d, 0x84, 0x29, 0x3f, 0x40, 0x94, 0x98, 0xbf, 0xe2, 0x54, 0x94, 0x3f,
  0x17, 0x03, 0xd9, 0xbf, 0xcd, 0x66, 0x29, 0x3f, 0xdd, 0x28, 0x06, 0xbf,
  0xc7, 0xb8, 0x27, 0x3f, 0xab, 0x08, 0xab, 0x3e, 0xef, 0xa1, 0x8d, 0x3f,
  0x2c, 0x02, 0x78, 0xbf, 0x3c, 0xe4, 0xa0, 0xbe, 0x86, 0x6a, 0x3d, 0x3f,
  0x8e, 0xda, 0x25, 0xbf, 0xa1, 0xdd, 0x89, 0xbf, 0x5c, 0xc9, 0x9a, 0x3f,
  0x04, 0x91, 0x4e, 0x3f, 0x23, 0xb8, 0xb5, 0x3f, 0x61, 0xde, 0x9c, 0xbf,
  0x6d, 0x04, 0x67, 0xbf, 0xbd, 0x5d, 0x1c, 0xbf, 0xff, 0x8e, 0x3b, 0x3d,
  0x53, 0xa9, 0x06, 0xc0, 0xd2, 0x63, 0x03, 0xc0, 0x2f, 0xeb, 0x05, 0xc0,
  0x08, 0x15, 0x2b, 0x3e, 0xfd, 0x61, 0x20, 0xbf, 0x71, 0x58, 0x8b, 0xbf,
  0x04, 0x4f, 0x5a, 0x40, 0xa1, 0xfa, 0xa0, 0xbf, 0x07, 0x3a, 0xff, 0xbf,
  0x82, 0x58, 0x1f, 0x3f, 0xb6, 0x4a, 0xe0, 0xbe, 0x64, 0x92, 0x61, 0xbf,
  0xb7, 0xd6, 0x83, 0x3f, 0xf4, 0x3f, 0x49, 0xc0, 0x25, 0xda, 0xb4, 0xbf,
  0xa7, 0x88, 0x31, 0xbf, 0x68, 0xe0, 0x0a, 0x3f, 0xc9, 0x95, 0x8b, 0xbf,
  0x96, 0x30, 0x4d, 0xbf, 0x37, 0x70, 0x91, 0xbd, 0xdb, 0x96, 0x90, 0x3f,
  0xbc, 0xa0, 0x2c, 0xbe, 0xf2, 0x7d, 0x08, 0xc0, 0x3f, 0x7f, 0xab, 0xbf,
  0x66, 0x21, 0x87, 0xbf, 0x8a, 0xbc, 0xf5, 0xbe, 0xeb, 0x38, 0xf9, 0xbf,
  0x74, 0xf0, 0x8d, 0x3f, 0xcc, 0xad, 0xcb, 0xbf, 0x6b, 0xe9, 0x15, 0x40,
  0xbc, 0x67, 0x20, 0x3f, 0xea, 0x82, 0xb8, 0xbe, 0x93, 0x0c, 0xb9, 0xbf,
  0x8e, 0xa5, 0x0d, 0x3f, 0x09, 0x4a, 0x90, 0xbf, 0x77, 0xc7, 0x0a, 0x3f,
  0x9e, 0xb8, 0xcb, 0x3f, 0x1f, 0xa0, 0x88, 0x3f, 0x41, 0x3e, 0x00, 0x40,
  0xb2, 0x57, 0x8b, 0xbf, 0x26, 0xf9, 0x3b, 0x3d, 0xe4, 0x65, 0x91, 0xbf,
  0xf6, 0x1e, 0x1c, 0xc0, 0xa8, 0xa0, 0x83, 0x3e, 0xfc, 0x4f, 0xba, 0x3f,
  0x0b, 0xae, 0x9b, 0x3e, 0x56, 0x47, 0x62, 0xbf, 0xac, 0xa4, 0x02, 0x40,
  0xf6, 0x54, 0x9b, 0xbe, 0x12, 0xac, 0xa6, 0xbf, 0xd6, 0x0d, 0x01, 0x40,
  0xb7, 0x2a, 0x24, 0x3e, 0x1e, 0x7d, 0x02, 0xbe, 0xe8, 0xe8, 0xf0, 0x3e,
  0x1f, 0x6a, 0x76, 0xbf, 0xaa, 0x78, 0xb6, 0xbf, 0xe8, 0xa5, 0x3f, 0xbf,
  0xd8, 0x46, 0x43, 0xbf, 0xab, 0x5d, 0x04, 0x3e, 0x0d, 0x0f, 0x90, 0xbe,
  0x8d, 0x1a, 0x0a, 0xc0, 0x3b, 0x61, 0x97, 0x3e, 0x36, 0x5e, 0x5a, 0x3e,
  0x0c, 0x16, 0x03, 0xbf, 0xdc, 0xb5, 0xa5, 0x3d, 0x98, 0x03, 0x0d, 0xc0,
  0xed, 0x8e, 0x91, 0xbf, 0x46, 0x98, 0x72, 0xbf, 0x3a, 0x66, 0x2f, 0xbf,
  0x8e, 0xe6, 0xcd, 0x3e, 0xb6, 0x70, 0xcb, 0x3f, 0x5e, 0x66, 0xde, 0x3f,
  0xa0, 0x47, 0x9e, 0x3f, 0xa8, 0xae, 0x86, 0xbe, 0x40, 0xad, 0x19, 0x3f,
  0xff, 0x1c, 0x15, 0xbf, 0x50, 0xd5, 0x76, 0x3f, 0x5b, 0xc7, 0xe7, 0xbe,
  0x31, 0xca, 0xf6, 0x3f, 0x3c, 0xc7, 0x31, 0xc0, 0xff, 0xd1, 0x2b, 0x3f,
  0x05, 0x13, 0x32, 0x3e, 0x92, 0x1b, 0x2b, 0x3f, 0xd7, 0xc6, 0x9c, 0x3d,
  0xc8, 0x9b, 0x15, 0xc0, 0xa3, 0x11, 0xb0, 0x3f, 0xdc, 0xd7, 0xac, 0xbf,
  0xff, 0x0f, 0xa8, 0x3f, 0xb2, 0x7f, 0xdc, 0x3f, 0xc2, 0x95, 0xd9, 0xbf,
  0xa3, 0xe9, 0x30, 0xbf, 0x70, 0x48, 0x8c, 0xbe, 0x7b, 0xda, 0x05, 0x40,
  0x0f, 0x85, 0xb7, 0xbf, 0xac, 0x66, 0xd9, 0xbf, 0x88, 0xb0, 0xb9, 0xbd,
  0x22, 0x55, 0x10, 0xbf, 0x70, 0x10, 0x0f, 0xc0, 0xc3, 0x51, 0x2b, 0xc0,
  0xaf, 0x49, 0xe4, 0x3f, 0x39, 0x25, 0x00, 0xbf, 0x0e, 0x81, 0xcd, 0xbe,
  0xf9, 0xff, 0x61, 0x3f, 0xc6, 0xc9, 0xc8, 0xbf, 0xb6, 0x95, 0x5e, 0xbf,
  0x24, 0x82, 0x63, 0x3f, 0x0e, 0x5b, 0x10, 0xbf, 0x3b, 0x7b, 0xe1, 0xbe,
  0x54, 0x67, 0x87, 0x3c, 0x5b, 0xa9, 0x6d, 0x3f, 0x96, 0x6b, 0xe6, 0xbd,
  0x44, 0x62, 0x73, 0x3f, 0x9c, 0x82, 0x2c, 0xbe, 0x26, 0xbb, 0xc2, 0xbf,
  0x12, 0x39, 0x3c, 0x3e, 0x09, 0x5b, 0x28, 0xbf, 0xa8, 0x56, 0x05, 0x3f,
  0x81, 0x71, 0x1b, 0x3f, 0x31, 0x7f, 0x10, 0xc0, 0xd5, 0xc3, 0x37, 0xbe,
  0xfa, 0xc2, 0x14, 0xc0, 0x02, 0x75, 0x6f, 0x3f, 0x0d, 0x65, 0x0b, 0x40,
  0x68, 0x2e, 0xa5, 0x3f, 0x01, 0x32, 0x01, 0xc0, 0x01, 0x22, 0x36, 0x40,
  0x99, 0x59, 0x85, 0x3f, 0x13, 0x0e, 0x2d, 0x3f, 0x5f, 0xb1, 0x82, 0x3f,
  0xbc, 0xa4, 0xe6, 0xbe, 0x2b, 0x8c, 0x04, 0xbf, 0xc1, 0x00, 0x8c, 0xbd,
  0xd9, 0x0e, 0x3d, 0xbf, 0x60, 0xda, 0x74, 0xbe, 0x5b, 0xff, 0xa2, 0x3f,
  0x70, 0x20, 0x7f, 0xbf, 0x53, 0xaa, 0xc2, 0xbf, 0xb6, 0x82, 0x92, 0x3f,
  0xd5, 0x25, 0xc4, 0xbe, 0xb7, 0x58, 0x82, 0x3d, 0xcb, 0x5e, 0x05, 0x3e,
  0x16, 0xf9, 0xfe, 0xbe, 0xb3, 0x33, 0x85, 0xbf, 0x46, 0xbf, 0x03, 0xc0,
  0x17, 0xab, 0xb9, 0xbd, 0xb6, 0xe7, 0x8b, 0x3f, 0xf8, 0x3b, 0x53, 0x40,
  0x20, 0xbd, 0x36, 0x3e, 0x07, 0x47, 0xd5, 0xbe, 0x2f, 0xb5, 0xfc, 0x3d,
  0x34, 0x68, 0x47, 0xc0, 0x94, 0x1c, 0x72, 0x3f, 0x15, 0xdb, 0x42, 0x40,
  0x09, 0x54, 0x05, 0x3f, 0x7a, 0xe6, 0xa1, 0xbe, 0x90, 0xf8, 0x12, 0x3f,
  0x00, 0x76, 0xad, 0xbd, 0xb0, 0x27, 0xb0, 0x3f, 0x11, 0x62, 0x83, 0x3e,
  0x7a, 0x14, 0x36, 0xc0, 0xd0, 0xb5, 0x02, 0x40, 0x35, 0x59, 0x07, 0xbf,
  0x12, 0x8d, 0xbe, 0xbd, 0x1f, 0x6d, 0xe9, 0xbe, 0xe7, 0x25, 0x87, 0x3f,
  0x5e, 0x42, 0x49, 0xbe, 0x72, 0x1c, 0xaf, 0x3d, 0x31, 0x96, 0x05, 0x40,
  0x45, 0x68, 0x4d, 0x3f, 0xf7, 0xd2, 0xa5, 0xbf, 0x2f, 0x18, 0x9e, 0xbf,
  0x3f, 0x3a, 0x52, 0x3f, 0x16, 0xbb, 0xd2, 0x3f, 0xc4, 0x76, 0x5d, 0x3e,
  0x25, 0x0d, 0xbd, 0x3f, 0xb7, 0xc6, 0x8a, 0x3e, 0x09, 0x4d, 0xfc, 0x3f,
  0xbb, 0xb7, 0x54, 0xbf, 0xfc, 0xce, 0x18, 0xc0, 0xa4, 0x47, 0x04, 0xc0,
  0xe5, 0xb0, 0x7d, 0xbf, 0xb6, 0x07, 0x48, 0x3f, 0x01, 0x37, 0x11, 0x40,
  0x49, 0x06, 0x65, 0xbf, 0x1b, 0x4e, 0x52, 0xbf, 0x40, 0x3c, 0xca, 0x3f,
  0x6e, 0x77, 0x96, 0xbf, 0x7a, 0x41, 0x12, 0xbe, 0x35, 0xd3, 0x45, 0xbf,
  0xd2, 0x9f, 0x4a, 0x40, 0x1a, 0x01, 0x8f, 0xbe, 0x40, 0x87, 0x29, 0xbe,
  0x5c, 0xa4, 0x6f, 0xbf, 0x24, 0x25, 0xa3, 0x3f, 0x2b, 0xfc, 0xd6, 0x3e,
  0x0f, 0x66, 0x02, 0xc0, 0x4a, 0x51, 0x2c, 0xc0, 0x58, 0x16, 0xa0, 0xbd,
  0x0e, 0x31, 0xb2, 0xbf, 0x95, 0x7d, 0x0c, 0xbf, 0xb0, 0x2f, 0x74, 0xbf,
  0xc0, 0xa9, 0x15, 0x3e, 0xb5, 0x13, 0x44, 0x3f, 0xf0, 0x45, 0xa8, 0x3f,
  0x3e, 0x2b, 0x85, 0xbf, 0x29, 0x5f, 0xd9, 0xbd, 0x0b, 0x75, 0x92, 0xbf,
  0x95, 0xfb, 0x68, 0xbf, 0x0b, 0x5f, 0x08, 0xc0, 0xba, 0xaa, 0x11, 0x40,
  0x96, 0xb5, 0x73, 0x3e, 0x30, 0x48, 0x4f, 0xbf, 0x4a, 0xf1, 0xc7, 0xbf,
  0x17, 0xcf, 0xcf, 0x3d, 0xb4, 0x36, 0xbf, 0x3e, 0xee, 0xff, 0x4f, 0x3f,
  0x7b, 0x10, 0xe3, 0x3c, 0x24, 0xe3, 0xca, 0xbe, 0x99, 0xba, 0xf9, 0x3f,
  0xcf, 0x40, 0x93, 0x3f, 0xf0, 0x3e, 0x9f, 0xbf, 0x61, 0x3f, 0x20, 0xbf,
  0xc9, 0xb9, 0xb9, 0xbf, 0xa1, 0xa0, 0x07, 0xbf, 0x51, 0xf2, 0x92, 0x3f,
  0xdf, 0x98, 0xe1, 0x3e, 0x53, 0x33, 0x73, 0xbe, 0x03, 0xa4, 0x74, 0x3f,
  0x7b, 0xbc, 0x33, 0xbf, 0x28, 0x67, 0x87, 0x3f, 0x41, 0xa2, 0x36, 0x3f,
  0xe9, 0xc8, 0xb3, 0x3f, 0x79, 0x0f, 0x83, 0x3f, 0x21, 0x1e, 0x99, 0xbf,
  0x57, 0x28, 0x1e, 0x3f, 0x39, 0xb0, 0x2e, 0x3f, 0xc2, 0xbf, 0xaf, 0x3f,
  0x6d, 0x2c, 0x55, 0xbf, 0xd4, 0x8c, 0x5b, 0xbf, 0x38, 0x6c, 0xd9, 0xbe,
  0x70, 0x68, 0xf6, 0x3e, 0x59, 0x02, 0x7c, 0x3f, 0x5a, 0xfd, 0x48, 0x3f,
  0xae, 0xc8, 0x3a, 0x3f, 0xbe, 0xe2, 0x18, 0x3f, 0x06, 0xa4, 0x16, 0xbe,
  0xf7, 0x1c, 0x5b, 0x40, 0x67, 0xff, 0xfe, 0x3e, 0x0a, 0xab, 0x8b, 0xbf,
  0xff, 0xff, 0x13, 0xbf, 0x83, 0x10, 0x8e, 0xbf, 0xa0, 0xed, 0x76, 0xbd,
  0xa5, 0xe3, 0xa2, 0x3f, 0xbd, 0x2d, 0xaa, 0xbf, 0x0f, 0x24, 0x10, 0xc0,
  0x52, 0x48, 0x18, 0xbf, 0x4a, 0x99, 0x00, 0xbf, 0xc5, 0x4e, 0xaf, 0xbf,
  0xc5, 0xe4, 0x89, 0x3f, 0xdc, 0x0a, 0x71, 0xc0, 0x31, 0x31, 0xe2, 0xbf,
  0xb9, 0x0d, 0x44, 0x3f, 0x4a, 0x3c, 0x43, 0x40, 0xdb, 0x1c, 0xaf, 0x3d,
  0x90, 0x40, 0x68, 0x40, 0xeb, 0x49, 0xd6, 0xbf, 0xb9, 0xbb, 0x03, 0x40,
  0x6f, 0x3a, 0x0d, 0x3f, 0x53, 0xda, 0x11, 0xc0, 0xf7, 0x4d, 0xfb, 0x3f,
  0x56, 0xe7, 0xb6, 0xbe, 0x70, 0x80, 0xa0, 0xbf, 0xb9, 0x10, 0x73, 0xc0,
  0x23, 0xe9, 0x4e, 0xbf, 0x7c, 0x37, 0x79, 0x3f, 0xdb, 0x1a, 0x82, 0x40,
  0x4b, 0x06, 0x22, 0xbd, 0x39, 0x71, 0x43, 0xc0, 0x02, 0x7f, 0x88, 0x3f,
  0xca, 0xf4, 0xbd, 0x3f, 0x09, 0xac, 0xb9, 0x3f, 0xf2, 0xcf, 0x6f, 0x3f,
  0x83, 0x9a, 0x27, 0x3f, 0x91, 0x45, 0xfb, 0xbe, 0x56, 0x6f, 0x46, 0xc0,
  0x0b, 0x98, 0x03, 0xbd, 0xed, 0x42, 0x47, 0xbf, 0xee, 0x5c, 0xc5, 0x3f,
  0xd5, 0xc5, 0x31, 0x40, 0xca, 0xef, 0x0c, 0xc0, 0x83, 0xa4, 0x20, 0xc0,
  0x85, 0xd3, 0xa5, 0x40, 0x65, 0xcb, 0x8b, 0xbd, 0x43, 0xa3, 0xb4, 0xbf,
  0x02, 0x3f, 0x5d, 0xbf, 0xae, 0xa2, 0x86, 0x3e, 0x77, 0x9f, 0x4a, 0xbe,
  0xa2, 0x09, 0x8f, 0x3e, 0x1e, 0xf0, 0x88, 0xbd, 0x3e, 0xcc, 0xd3, 0x3e,
  0x94, 0x70, 0x90, 0x3f, 0xa9, 0x82, 0x0a, 0x40, 0xf0, 0x86, 0xff, 0xbe,
  0xed, 0x25, 0x37, 0x40, 0x0b, 0x07, 0x55, 0x40, 0x85, 0xa3, 0xcf, 0x3f,
  0xba, 0x9b, 0xa8, 0xbf, 0x6b, 0x0c, 0xa5, 0x3e, 0x8f, 0xe4, 0xfe, 0xbe,
  0x42, 0x4a, 0x9a, 0xbf, 0x01, 0x21, 0x33, 0x40, 0x6c, 0xf5, 0x1f, 0x3f,
  0x66, 0x53, 0xd4, 0xbb, 0xa7, 0x39, 0xb7, 0x3f, 0xa2, 0x23, 0x69, 0xbf,
  0x4e, 0x54, 0x72, 0xbd, 0x71, 0xc7, 0x5b, 0xbf, 0x72, 0x0c, 0x0d, 0x3f,
  0xe1, 0xb0, 0xda, 0xbe, 0x87, 0xdd, 0xfd, 0x3d, 0x50, 0xda, 0xd1, 0x3e,
  0xaa, 0x26, 0xd8, 0x3f, 0x2e, 0x14, 0x7f, 0xbf, 0xb0, 0x43, 0xa3, 0xbf,
  0x06, 0xe0, 0x92, 0xbf, 0x38, 0x51, 0x54, 0x3e, 0x39, 0x69, 0xfe, 0x3d,
  0xce, 0xbd, 0xb7, 0x3f, 0x0e, 0x52, 0xd0, 0x3f, 0xe1, 0x98, 0xb2, 0x3f,
  0x12, 0x1d, 0x14, 0x40, 0xcf, 0xba, 0x21, 0x3f, 0x0e, 0x4a, 0x3e, 0x3d,
  0x70, 0x62, 0xc0, 0x3e, 0xba, 0xc8, 0x5f, 0xc0, 0xa1, 0x9f, 0xb0, 0x3e,
  0xe5, 0x7b, 0xa5, 0x3f, 0xdd, 0xda, 0xe1, 0x3f, 0xb1, 0x5b, 0xaa, 0x3f,
  0xd7, 0x2b, 0x14, 0xc0, 0xab, 0x08, 0x1a, 0xc0, 0xa8, 0x7f, 0xb8, 0x3f,
  0xe1, 0xe8, 0xd1, 0x3b, 0x8b, 0xdd, 0x88, 0x3e, 0x45, 0x7a, 0xdd, 0x3f,
  0xdf, 0x48, 0x2a, 0xbe, 0x75, 0xf1, 0x45, 0x3e, 0x1a, 0x19, 0x70, 0x3f,
  0x8f, 0xbc, 0x02, 0xc0, 0xaa, 0xe6, 0x22, 0x40, 0xa9, 0x96, 0x9a, 0xbd,
  0x5b, 0x91, 0xad, 0x3f, 0x12, 0xd6, 0x85, 0xbe, 0x96, 0x37, 0xab, 0x3f,
  0x4c, 0x0b, 0x05, 0x40, 0x98, 0xf2, 0x8e, 0x3f, 0x0b, 0x5c, 0x4f, 0xbe,
  0xcb, 0x20, 0x5d, 0xbc, 0xc4, 0x78, 0xa9, 0x3f, 0xf2, 0x5f, 0x86, 0x3d,
  0x3c, 0x93, 0xec, 0xbe, 0x10, 0xdc, 0xd8, 0xbf, 0x54, 0x73, 0x4a, 0x3f,
  0x39, 0xd9, 0x12, 0x3f, 0x09, 0x60, 0xae, 0xbe, 0x65, 0x1c, 0x3b, 0x3f,
  0x81, 0x2c, 0x42, 0x3e, 0xb1, 0xaf, 0xb7, 0xbf, 0x98, 0x1a, 0xb2, 0xbf,
  0xa3, 0xb0, 0xe0, 0x3f, 0x42, 0x1b, 0x4b, 0x3f, 0x29, 0x57, 0x59, 0xbf,
  0x1d, 0x04, 0xd1, 0x3e, 0x96, 0xa6, 0xdd, 0x3e, 0xcd, 0xe0, 0xdf, 0xbe,
  0x03, 0x66, 0xc5, 0x3f, 0x5d, 0xdc, 0xb8, 0xbf, 0xdb, 0xa8, 0x93, 0x3f,
  0x75, 0xe4, 0x88, 0xbf, 0x57, 0x86, 0xc5, 0x3e, 0xf4, 0xc7, 0x38, 0xbf,
  0x03, 0xf2, 0x98, 0xbf, 0xba, 0x99, 0xfa, 0x3c, 0xc0, 0x21, 0xdd, 0x3e,
  0xca, 0x4d, 0x94, 0xbf, 0xa9, 0x92, 0xfe, 0xbe, 0xca, 0xce, 0x02, 0xbe,
  0x59, 0xed, 0xee, 0x3e, 0x06, 0x0f, 0xb5, 0x3f, 0x7c, 0x76, 0x54, 0x3e,
  0xa5, 0x3f, 0x77, 0xc0, 0x10, 0x01, 0x40, 0xbe, 0xf2, 0x7f, 0x24, 0x40,
  0xa3, 0x36, 0xb3, 0x3f, 0x55, 0xe4, 0xb9, 0xbc, 0x0b, 0xe9, 0x5f, 0xbf,
  0xff, 0xbc, 0x71, 0x3f, 0x3d, 0x32, 0x8a, 0x3e, 0x4f, 0xb4, 0x0a, 0x40,
  0x9d, 0x91, 0xa8, 0x3e, 0x9d, 0x40, 0x3d, 0x3d, 0x7f, 0xc7, 0x03, 0xbf,
  0x28, 0xa1, 0xfe, 0xbe, 0x6d, 0xb0, 0x1a, 0x3e, 0xd3, 0xd3, 0x4d, 0x40,
  0xfc, 0x9f, 0x16, 0x3f, 0xf4, 0xcb, 0x51, 0xc0, 0x64, 0x96, 0x48, 0x3f,
  0x7b, 0x85, 0x1b, 0xbf, 0x17, 0x44, 0x77, 0xbf, 0x1a, 0x3f, 0x42, 0xc0,
  0x29, 0x36, 0xbf, 0xbf, 0x32, 0xc4, 0x8f, 0xbf, 0x4c, 0x95, 0x81, 0xbd,
  0x7a, 0x83, 0x6b, 0x3e, 0x5a, 0x19, 0x77, 0x3e, 0xa1, 0x04, 0xa6, 0xbf,
  0x98, 0x7f, 0xa2, 0xbf, 0x42, 0x0a, 0xb4, 0x3f, 0xda, 0x0d, 0xb9, 0x3f,
  0x6b, 0x12, 0x97, 0xbf, 0xc3, 0x16, 0x1c, 0xbe, 0x48, 0xb7, 0xcd, 0x3f,
  0xda, 0xfb, 0x44, 0x3e, 0x3d, 0x8f, 0x38, 0x40, 0xbc, 0xd0, 0x98, 0x3e,
  0xdf, 0x2a, 0x33, 0x3f, 0xb1, 0x41, 0xae, 0xbf, 0x6d, 0x42, 0x3a, 0x40,
  0x94, 0x5c, 0x6a, 0xc0, 0x1b, 0xe5, 0x04, 0xc0, 0xb0, 0x86, 0x43, 0x40,
  0x7c, 0xf4, 0x45, 0xbd, 0xc2, 0x3c, 0xc9, 0x3f, 0xa7, 0xf5, 0xdc, 0x3f,
  0x47, 0x06, 0x89, 0x40, 0xa1, 0x6c, 0xb3, 0x3f, 0xd0, 0x0d, 0xfe, 0xbf,
  0xfd, 0x48, 0x35, 0xbf, 0x2b, 0x59, 0xfa, 0xbe, 0xef, 0xf8, 0x4a, 0x3f,
  0xf1, 0x86, 0x8f, 0xbe, 0xf2, 0x90, 0xc5, 0x3f, 0x87, 0xd0, 0xbc, 0x3f,
  0xf2, 0xe3, 0x49, 0x40, 0xe9, 0x48, 0x79, 0xc0, 0x4d, 0x4b, 0x30, 0xbf,
  0x28, 0xb1, 0xd9, 0xbf, 0x27, 0x52, 0x11, 0x40, 0x57, 0x73, 0x03, 0xc0,
  0x90, 0x0f, 0xdc, 0xbf, 0xc5, 0x0c, 0x33, 0x3d, 0x43, 0xb0, 0xac, 0x40,
  0xf5, 0x7a, 0x18, 0xbf, 0x96, 0x0d, 0x61, 0xc0, 0xae, 0x5c, 0xd7, 0xbf,
  0xa9, 0x8c, 0xc6, 0x3e, 0x8f, 0xcd, 0x00, 0xbe, 0x68, 0x82, 0x4f, 0xc0,
  0x3a, 0xd8, 0x18, 0x3f, 0x55, 0x40, 0xf0, 0x3e, 0x86, 0x5a, 0xa3, 0xbe,
  0x29, 0xd9, 0x8e, 0x40, 0xbf, 0xf1, 0x91, 0x40, 0x78, 0x8b, 0x38, 0x3f,
  0x39, 0x7a, 0xcb, 0xbf, 0x48, 0xe2, 0x0a, 0xc0, 0x5d, 0x01, 0x21, 0x3f,
  0xbf, 0xc0, 0x59, 0x40, 0xb4, 0x2f, 0xe4, 0xbe, 0x5c, 0x1c, 0xae, 0xbf,
  0x67, 0x5d, 0xc9, 0xbd, 0x44, 0x10, 0x1b, 0x40, 0xd0, 0xa8, 0x25, 0x3f,
  0x65, 0x4d, 0x83, 0xbf, 0x48, 0xfe, 0xaa, 0xbf, 0xb1, 0x15, 0xde, 0xbe,
  0xe7, 0xcb, 0x84, 0x3f, 0x88, 0x7f, 0x24, 0x40, 0x7b, 0x49, 0x16, 0x40,
  0x90, 0x9a, 0x92, 0x3f, 0xc7, 0x19, 0xd9, 0xbe, 0x5a, 0x98, 0x91, 0xbf,
  0x09, 0x3a, 0x1b, 0x40, 0xfa, 0xb5, 0x8b, 0xbf, 0xd3, 0x6c, 0xc8, 0xbe,
  0x3e, 0x86, 0x68, 0xbf, 0xdd, 0x1c, 0x10, 0xbd, 0x4c, 0x07, 0x7c, 0xbe,
  0xf1, 0xc5, 0x03, 0xc0, 0xfb, 0xa3, 0x8a, 0x40, 0x09, 0x63, 0xb6, 0x3f,
  0x11, 0xf1, 0xce, 0x40, 0x45, 0x28, 0xc3, 0xc0, 0x47, 0x6e, 0x34, 0xbf,
  0x23, 0xcd, 0x42, 0xbf, 0x03, 0x15, 0x41, 0x40, 0x3d, 0x56, 0xe9, 0x3f,
  0x4c, 0x1f, 0x5e, 0x3f, 0xf6, 0x82, 0x3c, 0xc0, 0xba, 0xbf, 0xe1, 0xbf,
  0xab, 0xa9, 0x75, 0x3f, 0x23, 0xd4, 0x4f, 0x40, 0x17, 0x91, 0xd1, 0x3d,
  0xf6, 0x01, 0xec, 0xbf, 0x2c, 0x71, 0xfc, 0x3f, 0xc5, 0x05, 0x06, 0x40,
  0x80, 0xb0, 0x4e, 0x3f, 0xa0, 0x99, 0xba, 0xbe, 0x02, 0x28, 0xc3, 0x3d,
  0x20, 0x84, 0xb5, 0xbe, 0xc1, 0xa6, 0x14, 0xc0, 0xa4, 0x1a, 0x6e, 0xbe,
  0xd9, 0x5a, 0x95, 0x3e, 0x3e, 0xf3, 0x49, 0x3f, 0x00, 0x39, 0x9e, 0x3e,
  0x49, 0xa1, 0x33, 0x40, 0xfd, 0x0a, 0x4e, 0xbe, 0x36, 0x5b, 0x6b, 0xc0,
  0x37, 0x26, 0x87, 0xbf, 0xb8, 0x94, 0x4e, 0x3f, 0xab, 0xaf, 0x9b, 0xbf,
  0xde, 0x30, 0xef, 0xbe, 0x5f, 0x36, 0xae, 0x3c, 0xc7, 0xc9, 0x6c, 0xbf,
  0x26, 0xfb, 0xb6, 0x3f, 0x27, 0xdd, 0x7d, 0x40, 0xb1, 0x10, 0x4e, 0xbf,
  0x31, 0xc3, 0xce, 0xbf, 0x91, 0x0c, 0x10, 0x3f, 0x05, 0x80, 0x9f, 0x3f,
  0x19, 0x39, 0x67, 0xc0, 0xa1, 0x83, 0x20, 0xc0, 0x02, 0xa3, 0xc3, 0x3f,
  0x36, 0x78, 0xf4, 0x3e, 0xb0, 0x5a, 0xc0, 0x3f, 0x5a, 0x0e, 0xb1, 0x3f,
  0x85, 0x67, 0x9b, 0xbf, 0x2e, 0x11, 0x3b, 0x40, 0x4b, 0xa9, 0xbb, 0x3d,
  0xf0, 0x2c, 0x3c, 0xc0, 0xc9, 0x67, 0x44, 0x40, 0xfc, 0x25, 0xa1, 0xbf,
  0x57, 0xd8, 0xc4, 0xbf, 0x16, 0xa0, 0x82, 0xc0, 0xed, 0x27, 0x7a, 0x40,
  0xf6, 0xed, 0xff, 0xff, 0x04, 0x00, 0x00, 0x00, 0x20, 0x00, 0x00, 0x00,
  0xa4, 0x48, 0x54, 0xbc, 0xba, 0xdc, 0xc3, 0x3c, 0xc9, 0x91, 0x2a, 0x3d,
  0x57, 0xb2, 0x18, 0x3d, 0x35, 0x23, 0xca, 0x3c, 0xa5, 0x70, 0x58, 0xbc,
  0xae, 0xd9, 0x09, 0x3b, 0x65, 0xd2, 0xe2, 0xbc, 0x22, 0xee, 0xff, 0xff,
  0x04, 0x00, 0x00, 0x00, 0x00, 0x04, 0x00, 0x00, 0xc9, 0x8b, 0x39, 0x3d,
  0x2b, 0x72, 0xa2, 0xc0, 0xdc, 0xd6, 0x26, 0x3f, 0xa0, 0x60, 0x2e, 0x40,
  0x8d, 0xff, 0x44, 0x40, 0x4a, 0x6b, 0x68, 0x3f, 0xaa, 0xab, 0x43, 0xbf,
  0xdb, 0x1e, 0x1b, 0xc0, 0x3d, 0x4c, 0x6a, 0x3e, 0xd9, 0xa1, 0xb7, 0xbe,
  0xad, 0x5d, 0x5e, 0x40, 0xe1, 0xcd, 0x83, 0xc0, 0x9a, 0x50, 0x09, 0xc0,
  0xc2, 0xf7, 0x92, 0xbf, 0x50, 0x82, 0x0e, 0x40, 0x55, 0x0e, 0x79, 0x40,
  0x5b, 0x45, 0x2f, 0xbf, 0xb5, 0x6b, 0xa0, 0x3f, 0xb7, 0x07, 0x8c, 0xc0,
  0x5e, 0x02, 0x3a, 0xbf, 0x64, 0x32, 0x8e, 0xc0, 0x47, 0x46, 0x11, 0xc0,
  0x7a, 0x14, 0x1a, 0xc0, 0xb9, 0xf5, 0x49, 0xc0, 0x61, 0x77, 0xff, 0xbf,
  0x31, 0xe9, 0xaa, 0xbf, 0xe1, 0x6c, 0xf9, 0xbf, 0x26, 0xfe, 0x78, 0x3f,
  0x0d, 0x2a, 0x60, 0x40, 0x7b, 0x66, 0xa9, 0xbf, 0xff, 0xe0, 0x83, 0xbf,
  0xf3, 0x43, 0x31, 0x40, 0x00, 0xf1, 0x84, 0xc0, 0x6c, 0x01, 0xbc, 0x3f,
  0x96, 0xe1, 0xfc, 0x3f, 0xe5, 0x74, 0x90, 0xbf, 0x7e, 0x7d, 0x89, 0x3f,
  0x83, 0x66, 0x56, 0xbf, 0xd9, 0x06, 0x66, 0x3f, 0x27, 0x20, 0x98, 0xbf,
  0x31, 0xf5, 0x81, 0x40, 0x82, 0xe8, 0xa5, 0x3f, 0x9a, 0x57, 0x8e, 0x40,
  0xeb, 0xa9, 0x71, 0xbf, 0xb1, 0x62, 0x7a, 0xc0, 0xb7, 0xde, 0xcf, 0x3f,
  0xf1, 0x89, 0x98, 0x40, 0x0e, 0x7e, 0x5a, 0x3e, 0x3b, 0x3d, 0x04, 0x40,
  0x52, 0x5a, 0x7d, 0xbf, 0x29, 0x0e, 0x80, 0x3f, 0xd3, 0xe0, 0x09, 0x40,
  0x72, 0x70, 0x09, 0x40, 0x8a, 0x44, 0x02, 0x40, 0x0b, 0xc3, 0x58, 0xbf,
  0x4b, 0x74, 0xc3, 0x3f, 0xcd, 0x62, 0xfa, 0x3f, 0x96, 0x8b, 0x54, 0x40,
  0x4b, 0x2f, 0x95, 0x40, 0xfa, 0x87, 0x87, 0xc0, 0xa6, 0x8e, 0x18, 0xc0,
  0x28, 0xb8, 0xce, 0xbe, 0x34, 0x65, 0x8c, 0x40, 0x15, 0xa7, 0x47, 0x40,
  0xe9, 0x70, 0xa0, 0xc0, 0x5b, 0xa6, 0x83, 0x40, 0xf3, 0x43, 0x26, 0x40,
  0x21, 0x90, 0x5b, 0xc0, 0xab, 0x54, 0x76, 0xbe, 0x95, 0x96, 0x6c, 0x3f,
  0x89, 0xf7, 0x6d, 0x40, 0x01, 0xfc, 0xba, 0x3f, 0x72, 0x48, 0x74, 0x40,
  0x27, 0x71, 0x08, 0x40, 0x8f, 0xa1, 0xc9, 0xbe, 0x92, 0x43, 0x46, 0x40,
  0x35, 0x36, 0xa3, 0xbf, 0xf4, 0x4f, 0x5f, 0x40, 0x72, 0x70, 0xb1, 0x3f,
  0x4b, 0x5c, 0x57, 0xc0, 0x27, 0xb2, 0xdd, 0xbc, 0xfd, 0xb5, 0xd0, 0x3f,
  0x6d, 0x8f, 0x89, 0xc0, 0x2f, 0x2a, 0xc1, 0xbe, 0x09, 0xad, 0x7f, 0xc0,
  0xac, 0x2f, 0xc6, 0x3d, 0x6c, 0x10, 0xd5, 0xbf, 0x7a, 0xc0, 0x0f, 0x3c,
  0xe2, 0xa2, 0xf6, 0xbf, 0xfc, 0x52, 0xb6, 0xbe, 0x4c, 0xc1, 0x21, 0xc0,
  0x77, 0x7d, 0x0e, 0xbe, 0x83, 0x4a, 0x44, 0x40, 0x82, 0x10, 0x92, 0xbf,
  0x37, 0x4d, 0x6e, 0xbf, 0x4a, 0x0f, 0x64, 0x40, 0x75, 0x2e, 0xba, 0x3f,
  0x79, 0xe1, 0xd9, 0xbe, 0x72, 0x7c, 0x8c, 0xc0, 0x29, 0x69, 0xf6, 0xbe,
  0x47, 0xfc, 0xb0, 0xc0, 0xb4, 0x49, 0x45, 0xc0, 0x20, 0x88, 0x56, 0xc0,
  0xc7, 0x30, 0x98, 0x3e, 0x5a, 0x3f, 0x22, 0xc0, 0x8c, 0xb6, 0x5e, 0xbf,
  0xe4, 0xed, 0x03, 0xc0, 0xce, 0xa7, 0xd8, 0x3f, 0x20, 0xc4, 0xef, 0x3f,
  0x1d, 0xbe, 0x94, 0xbf, 0x9a, 0x7f, 0xe6, 0xbf, 0xd2, 0xd1, 0x57, 0x40,
  0x7f, 0x35, 0x0d, 0x40, 0x2b, 0xb9, 0x91, 0xc0, 0x96, 0xe1, 0x80, 0x3f,
  0xd6, 0xaa, 0xcf, 0x3f, 0x20, 0xb1, 0x1b, 0x40, 0x22, 0x6d, 0xaf, 0x3f,
  0xc6, 0x1c, 0xf1, 0xbf, 0x38, 0x37, 0x08, 0x40, 0x7b, 0x65, 0x0a, 0x3e,
  0x82, 0xb6, 0x2f, 0x3e, 0xf5, 0x52, 0x93, 0x40, 0x70, 0x63, 0x93, 0xc0,
  0x25, 0xde, 0x3a, 0xbf, 0x95, 0xd2, 0x5e, 0xbf, 0x79, 0xab, 0x2c, 0x40,
  0x00, 0x53, 0xde, 0x3f, 0x0c, 0x25, 0x8e, 0x3e, 0x12, 0xfb, 0xbb, 0xc0,
  0x86, 0x67, 0x6d, 0x3f, 0xdf, 0xd4, 0x38, 0x40, 0x91, 0x9c, 0x6d, 0x40,
  0xdf, 0xd1, 0xce, 0xbf, 0x2f, 0x68, 0xbd, 0xbf, 0x33, 0x63, 0x0d, 0xbf,
  0x88, 0xcf, 0x27, 0xbe, 0x99, 0xf0, 0xb6, 0x3e, 0x71, 0xcd, 0x41, 0x40,
  0x9a, 0x62, 0x79, 0xc0, 0x0f, 0x16, 0x6f, 0xbf, 0x46, 0x71, 0x8f, 0xbf,
  0xe4, 0xc2, 0x11, 0x40, 0x10, 0xc9, 0x32, 0x40, 0xa7, 0x16, 0x1d, 0xbf,
  0xf6, 0xd1, 0xb3, 0x3f, 0xe7, 0x36, 0x8f, 0xc0, 0xce, 0x68, 0x65, 0xbf,
  0xc8, 0x9f, 0x31, 0xc0, 0xd6, 0x8a, 0x0f, 0xbf, 0xe3, 0x62, 0x43, 0xc0,
  0x73, 0xb2, 0x22, 0x40, 0x8a, 0x7e, 0xd6, 0xbf, 0xa3, 0x10, 0x33, 0xc0,
  0xc3, 0xc5, 0xce, 0xbf, 0x92, 0xd8, 0x8c, 0x3e, 0xa1, 0xcb, 0x68, 0x40,
  0xec, 0x68, 0xd6, 0xbf, 0x06, 0x8f, 0xa4, 0xbf, 0xfc, 0x7b, 0xdc, 0xbe,
  0x7e, 0x98, 0x33, 0x40, 0x3d, 0xee, 0x88, 0xc0, 0x31, 0x03, 0x51, 0xbf,
  0x84, 0x62, 0x51, 0x40, 0x76, 0xd0, 0xe7, 0x3f, 0x00, 0x69, 0x95, 0xbf,
  0xf6, 0x29, 0x25, 0xc0, 0xb6, 0x35, 0xb1, 0xbf, 0x74, 0xc0, 0x9b, 0x3e,
  0x17, 0xee, 0x0b, 0x3d, 0xf5, 0x46, 0x60, 0x40, 0xe7, 0xd8, 0x96, 0xc0,
  0x41, 0x12, 0xb1, 0xbf, 0xe8, 0x43, 0xb0, 0xbf, 0x6c, 0x4e, 0x08, 0x40,
  0x07, 0x16, 0x90, 0x40, 0xc8, 0x01, 0xfd, 0x3e, 0x24, 0x37, 0xfe, 0x3f,
  0x62, 0x39, 0x83, 0xc0, 0xf9, 0xcb, 0xa4, 0xbf, 0x1b, 0x2a, 0x79, 0xc0,
  0x60, 0xc1, 0xcf, 0x3e, 0x54, 0x65, 0x5e, 0xc0, 0x7b, 0x34, 0x32, 0xbf,
  0xba, 0x33, 0x09, 0xc0, 0x55, 0xd5, 0x06, 0xc0, 0x44, 0x86, 0xb3, 0xbf,
  0xec, 0xa5, 0x6a, 0x3f, 0x4e, 0x47, 0x79, 0x40, 0x82, 0x4a, 0xac, 0xbf,
  0x06, 0x30, 0x7d, 0xbf, 0x8c, 0xcc, 0xa2, 0x3e, 0x38, 0xce, 0x35, 0x40,
  0xc2, 0x63, 0xa4, 0x3f, 0xac, 0x75, 0x8d, 0xc0, 0xff, 0x8e, 0xaa, 0x3e,
  0xd0, 0xf5, 0xaa, 0xc0, 0x6d, 0xc4, 0x00, 0xc0, 0x5d, 0x16, 0x60, 0xc0,
  0x0c, 0xd8, 0x7c, 0x40, 0xa3, 0xe5, 0x97, 0xbf, 0x8c, 0xb9, 0x5d, 0xc0,
  0x17, 0x55, 0x12, 0xc0, 0xb1, 0x5d, 0xcb, 0xbd, 0x08, 0x52, 0x22, 0x40,
  0x90, 0x4f, 0xa8, 0xbf, 0x8d, 0x05, 0xd6, 0xbf, 0xb1, 0x65, 0x16, 0x3f,
  0x7f, 0x03, 0xc7, 0xc0, 0xc1, 0xb0, 0x7a, 0x40, 0x38, 0x46, 0x20, 0x40,
  0x4d, 0xab, 0x46, 0xc0, 0x14, 0x8c, 0x72, 0x3f, 0x3d, 0xe7, 0x98, 0x40,
  0x3c, 0x26, 0x90, 0x40, 0x3e, 0x7e, 0xdd, 0xbf, 0x99, 0xf3, 0x67, 0x40,
  0x0d, 0x68, 0x33, 0x40, 0x05, 0x59, 0x7b, 0xbf, 0x2f, 0x54, 0x33, 0x40,
  0x28, 0x4d, 0x35, 0xc0, 0xbd, 0xf3, 0x41, 0x40, 0x98, 0x69, 0xa7, 0x3f,
  0x5e, 0x96, 0xfa, 0xbf, 0x53, 0x6b, 0xca, 0x3f, 0xe3, 0xa0, 0xa0, 0xc0,
  0x0f, 0xe9, 0x58, 0x3f, 0x7e, 0x07, 0x61, 0x40, 0xc5, 0xc0, 0x39, 0x40,
  0xd7, 0xf4, 0x34, 0x3d, 0x87, 0xab, 0xd7, 0xbf, 0x39, 0xad, 0x6c, 0x40,
  0xf2, 0x88, 0x84, 0x3e, 0x83, 0xc2, 0x77, 0x3f, 0x5c, 0x67, 0x3e, 0x40,
  0xcb, 0x72, 0x90, 0xc0, 0xb0, 0xec, 0x94, 0xbf, 0x95, 0x58, 0x6a, 0xbf,
  0x95, 0xe7, 0x1f, 0x40, 0x8f, 0x1e, 0x6c, 0x40, 0x9a, 0x77, 0x39, 0xc0,
  0x15, 0x0e, 0x82, 0x40, 0x0b, 0x91, 0x1e, 0x40, 0x5d, 0xcd, 0x3a, 0xc0,
  0x6d, 0xc0, 0x1c, 0x3f, 0xac, 0xfb, 0x81, 0x40, 0x50, 0x62, 0x3f, 0x40,
  0x40, 0xd2, 0x21, 0x40, 0xc8, 0xfa, 0x19, 0x40, 0xa5, 0x0b, 0xe9, 0x3e,
  0x8a, 0x54, 0x79, 0x3d, 0x22, 0xd6, 0x41, 0x40, 0xe8, 0xff, 0xe8, 0xbf,
  0x9e, 0x99, 0xab, 0x40, 0x35, 0x91, 0x91, 0x3f, 0x14, 0xc4, 0xc3, 0xbf,
  0x2e, 0xf2, 0xff, 0xff, 0x04, 0x00, 0x00, 0x00, 0x00, 0x04, 0x00, 0x00,
  0x99, 0xa3, 0xf6, 0xbc, 0x32, 0x29, 0x2c, 0xbd, 0xe4, 0x36, 0xbf, 0xbd,
  0x3b, 0xf1, 0x36, 0x3d, 0x1b, 0x4f, 0xfb, 0xbc, 0x1d, 0x83, 0x7c, 0xbb,
  0xcb, 0x68, 0x2b, 0x3d, 0x44, 0x00, 0x2c, 0xbd, 0x75, 0x2d, 0x95, 0x3d,
  0x0b, 0x02, 0xc1, 0xbc, 0x4a, 0xe2, 0xf7, 0x3d, 0x68, 0x36, 0xf4, 0xbd,
  0x8f, 0x67, 0x97, 0x3d, 0xa0, 0x0c, 0x83, 0x3d, 0x3f, 0xca, 0x05, 0xbe,
  0x6c, 0xaa, 0x6c, 0xbd, 0xc3, 0xe6, 0x95, 0xbc, 0x60, 0x50, 0xbe, 0xbc,
  0x86, 0x5b, 0x53, 0xbd, 0x80, 0xf1, 0x6e, 0x3d, 0xde, 0x9e, 0xff, 0xbc,
  0x57, 0xbe, 0x0d, 0xbd, 0x84, 0xff, 0xac, 0x3d, 0x22, 0x57, 0x44, 0x3b,
  0xc2, 0x8c, 0x6b, 0x3d, 0xff, 0x5e, 0x1c, 0xbc, 0xc6, 0xcc, 0xf1, 0x3d,
  0xf1, 0x04, 0xe6, 0xbd, 0xa7, 0x06, 0x6c, 0x3d, 0x25, 0x1f, 0xb7, 0x3d,
  0x61, 0x6c, 0xc1, 0xbd, 0x07, 0x47, 0x3a, 0xbd, 0x6f, 0xf4, 0x61, 0xbc,
  0xbe, 0xaa, 0xcb, 0xbc, 0x79, 0x8a, 0x13, 0xbd, 0x15, 0x66, 0x78, 0x3d,
  0xc2, 0x3e, 0xe0, 0xbc, 0x2d, 0x12, 0xd2, 0xbc, 0x09, 0x28, 0x17, 0x3e,
  0x1d, 0xac, 0x25, 0x3d, 0x23, 0x0e, 0x16, 0x3d, 0xb7, 0x27, 0x6c, 0xbb,
  0xe4, 0x49, 0x8c, 0x3d, 0xf9, 0x05, 0xe3, 0xbd, 0x54, 0xcb, 0x4a, 0x3d,
  0x8e, 0xe0, 0xe8, 0x3d, 0xae, 0xfc, 0x87, 0xbd, 0x45, 0xed, 0x3b, 0xbd,
  0x6f, 0x97, 0x9e, 0xbc, 0x2f, 0xf5, 0x14, 0xbd, 0x34, 0x8e, 0x4c, 0xbd,
  0x5c, 0xa0, 0x92, 0x3d, 0x8b, 0xb0, 0x39, 0xbd, 0xa0, 0x89, 0xb5, 0xbc,
  0x19, 0x99, 0x3b, 0x3e, 0xf3, 0x4d, 0xeb, 0x3c, 0xfa, 0xa0, 0x30, 0x3d,
  0x87, 0xfb, 0x9f, 0x39, 0x62, 0xc2, 0xf3, 0x3d, 0x39, 0x41, 0xda, 0xbd,
  0xca, 0xc8, 0x7a, 0x3d, 0x8a, 0x61, 0xfe, 0x3d, 0x11, 0x41, 0x90, 0xbd,
  0x06, 0xa2, 0x7d, 0xbd, 0x1a, 0x87, 0x8c, 0xbc, 0x3b, 0x66, 0x7e, 0xbd,
  0xa4, 0x9e, 0x91, 0xbd, 0x1a, 0xc6, 0x87, 0x3d, 0x08, 0x46, 0x16, 0xbd,
  0xa6, 0x64, 0x54, 0xbc, 0x0c, 0xc4, 0x3f, 0x3e, 0xdd, 0xd5, 0x95, 0x3b,
  0x2e, 0x78, 0x5e, 0x3d, 0x87, 0x08, 0x0b, 0xbc, 0x40, 0x4b, 0x09, 0x3e,
  0xd3, 0xf2, 0xc0, 0xbd, 0x19, 0x4b, 0xa5, 0x3d, 0xc7, 0xf3, 0xf0, 0x3d,
  0x52, 0xb4, 0xbd, 0xbd, 0xf4, 0x0b, 0x95, 0xbd, 0x37, 0x8c, 0x03, 0xbd,
  0xc2, 0x55, 0x97, 0xbd, 0xe7, 0x75, 0xf9, 0xbd, 0xbd, 0x59, 0x8e, 0x3d,
  0xfc, 0x05, 0x85, 0xbd, 0x8a, 0x4f, 0xa9, 0xbc, 0x57, 0xf3, 0x3a, 0x3e,
  0x48, 0xf2, 0xce, 0xbb, 0x13, 0x42, 0x98, 0x3d, 0xf4, 0x3a, 0x06, 0xbc,
  0x8a, 0x03, 0xe1, 0x3d, 0x81, 0xbd, 0xcb, 0xbd, 0x92, 0x0f, 0x0d, 0x3e,
  0xce, 0xcc, 0xd9, 0x3d, 0x65, 0xf0, 0xb3, 0xbd, 0x1b, 0x1d, 0x91, 0xbd,
  0x56, 0x84, 0x29, 0xbd, 0x64, 0x22, 0xcb, 0xbd, 0x50, 0x3d, 0x1e, 0xbe,
  0xdf, 0x7f, 0x8f, 0x3d, 0x05, 0x13, 0xaa, 0xbd, 0x26, 0x82, 0xb1, 0xbc,
  0xaa, 0x34, 0x3c, 0x3e, 0x9e, 0x73, 0x75, 0xbd, 0xd6, 0x20, 0xb3, 0x3d,
  0x7b, 0xad, 0x83, 0xbc, 0xfa, 0x9d, 0xc6, 0x3d, 0xd0, 0x82, 0xe4, 0xbd,
  0xff, 0xc5, 0x03, 0x3e, 0xb3, 0x39, 0xe4, 0x3d, 0xb8, 0x14, 0x55, 0xbd,
  0xff, 0x6b, 0x8e, 0xbd, 0x06, 0x02, 0x3a, 0xbd, 0x0f, 0x5e, 0xf8, 0xbd,
  0x86, 0x8e, 0x2d, 0xbe, 0xd5, 0x4a, 0x96, 0x3d, 0x34, 0xf9, 0xe9, 0xbd,
  0x30, 0x87, 0x34, 0xbc, 0x73, 0xf7, 0x35, 0x3e, 0x5a, 0xf8, 0x9f, 0x3a,
  0x2c, 0xea, 0xc4, 0x3d, 0xa4, 0x19, 0x6f, 0xbc, 0x7c, 0xed, 0xe5, 0x3d,
  0x23, 0xa5, 0x03, 0xbe, 0xda, 0x89, 0x07, 0x3e, 0xc0, 0x1a, 0xe0, 0x3d,
  0xcd, 0x35, 0x83, 0xbc, 0x0b, 0x91, 0x8c, 0xbd, 0x8f, 0x1e, 0x43, 0xbd,
  0x19, 0x6b, 0x16, 0xbe, 0x7e, 0xa8, 0x3f, 0xbe, 0xc7, 0xcd, 0xa0, 0x3d,
  0xa2, 0xcd, 0x2f, 0xbe, 0xe8, 0xd9, 0x9d, 0xbc, 0x57, 0xf1, 0x25, 0x3e,
  0xb4, 0xee, 0x00, 0xba, 0xf4, 0x7a, 0xb5, 0x3d, 0x44, 0x17, 0x24, 0xbc,
  0xbd, 0xec, 0x20, 0x3e, 0xe9, 0x71, 0x24, 0xbe, 0xe1, 0xb3, 0xe5, 0x3d,
  0x16, 0x4c, 0xdc, 0x3d, 0xb4, 0x50, 0x15, 0x3c, 0xfa, 0xc0, 0x8a, 0xbd,
  0x94, 0x0f, 0x1b, 0xbd, 0xf2, 0xef, 0x2b, 0xbe, 0x50, 0x90, 0x56, 0xbe,
  0x4a, 0x98, 0xbc, 0x3d, 0x08, 0x52, 0x4e, 0xbe, 0xf2, 0x4f, 0x83, 0x3c,
  0xc8, 0xd8, 0x23, 0x3e, 0x90, 0x3b, 0xe3, 0x3c, 0x7a, 0x18, 0x95, 0x3d,
  0xee, 0xf3, 0x13, 0xbc, 0xc0, 0x1b, 0x20, 0x3e, 0xa4, 0xf1, 0x41, 0xbe,
  0x18, 0xe2, 0xd2, 0x3d, 0xe4, 0xd3, 0x9a, 0x3d, 0x2d, 0x52, 0x8e, 0x3d,
  0xd7, 0xb0, 0x88, 0xbd, 0x48, 0x61, 0x42, 0xbd, 0xcf, 0xf5, 0x35, 0xbe,
  0xf2, 0x5b, 0x65, 0xbe, 0x0c, 0xec, 0xaf, 0x3d, 0xd5, 0xd5, 0x6e, 0xbe,
  0x8b, 0x26, 0xfa, 0x3c, 0x11, 0x6a, 0x25, 0x3e, 0xf1, 0xf8, 0x74, 0xbd,
  0x5e, 0xef, 0x90, 0x3d, 0x4d, 0xef, 0x6e, 0x3b, 0xaa, 0xf9, 0x34, 0x3e,
  0xa0, 0x36, 0x5d, 0xbe, 0x61, 0xf1, 0xee, 0x3d, 0x17, 0x4b, 0xa0, 0x3d,
  0x8e, 0xf8, 0x0b, 0x3e, 0xb8, 0xa6, 0xa7, 0xbd, 0xe7, 0xf3, 0x85, 0xbd,
  0x44, 0x5d, 0x46, 0xbe, 0x43, 0xf3, 0x88, 0xbe, 0xac, 0x59, 0xbc, 0x3d,
  0x21, 0x95, 0x86, 0xbe, 0x08, 0x69, 0xf4, 0x3c, 0xa3, 0x09, 0x17, 0x3e,
  0xaa, 0xb6, 0xaa, 0xbd, 0x42, 0x06, 0x9a, 0x3d, 0xaa, 0xcf, 0x81, 0x3c,
  0x9a, 0x90, 0x23, 0x3e, 0xd3, 0xe3, 0x73, 0xbe, 0xac, 0x28, 0xad, 0x3d,
  0x91, 0x58, 0x99, 0x3d, 0x01, 0x18, 0x1d, 0x3e, 0x64, 0xe9, 0xa5, 0xbd,
  0x06, 0xff, 0x95, 0xbd, 0x11, 0x0d, 0x48, 0xbe, 0xf6, 0x71, 0x86, 0xbe,
  0x7e, 0x5c, 0xd4, 0x3d, 0x22, 0x5a, 0x93, 0xbe, 0x5f, 0x9b, 0x52, 0x3d,
  0x31, 0x53, 0xf4, 0x3d, 0xd8, 0x7f, 0x09, 0x3d, 0xe4, 0xe8, 0xa8, 0x3d,
  0x4d, 0x34, 0x1f, 0x3d, 0x18, 0x6a, 0x37, 0x3e, 0x42, 0x7e, 0x74, 0xbe,
  0x81, 0xd9, 0xdd, 0x3d, 0x15, 0x8d, 0xa7, 0x3d, 0xd8, 0x7d, 0x41, 0x3e,
  0xbf, 0x2b, 0xb9, 0xbd, 0xdb, 0x93, 0x47, 0xbd, 0x1f, 0x5f, 0x48, 0xbe,
  0xc3, 0x3d, 0x6f, 0xbe, 0xd6, 0x22, 0xb3, 0x3d, 0x48, 0xb1, 0x8e, 0xbe,
  0x4f, 0xce, 0x8c, 0x3d, 0x57, 0xb3, 0xc2, 0x3d, 0x63, 0x0f, 0x2b, 0x3d,
  0x6e, 0xce, 0xb2, 0x3d, 0x9e, 0xd0, 0x16, 0x3d, 0x1c, 0x33, 0x20, 0x3e,
  0x94, 0x2a, 0x38, 0xbe, 0x02, 0x9f, 0xa8, 0x3d, 0x4c, 0x86, 0x94, 0x3d,
  0xbf, 0x9b, 0x26, 0x3e, 0x72, 0x7a, 0xeb, 0xbd, 0x9b, 0x0e, 0xff, 0xbc,
  0x84, 0x3d, 0x39, 0xbe, 0x01, 0x68, 0x43, 0xbe, 0x29, 0xa9, 0xa6, 0x3d,
  0x52, 0xd8, 0x83, 0xbe, 0xec, 0xf0, 0x88, 0x3d, 0x6f, 0xa2, 0xbd, 0x3d,
  0x10, 0x98, 0x19, 0xbd, 0xe8, 0x41, 0xab, 0x3d, 0xc1, 0xda, 0x82, 0x3d,
  0x7c, 0xbd, 0x1b, 0x3e, 0x26, 0x0e, 0xd9, 0xbd, 0xf4, 0xcf, 0x87, 0x3d,
  0x5d, 0xa8, 0xba, 0x3d, 0x14, 0xa2, 0x17, 0x3e, 0x28, 0x33, 0x01, 0xbe,
  0xa3, 0x7c, 0x2c, 0xbd, 0x52, 0xd9, 0x50, 0xbe, 0x41, 0x4a, 0x75, 0xbe,
  0xe1, 0x51, 0xc2, 0x3d, 0xbf, 0x4a, 0x5f, 0xbe, 0x78, 0x60, 0x84, 0x3d,
  0x0d, 0xb3, 0x75, 0x3d, 0x9b, 0x39, 0x6c, 0xbc, 0xf1, 0xb2, 0xa4, 0x3d,
  0x59, 0xd5, 0xa7, 0x3d, 0xac, 0xc8, 0xf9, 0x3d, 0x94, 0x37, 0xe0, 0xbc,
  0x0b, 0xed, 0x12, 0x3e, 0xcd, 0x26, 0x24, 0x3e, 0xda, 0x6e, 0x1f, 0x3e,
  0x5a, 0x15, 0x17, 0xbe, 0x3a, 0xf6, 0xff, 0xff, 0x04, 0x00, 0x00, 0x00,
  0x40, 0x00, 0x00, 0x00, 0x00, 0x00, 0x00, 0x00, 0x00, 0x00, 0x00, 0x00,
  0x00, 0x00, 0x00, 0x00, 0x00, 0x00, 0x00, 0x00, 0x00, 0x00, 0x00, 0x00,
  0x00, 0x00, 0x00, 0x00, 0x00, 0x00, 0x00, 0x00, 0x00, 0x00, 0x00, 0x00,
  0x00, 0x00, 0x00, 0x00, 0x00, 0x00, 0x00, 0x00, 0x00, 0x00, 0x00, 0x00,
  0x00, 0x00, 0x00, 0x00, 0x00, 0x00, 0x00, 0x00, 0x00, 0x00, 0x00, 0x00,
  0x00, 0x00, 0x00, 0x00, 0x00, 0x00, 0x00, 0x00, 0x86, 0xf6, 0xff, 0xff,
  0x04, 0x00, 0x00, 0x00, 0x00, 0x04, 0x00, 0x00, 0xba, 0xee, 0x60, 0x3e,
  0x78, 0x60, 0x9e, 0xbe, 0xd9, 0xf3, 0x1b, 0x3f, 0x1c, 0x70, 0x9e, 0xc0,
  0x33, 0xa5, 0xc1, 0xbe, 0x6d, 0x5d, 0x52, 0xbf, 0xdb, 0xc3, 0xde, 0x3f,
  0x0b, 0xa9, 0x9c, 0xbd, 0xfb, 0x7d, 0x44, 0x3f, 0x31, 0xb3, 0xb1, 0x3f,
  0x4e, 0x2c, 0xc0, 0xbf, 0x40, 0x68, 0x41, 0xc0, 0x71, 0x6d, 0x28, 0x3f,
  0x03, 0xaa, 0x80, 0xc0, 0x82, 0x98, 0x93, 0x3f, 0x09, 0xe5, 0x29, 0xbf,
  0x91, 0x76, 0xa4, 0x3f, 0xa5, 0x51, 0x69, 0x40, 0x0b, 0x40, 0x77, 0xbf,
  0x6f, 0xca, 0x07, 0xbf, 0xa6, 0xb5, 0x4c, 0x40, 0x2c, 0x48, 0xaf, 0xbe,
  0x4a, 0xf4, 0x9a, 0x3e, 0xc6, 0xf5, 0x93, 0x40, 0x68, 0xfc, 0x82, 0xbf,
  0x3f, 0xb4, 0x2f, 0x40, 0x78, 0x9b, 0x76, 0x40, 0xf1, 0xb9, 0x21, 0xbf,
  0x02, 0xba, 0x49, 0x40, 0xc0, 0x1f, 0xe4, 0x3d, 0x77, 0x79, 0x61, 0x40,
  0xe7, 0x40, 0x22, 0xbf, 0xf5, 0xd8, 0x46, 0x3f, 0xa1, 0x6c, 0xa2, 0x3f,
  0x24, 0x26, 0xba, 0xbf, 0x7d, 0xb0, 0x60, 0x3f, 0x7b, 0x3a, 0x8e, 0x3e,
  0xa6, 0x38, 0x24, 0xbf, 0x76, 0x48, 0x6b, 0xbf, 0x94, 0x4a, 0xa2, 0xbf,
  0xef, 0x45, 0xea, 0xbe, 0xd3, 0xa7, 0xf3, 0x3f, 0x9f, 0x93, 0xf0, 0xbf,
  0xa1, 0xa7, 0xdf, 0x3f, 0x7e, 0xc7, 0x61, 0xbf, 0xd2, 0x64, 0xd0, 0x3f,
  0x5b, 0xe2, 0xc3, 0xbf, 0x72, 0xc3, 0x04, 0x40, 0x08, 0xe0, 0x76, 0x40,
  0xde, 0x61, 0x01, 0xbf, 0x1f, 0x8d, 0x2b, 0x40, 0xb4, 0x5d, 0x08, 0x40,
  0x8d, 0x8c, 0x9c, 0x40, 0xab, 0x73, 0x15, 0x40, 0x4f, 0x5a, 0x48, 0x40,
  0x64, 0x50, 0x78, 0x3e, 0x42, 0xbf, 0x88, 0x40, 0x81, 0x27, 0x20, 0x3f,
  0x97, 0x78, 0x20, 0x40, 0x78, 0xf0, 0x49, 0x40, 0x99, 0x5b, 0xf8, 0x3f,
  0x4f, 0x18, 0x54, 0x3f, 0x55, 0xc5, 0x03, 0xbe, 0x47, 0x62, 0x23, 0xc0,
  0x3d, 0x83, 0x27, 0x40, 0xee, 0x13, 0xf6, 0x3f, 0x9d, 0x4f, 0x44, 0xc0,
  0x35, 0x01, 0xac, 0x3d, 0xb6, 0xfa, 0x1a, 0xbc, 0xbd, 0x93, 0x38, 0x3e,
  0x16, 0x66, 0x95, 0x3f, 0xe3, 0x13, 0x09, 0x40, 0x1e, 0xc8, 0xbc, 0xbf,
  0x3f, 0xa4, 0x53, 0xbf, 0x45, 0xc2, 0x4b, 0xc0, 0x05, 0xf5, 0xea, 0x3f,
  0x7c, 0x66, 0x8f, 0xbf, 0x8e, 0xda, 0x66, 0x40, 0xb3, 0xef, 0xfe, 0x3e,
  0xb9, 0x08, 0xea, 0x3f, 0x5f, 0x4a, 0x52, 0xbf, 0x7d, 0x42, 0x7c, 0xc0,
  0x24, 0x0b, 0x15, 0x40, 0xc9, 0x82, 0x05, 0xc0, 0x84, 0xfa, 0x8e, 0x40,
  0x1d, 0x89, 0x08, 0x3c, 0xbd, 0x28, 0xb6, 0x40, 0xe3, 0xa9, 0xf7, 0xbf,
  0xd5, 0xf7, 0x51, 0xbd, 0x3a, 0x31, 0x22, 0x3f, 0xde, 0xb5, 0xc4, 0xbf,
  0xb1, 0x54, 0x30, 0x40, 0xd9, 0x9c, 0x54, 0x40, 0xf1, 0xf5, 0x18, 0x40,
  0x10, 0xf5, 0xea, 0x3f, 0x80, 0x2b, 0xa8, 0xbf, 0xdb, 0xbf, 0x69, 0xbf,
  0x9c, 0x6b, 0x67, 0x40, 0x82, 0xb8, 0x75, 0xbf, 0x62, 0xfb, 0xe8, 0x3d,
  0xbe, 0x92, 0x2d, 0xc0, 0xaa, 0x95, 0x11, 0xbf, 0x7a, 0xdf, 0x92, 0x3f,
  0xe2, 0x97, 0xd5, 0x3f, 0x36, 0xbb, 0x05, 0xbe, 0x11, 0xae, 0x10, 0x40,
  0xa6, 0x52, 0x9a, 0x3f, 0x59, 0x25, 0xec, 0xbf, 0x1c, 0x5d, 0x1a, 0xc0,
  0x04, 0x4b, 0x8b, 0xbf, 0x78, 0xd2, 0x8a, 0x40, 0xbe, 0x87, 0xc3, 0x3f,
  0x1a, 0x58, 0x00, 0x3e, 0x61, 0xc6, 0x03, 0x40, 0xc0, 0xf1, 0x93, 0x3f,
  0xa2, 0xb9, 0x34, 0xc0, 0x70, 0xf7, 0x06, 0xc0, 0x9b, 0xe9, 0x59, 0x3f,
  0xd1, 0x77, 0x60, 0x40, 0xd6, 0xba, 0x26, 0x40, 0x82, 0xf1, 0x02, 0xc0,
  0x98, 0xe1, 0x2f, 0x40, 0x81, 0x90, 0xc2, 0x3f, 0xed, 0xf5, 0xa6, 0xc0,
  0x70, 0x07, 0x0c, 0x3f, 0xe6, 0xb3, 0xf9, 0x3f, 0x48, 0x22, 0xce, 0x3f,
  0xcf, 0xb7, 0xa7, 0x3f, 0xfd, 0xc2, 0x53, 0x3f, 0xdd, 0x69, 0x23, 0x3f,
  0x0e, 0xdb, 0x98, 0xbf, 0x72, 0x9a, 0x33, 0x40, 0xea, 0xf4, 0x85, 0xbf,
  0xb8, 0x76, 0x0d, 0x40, 0x0e, 0x7c, 0xea, 0xbe, 0x41, 0xe6, 0x00, 0x3f,
  0x64, 0x51, 0x72, 0x40, 0xa1, 0x07, 0x0b, 0xbd, 0x16, 0xbe, 0x0b, 0x40,
  0xb9, 0xe3, 0x30, 0x3f, 0xd9, 0xe3, 0xea, 0x3f, 0x35, 0x92, 0x4e, 0x40,
  0xe3, 0x66, 0xa0, 0x3f, 0x13, 0xc5, 0xc4, 0x3f, 0x88, 0x9a, 0x73, 0x40,
  0x8e, 0x0e, 0x9e, 0x3f, 0xd6, 0x74, 0x38, 0x40, 0xff, 0xcd, 0xe7, 0x3f,
  0xce, 0xa4, 0xfa, 0x3f, 0xa1, 0x96, 0x81, 0x40, 0x17, 0xac, 0x9e, 0x3f,
  0xc5, 0x4b, 0x89, 0x40, 0x0c, 0x04, 0xad, 0x3f, 0xe5, 0xbb, 0x7f, 0x40,
  0x7f, 0x51, 0x32, 0xbe, 0xef, 0x1f, 0x71, 0x40, 0x0d, 0xf3, 0x87, 0x3e,
  0x4b, 0xdf, 0xe4, 0xbe, 0x31, 0x44, 0x28, 0x40, 0xe4, 0x2d, 0x46, 0x40,
  0x39, 0xa9, 0x72, 0xc0, 0xbe, 0xd8, 0x64, 0xc0, 0xda, 0x4e, 0xe4, 0xbf,
  0xb6, 0xbe, 0x3e, 0xc0, 0x50, 0x7d, 0xe0, 0x3f, 0x70, 0x78, 0xb3, 0xbf,
  0xd5, 0xce, 0x4f, 0x40, 0xea, 0xf5, 0x41, 0x3f, 0xbf, 0x3c, 0xdf, 0x3f,
  0x54, 0x8c, 0xc2, 0x3f, 0x6f, 0x70, 0x7d, 0x40, 0xbb, 0x7d, 0x10, 0x40,
  0xd9, 0x96, 0x20, 0x40, 0xcf, 0x63, 0x66, 0x3e, 0xd9, 0x1f, 0x44, 0x3f,
  0x70, 0xc1, 0x81, 0xbf, 0x14, 0x02, 0x08, 0x40, 0x3e, 0x3e, 0x17, 0x3f,
  0x2a, 0xff, 0x46, 0x3e, 0xb0, 0x5a, 0x8f, 0xc0, 0x26, 0x09, 0x83, 0xc0,
  0xb8, 0x61, 0x3b, 0x3f, 0x6b, 0xfd, 0x8c, 0xc0, 0xbe, 0x97, 0xcc, 0x3e,
  0xa8, 0x0c, 0x40, 0xc0, 0x8f, 0xf7, 0x2c, 0x40, 0x2f, 0x0e, 0x62, 0x3f,
  0xab, 0x43, 0x7c, 0x3e, 0xf5, 0x59, 0x9e, 0x40, 0x7e, 0x9a, 0x0e, 0x40,
  0x3d, 0xd5, 0x7e, 0x3f, 0x66, 0xc7, 0xdc, 0x40, 0xa8, 0x85, 0xd4, 0xbf,
  0xe1, 0xe6, 0x09, 0x3f, 0x56, 0x23, 0xb1, 0xbf, 0xd8, 0xe2, 0x06, 0x3e,
  0xfe, 0xc4, 0xa9, 0xbf, 0xaa, 0xa8, 0xf3, 0xbf, 0xf8, 0xa9, 0xb2, 0xbe,
  0x9f, 0x90, 0x9b, 0xc0, 0x61, 0x76, 0xc1, 0xbe, 0xf0, 0x80, 0x24, 0xbe,
  0x22, 0x5c, 0xb7, 0xbf, 0x2f, 0xf0, 0x5d, 0xbf, 0xa6, 0xb4, 0x23, 0x3f,
  0x6d, 0x27, 0x90, 0x3f, 0xcf, 0x7d, 0x10, 0xbf, 0x2d, 0x0d, 0xaf, 0x3f,
  0xd2, 0x86, 0xd4, 0x3f, 0xe7, 0xfc, 0x58, 0xbf, 0x20, 0xdf, 0x13, 0x3e,
  0xe2, 0x1f, 0xfa, 0x3f, 0xb1, 0x45, 0x0d, 0x40, 0x67, 0x83, 0xd7, 0x3f,
  0xc8, 0xdd, 0xc5, 0x3e, 0xd3, 0x7e, 0x86, 0x40, 0xc1, 0xce, 0x14, 0x3f,
  0xf0, 0x7f, 0x9c, 0x3f, 0x75, 0xee, 0x92, 0x40, 0x37, 0x13, 0xef, 0xbd,
  0x0f, 0xaa, 0xc5, 0xbe, 0xcc, 0x4a, 0x4e, 0x40, 0x75, 0x33, 0x01, 0xbf,
  0xb2, 0xe1, 0xea, 0x3f, 0xc8, 0xf3, 0x6d, 0x40, 0xe6, 0x81, 0xfc, 0x3f,
  0x79, 0xf2, 0x9d, 0x3f, 0xdb, 0xc3, 0xaf, 0x3f, 0x78, 0x44, 0x94, 0x3e,
  0x7c, 0x7f, 0x6e, 0xbe, 0xe1, 0xac, 0xcb, 0x3f, 0x99, 0xfe, 0xf0, 0x3f,
  0x0a, 0xab, 0xa3, 0x3f, 0x75, 0x92, 0x52, 0x40, 0x27, 0x65, 0x85, 0xbe,
  0xd9, 0x8c, 0x31, 0xbf, 0x33, 0x6d, 0x17, 0xbf, 0x6e, 0x6c, 0x5d, 0x3f,
  0xba, 0x03, 0x47, 0xc0, 0x9b, 0xcb, 0x18, 0x3f, 0xc3, 0x18, 0x5c, 0x3e,
  0xc5, 0x3d, 0x55, 0xbf, 0x42, 0xdf, 0xbd, 0xbf, 0x40, 0x88, 0x53, 0x3f,
  0xca, 0x78, 0x89, 0xbf, 0xb4, 0x7c, 0x36, 0xbf, 0xf1, 0x26, 0x5a, 0xbf,
  0xe1, 0xc0, 0x97, 0x3f, 0xee, 0xa3, 0xb7, 0x3e, 0xd4, 0x7c, 0x45, 0x3f,
  0xa2, 0x56, 0x4b, 0x40, 0x7c, 0x83, 0x5f, 0x3e, 0x36, 0xbd, 0x22, 0xbf,
  0x8a, 0xb3, 0x4f, 0x40, 0x6f, 0x2f, 0xec, 0x3f, 0x88, 0x08, 0x3f, 0x40,
  0x92, 0xfa, 0xff, 0xff, 0x04, 0x00, 0x00, 0x00, 0x00, 0x04, 0x00, 0x00,
  0xdb, 0xc8, 0x4a, 0xbd, 0x4c, 0x43, 0xa3, 0xbc, 0xd1, 0xef, 0xe3, 0x3b,
  0xc5, 0xa3, 0x24, 0xbd, 0x97, 0x95, 0xcd, 0x3c, 0xab, 0x41, 0xd8, 0xbc,
  0xb4, 0xfc, 0xc1, 0xbc, 0x35, 0x21, 0x51, 0xbd, 0x76, 0x74, 0x71, 0xbd,
  0xc2, 0xa9, 0xab, 0xbc, 0xc2, 0xe8, 0x77, 0xbd, 0x9d, 0xe0, 0x81, 0xbc,
  0xa1, 0xdc, 0xff, 0xbc, 0xc8, 0x1d, 0xc4, 0x3c, 0x46, 0xc1, 0x52, 0xbd,
  0x44, 0x09, 0xca, 0x3c, 0x9a, 0x8c, 0xdc, 0xbc, 0x5b, 0x10, 0xd2, 0xbc,
  0x62, 0x09, 0x8c, 0x3c, 0xa0, 0x0e, 0x81, 0xbb, 0x79, 0xc8, 0xbf, 0x3c,
  0xc5, 0x67, 0x12, 0xbd, 0xb6, 0x0f, 0xf5, 0xbc, 0x80, 0xa5, 0xae, 0xbc,
  0x15, 0x24, 0xf6, 0xbc, 0xc0, 0x31, 0xdb, 0xbc, 0xf2, 0x04, 0xe9, 0xbc,
  0x48, 0x1b, 0x00, 0xbd, 0xfc, 0x74, 0xe8, 0xbc, 0xa8, 0xe7, 0xb6, 0x3c,
  0x3f, 0x7a, 0xdd, 0xbc, 0x08, 0x7b, 0xce, 0x3c, 0xf3, 0x86, 0xd8, 0x3b,
  0x16, 0x0f, 0xb6, 0xbc, 0xfa, 0x0c, 0xae, 0x3c, 0xab, 0x85, 0x89, 0x3c,
  0xb1, 0xe8, 0xaa, 0x3c, 0x67, 0xb6, 0xd4, 0xbc, 0x98, 0xd1, 0xb4, 0xbc,
  0xff, 0xd8, 0x54, 0x3b, 0x60, 0x32, 0x94, 0x3b, 0x50, 0x58, 0xcd, 0xbc,
  0x17, 0x8a, 0x8f, 0x3b, 0xc8, 0xc0, 0xb7, 0xbc, 0xf8, 0xbd, 0x83, 0xbc,
  0x93, 0xcd, 0x5e, 0x3c, 0x60, 0xe7, 0x53, 0x3c, 0x62, 0x5c, 0x78, 0x3c,
  0xae, 0x41, 0x42, 0x3d, 0x1e, 0x95, 0x3f, 0xbd, 0x8e, 0x45, 0x28, 0x3d,
  0x3b, 0x80, 0x58, 0x3d, 0x40, 0x55, 0x20, 0xbc, 0xdc, 0xd8, 0x20, 0xbd,
  0x6d, 0x13, 0x3f, 0xbd, 0x74, 0xfb, 0x2f, 0x3d, 0xea, 0xe8, 0x1a, 0x3d,
  0x09, 0x19, 0x1c, 0xbd, 0x5d, 0x1c, 0x33, 0x3d, 0xb6, 0x49, 0x3a, 0xbd,
  0xca, 0x98, 0x0f, 0xbd, 0x84, 0xfa, 0x24, 0xbc, 0xb1, 0xcf, 0x40, 0x3d,
  0x93, 0xdf, 0xd2, 0xbb, 0x4c, 0x26, 0x0a, 0xbd, 0x50, 0x7e, 0x20, 0xbd,
  0x2c, 0xb2, 0x01, 0xbb, 0x3d, 0x47, 0x62, 0xbc, 0x5f, 0x04, 0x91, 0x3c,
  0xa6, 0x5f, 0x0a, 0xbd, 0xa0, 0x57, 0x33, 0xbd, 0xdb, 0xc1, 0xf1, 0xbc,
  0x15, 0x64, 0xbd, 0xbc, 0xe3, 0x96, 0x34, 0xbd, 0x39, 0x03, 0x45, 0xbd,
  0xc9, 0x75, 0xef, 0xbc, 0x63, 0xd3, 0x2b, 0xbd, 0x70, 0x96, 0xa3, 0x3c,
  0x19, 0xbd, 0xc3, 0xbc, 0x80, 0xe6, 0x86, 0x3c, 0x66, 0xc0, 0xaa, 0xbc,
  0xb3, 0x3e, 0x1d, 0xbd, 0x92, 0x9a, 0x57, 0x3c, 0x6e, 0x71, 0xa4, 0xba,
  0x5a, 0xca, 0x8c, 0x3c, 0x7f, 0x8f, 0x20, 0xbd, 0x33, 0x87, 0x09, 0xbd,
  0x75, 0xc8, 0x82, 0xbc, 0xc8, 0x25, 0xaa, 0xbc, 0xb9, 0xa4, 0x31, 0xbd,
  0xe4, 0xe7, 0x10, 0xbd, 0x0a, 0xfa, 0x0d, 0xbd, 0x30, 0xad, 0x0c, 0xbd,
  0x6e, 0x9b, 0x92, 0x3c, 0x27, 0x73, 0xa8, 0xbc, 0x3d, 0x10, 0x87, 0x3c,
  0x8b, 0x87, 0x2f, 0xbb, 0xef, 0xcb, 0x05, 0x3c, 0x4b, 0xc6, 0x9f, 0xb9,
  0x25, 0xb8, 0x54, 0x3b, 0xc4, 0xf9, 0xd4, 0x3a, 0xc9, 0x0d, 0x58, 0x3b,
  0x07, 0xd0, 0x38, 0x3a, 0x19, 0xdc, 0x6e, 0x3b, 0xfd, 0xd6, 0x99, 0x3b,
  0x71, 0x09, 0x91, 0x3b, 0x14, 0xac, 0x19, 0xbb, 0xf9, 0x41, 0x04, 0x3a,
  0x07, 0xcc, 0xf5, 0xbb, 0xac, 0x16, 0xb8, 0x3b, 0x28, 0xbc, 0x90, 0xbb,
  0x48, 0x4e, 0x23, 0x3c, 0x05, 0xd8, 0x2b, 0xbd, 0x07, 0xb5, 0x6a, 0x3d,
  0xc1, 0xdf, 0x4d, 0xbd, 0x51, 0x82, 0x65, 0xbd, 0x84, 0xd1, 0xbe, 0xbc,
  0x3d, 0xbd, 0x5a, 0x3d, 0xef, 0x24, 0x7e, 0x3d, 0x9c, 0x42, 0x0a, 0xbd,
  0x84, 0x40, 0x07, 0xbd, 0xc1, 0x28, 0x68, 0x3d, 0x7b, 0xb7, 0xc5, 0xbc,
  0xae, 0x56, 0x82, 0x3d, 0x7d, 0xd6, 0x6b, 0x3d, 0xac, 0x61, 0xfb, 0xbc,
  0x74, 0x0e, 0x27, 0xbd, 0x63, 0x0f, 0x56, 0xbc, 0xd5, 0x8a, 0xf0, 0xbc,
  0x9b, 0x22, 0x4a, 0x3d, 0x79, 0x3a, 0x69, 0xbd, 0x29, 0x0a, 0x11, 0xbd,
  0xb5, 0xb1, 0x51, 0xbd, 0xc1, 0x14, 0x36, 0x3d, 0x1a, 0xd1, 0x38, 0x3d,
  0x9a, 0xf1, 0xdd, 0xbc, 0x90, 0x61, 0x06, 0xbd, 0x29, 0x85, 0x40, 0x3d,
  0xac, 0x4a, 0x6b, 0xbc, 0xdf, 0x87, 0x2f, 0x3d, 0x71, 0x62, 0x3f, 0x3d,
  0xce, 0xb9, 0x59, 0xbd, 0x9e, 0x68, 0x18, 0xbd, 0x85, 0x86, 0x57, 0xbd,
  0x60, 0x84, 0xaf, 0xbc, 0x27, 0x2f, 0x08, 0x3d, 0xa2, 0x22, 0x40, 0xbd,
  0xc1, 0x3d, 0xdd, 0xbc, 0x01, 0x5d, 0x44, 0xbd, 0x0f, 0x15, 0x13, 0x3d,
  0xe3, 0x2f, 0xff, 0x3c, 0x99, 0x87, 0x96, 0xbc, 0xf3, 0xf5, 0x99, 0xbc,
  0x6f, 0x40, 0x09, 0x3d, 0xe8, 0xed, 0xba, 0xbb, 0x19, 0x10, 0x0a, 0x3d,
  0xfc, 0x60, 0xf4, 0x3c, 0x84, 0x2b, 0x70, 0xbd, 0x5d, 0x7d, 0xbb, 0xbc,
  0xf8, 0x6b, 0x5c, 0xbd, 0xf2, 0x03, 0x5e, 0xbc, 0x68, 0x4a, 0xa1, 0x3c,
  0x62, 0xde, 0xbc, 0xbc, 0x5f, 0x46, 0x98, 0xbc, 0x19, 0x2d, 0xa3, 0xbc,
  0xe7, 0xbc, 0xab, 0x3c, 0x4b, 0xfe, 0x30, 0x3c, 0x92, 0xe9, 0x6c, 0xbb,
  0x70, 0x95, 0x4a, 0xbc, 0x29, 0x0a, 0x9c, 0x3c, 0xf0, 0x1e, 0xc5, 0xba,
  0x0b, 0x6f, 0xb0, 0x3c, 0x3b, 0xe9, 0xab, 0x3c, 0x62, 0x79, 0x95, 0xbc,
  0xf8, 0x6a, 0x34, 0xbc, 0x02, 0x99, 0xcf, 0xbc, 0x4d, 0x78, 0xee, 0xbc,
  0x8a, 0x5b, 0x23, 0xbc, 0x10, 0x8f, 0xe4, 0x3b, 0x36, 0xf5, 0x81, 0xbc,
  0xff, 0x08, 0xee, 0x3c, 0x64, 0xcf, 0x43, 0xbc, 0x20, 0xb3, 0xac, 0xbc,
  0xec, 0x5a, 0xd4, 0xbc, 0x36, 0x63, 0xbb, 0xbc, 0xbe, 0x6d, 0x98, 0xbc,
  0x53, 0xf2, 0xfa, 0xbc, 0xcf, 0xd6, 0xb0, 0xbc, 0xcf, 0x3e, 0xc2, 0xbc,
  0xb3, 0x4a, 0xd7, 0x3c, 0x4b, 0x34, 0xe9, 0xbc, 0x52, 0xfc, 0xac, 0x3c,
  0x9b, 0x8a, 0x49, 0x3d, 0xe6, 0x7c, 0x1c, 0xbd, 0x17, 0x15, 0x05, 0x3d,
  0x5c, 0x92, 0x3c, 0x3d, 0x76, 0x31, 0x4f, 0xbd, 0x28, 0xfd, 0xda, 0xbc,
  0x65, 0x8f, 0xde, 0xbc, 0xe9, 0xd6, 0x4a, 0x3d, 0x67, 0xa5, 0x5b, 0x3d,
  0x43, 0xd1, 0xf8, 0xbc, 0x41, 0x6b, 0x5c, 0x3d, 0x37, 0xad, 0x13, 0xbd,
  0x17, 0x6a, 0xa2, 0xbc, 0x4d, 0x72, 0x34, 0xbd, 0x63, 0xbc, 0x56, 0x3d,
  0x2c, 0xf4, 0x4e, 0xbd, 0xe0, 0x2b, 0x16, 0x3d, 0x9b, 0x08, 0x4a, 0xbc,
  0x09, 0x15, 0xb6, 0xbc, 0x00, 0x0c, 0xd9, 0x3c, 0xdb, 0x00, 0x71, 0xbd,
  0x5a, 0x60, 0x04, 0xbc, 0xb3, 0x3c, 0xfa, 0xbb, 0x49, 0x40, 0x07, 0x3d,
  0x3f, 0xc0, 0x14, 0x3d, 0xc3, 0xd6, 0xf2, 0xbb, 0x57, 0x59, 0x0f, 0x3d,
  0x4d, 0xc5, 0x19, 0xbc, 0x1d, 0xfd, 0xc9, 0xbb, 0x67, 0x19, 0x57, 0xbd,
  0x9f, 0x43, 0x23, 0x3d, 0x36, 0x57, 0x73, 0xbd, 0x4d, 0x46, 0xd0, 0x3b,
  0x31, 0x20, 0x8e, 0xbc, 0x40, 0x78, 0xf5, 0xbc, 0xf4, 0x88, 0xc2, 0xbc,
  0xe3, 0x6a, 0xfb, 0xbc, 0xcc, 0x46, 0x09, 0xbc, 0x17, 0xd0, 0xe3, 0x3a,
  0x06, 0x5b, 0xe8, 0xbb, 0xf8, 0xe2, 0x7a, 0x37, 0xf3, 0xf4, 0xee, 0xbb,
  0x40, 0xb0, 0xf6, 0xba, 0x2d, 0x5b, 0x69, 0xbc, 0xd8, 0x79, 0xbb, 0xbb,
  0x05, 0x4b, 0xb9, 0xbc, 0x7f, 0xcb, 0xfc, 0xba, 0x44, 0xbd, 0xee, 0xbc,
  0xb3, 0xc6, 0xd0, 0xbc, 0xaa, 0x0a, 0xf8, 0xbc, 0x1d, 0xc1, 0xce, 0xbc,
  0x52, 0x67, 0xfa, 0xbc, 0xc0, 0xf6, 0x4c, 0x3a, 0xa1, 0xc0, 0xe7, 0xbc,
  0x67, 0xd3, 0xe7, 0xbc, 0xf4, 0x71, 0xe1, 0xbc, 0x69, 0x24, 0x88, 0xbc,
  0x1f, 0xaf, 0xf1, 0xbc, 0x99, 0x34, 0x24, 0xbd, 0xa4, 0x2b, 0xf9, 0xbc,
  0xc6, 0x2c, 0x02, 0xbd, 0x38, 0x0a, 0xc5, 0x3b, 0xdc, 0x55, 0xce, 0xbc,
  0xff, 0x49, 0x44, 0xba, 0x9e, 0xfe, 0xff, 0xff, 0x04, 0x00, 0x00, 0x00,
  0x40, 0x00, 0x00, 0x00, 0x9c, 0x89, 0x8c, 0x3e, 0xf4, 0xdf, 0x1c, 0x3f,
  0x88, 0x25, 0xd2, 0xbd, 0x70, 0x8c, 0xe8, 0x3d, 0x70, 0x82, 0xb6, 0x3d,
  0xe8, 0x58, 0x03, 0x3f, 0x77, 0xc4, 0x6b, 0x3f, 0x80, 0x74, 0x85, 0x3e,
  0x71, 0x25, 0xb7, 0x3e, 0x50, 0x63, 0x0a, 0x3f, 0x7e, 0x36, 0xb0, 0x3e,
  0x70, 0x3b, 0x39, 0x3f, 0xad, 0xfc, 0x05, 0x3f, 0x7b, 0xa1, 0xae, 0x3e,
  0x16, 0x91, 0xaf, 0x3e, 0xaa, 0x97, 0xfc, 0x3e, 0xea, 0xfe, 0xff, 0xff,
  0x04, 0x00, 0x00, 0x00, 0x40, 0x00, 0x00, 0x00, 0xc4, 0x22, 0x67, 0xbe,
  0x5c, 0x74, 0x17, 0xbf, 0x93, 0x36, 0x30, 0xbf, 0x00, 0xcc, 0xd5, 0xbe,
  0xfe, 0x87, 0x03, 0xbf, 0x75, 0x90, 0x75, 0xbe, 0x05, 0x57, 0x2e, 0xbf,
  0x68, 0xa5, 0xed, 0xbe, 0x2f, 0xe4, 0xb0, 0xbe, 0x07, 0xa1, 0x87, 0xbe,
  0x5e, 0x9a, 0xf3, 0xbe, 0xd2, 0xab, 0x28, 0xbf, 0x03, 0x2d, 0xbd, 0xbe,
  0x18, 0x1e, 0x0a, 0xbf, 0xd6, 0x14, 0xed, 0xbe, 0xdf, 0x8b, 0xd4, 0xbe,
  0x36, 0xff, 0xff, 0xff, 0x04, 0x00, 0x00, 0x00, 0x08, 0x00, 0x00, 0x00,
  0xff, 0xff, 0xff, 0xff, 0x40, 0x00, 0x00, 0x00, 0x4a, 0xff, 0xff, 0xff,
  0x04, 0x00, 0x00, 0x00, 0x10, 0x00, 0x00, 0x00, 0x22, 0x25, 0xad, 0xbb,
  0xfb, 0x88, 0x31, 0x3e, 0xf1, 0x6a, 0xd0, 0xbd, 0xa1, 0x8c, 0xa3, 0xbd,
  0x0c, 0xf3, 0xff, 0xff, 0x10, 0xf3, 0xff, 0xff, 0x0f, 0x00, 0x00, 0x00,
  0x4d, 0x4c, 0x49, 0x52, 0x20, 0x43, 0x6f, 0x6e, 0x76, 0x65, 0x72, 0x74,
  0x65, 0x64, 0x2e, 0x00, 0x01, 0x00, 0x00, 0x00, 0x14, 0x00, 0x00, 0x00,
  0x00, 0x00, 0x0e, 0x00, 0x18, 0x00, 0x14, 0x00, 0x10, 0x00, 0x0c, 0x00,
  0x08, 0x00, 0x04, 0x00, 0x0e, 0x00, 0x00, 0x00, 0x14, 0x00, 0x00, 0x00,
  0x1c, 0x00, 0x00, 0x00, 0xc0, 0x02, 0x00, 0x00, 0xc4, 0x02, 0x00, 0x00,
  0xc8, 0x02, 0x00, 0x00, 0x04, 0x00, 0x00, 0x00, 0x6d, 0x61, 0x69, 0x6e,
  0x00, 0x00, 0x00, 0x00, 0x09, 0x00, 0x00, 0x00, 0x60, 0x02, 0x00, 0x00,
  0xf4, 0x01, 0x00, 0x00, 0x90, 0x01, 0x00, 0x00, 0x40, 0x01, 0x00, 0x00,
  0xf0, 0x00, 0x00, 0x00, 0xac, 0x00, 0x00, 0x00, 0x84, 0x00, 0x00, 0x00,
  0x40, 0x00, 0x00, 0x00, 0x04, 0x00, 0x00, 0x00, 0x3a, 0xfe, 0xff, 0xff,
  0x1c, 0x00, 0x00, 0x00, 0x00, 0x00, 0x00, 0x09, 0x1c, 0x00, 0x00, 0x00,
  0x20, 0x00, 0x00, 0x00, 0x05, 0x00, 0x00, 0x00, 0x00, 0x00, 0x06, 0x00,
  0x08, 0x00, 0x04, 0x00, 0x06, 0x00, 0x00, 0x00, 0x00, 0x00, 0x80, 0x3f,
  0x01, 0x00, 0x00, 0x00, 0x14, 0x00, 0x00, 0x00, 0x01, 0x00, 0x00, 0x00,
  0x13, 0x00, 0x00, 0x00, 0x72, 0xfe, 0xff, 0xff, 0x14, 0x00, 0x00, 0x00,
  0x00, 0x00, 0x00, 0x08, 0x10, 0x00, 0x00, 0x00, 0x14, 0x00, 0x00, 0x00,
  0x04, 0x00, 0x00, 0x00, 0xdc, 0xf3, 0xff, 0xff, 0x01, 0x00, 0x00, 0x00,
  0x13, 0x00, 0x00, 0x00, 0x03, 0x00, 0x00, 0x00, 0x12, 0x00, 0x00, 0x00,
  0x05, 0x00, 0x00, 0x00, 0x01, 0x00, 0x00, 0x00, 0x00, 0x00, 0x0a, 0x00,
  0x10, 0x00, 0x0c, 0x00, 0x08, 0x00, 0x04, 0x00, 0x0a, 0x00, 0x00, 0x00,
  0x0c, 0x00, 0x00, 0x00, 0x10, 0x00, 0x00, 0x00, 0x03, 0x00, 0x00, 0x00,
  0x01, 0x00, 0x00, 0x00, 0x12, 0x00, 0x00, 0x00, 0x02, 0x00, 0x00, 0x00,
  0x11, 0x00, 0x00, 0x00, 0x02, 0x00, 0x00, 0x00, 0xd6, 0xfe, 0xff, 0xff,
  0x14, 0x00, 0x00, 0x00, 0x00, 0x00, 0x00, 0x05, 0x24, 0x00, 0x00, 0x00,
  0x28, 0x00, 0x00, 0x00, 0x02, 0x00, 0x00, 0x00, 0x26, 0xff, 0xff, 0xff,
  0x01, 0x00, 0x00, 0x00, 0x08, 0x00, 0x00, 0x00, 0x01, 0x00, 0x00, 0x00,
  0x08, 0x00, 0x00, 0x00, 0x00, 0x00, 0x00, 0x01, 0x01, 0x00, 0x00, 0x00,
  0x11, 0x00, 0x00, 0x00, 0x01, 0x00, 0x00, 0x00, 0x10, 0x00, 0x00, 0x00,
  0xae, 0xfe, 0xff, 0xff, 0x1c, 0x00, 0x00, 0x00, 0x00, 0x00, 0x00, 0x01,
  0x28, 0x00, 0x00, 0x00, 0x2c, 0x00, 0x00, 0x00, 0x0c, 0x00, 0x14, 0x00,
  0x13, 0x00, 0x0c, 0x00, 0x08, 0x00, 0x07, 0x00, 0x0c, 0x00, 0x00, 0x00,
  0x00, 0x00, 0x00, 0x01, 0x01, 0x00, 0x00, 0x00, 0x01, 0x00, 0x00, 0x00,
  0x00, 0x00, 0x00, 0x01, 0x01, 0x00, 0x00, 0x00, 0x10, 0x00, 0x00, 0x00,
  0x03, 0x00, 0x00, 0x00, 0x0f, 0x00, 0x00, 0x00, 0x09, 0x00, 0x00, 0x00,
  0x04, 0x00, 0x00, 0x00, 0x62, 0xff, 0xff, 0xff, 0x20, 0x00, 0x00, 0x00,
  0x00, 0x00, 0x00, 0x02, 0x28, 0x00, 0x00, 0x00, 0x2c, 0x00, 0x00, 0x00,
  0x01, 0x00, 0x00, 0x00, 0x0c, 0x00, 0x10, 0x00, 0x00, 0x00, 0x0c, 0x00,
  0x08, 0x00, 0x04, 0x00, 0x0c, 0x00, 0x00, 0x00, 0x01, 0x00, 0x00, 0x00,
  0x01, 0x00, 0x00, 0x00, 0x01, 0x00, 0x00, 0x00, 0x01, 0x00, 0x00, 0x00,
  0x0f, 0x00, 0x00, 0x00, 0x03, 0x00, 0x00, 0x00, 0x0e, 0x00, 0x00, 0x00,
  0x08, 0x00, 0x00, 0x00, 0x07, 0x00, 0x00, 0x00, 0xae, 0xff, 0xff, 0xff,
  0x24, 0x00, 0x00, 0x00, 0x00, 0x00, 0x00, 0x05, 0x34, 0x00, 0x00, 0x00,
  0x38, 0x00, 0x00, 0x00, 0x02, 0x00, 0x00, 0x00, 0x00, 0x00, 0x0e, 0x00,
  0x18, 0x00, 0x17, 0x00, 0x10, 0x00, 0x0c, 0x00, 0x08, 0x00, 0x04, 0x00,
  0x0e, 0x00, 0x00, 0x00, 0x01, 0x00, 0x00, 0x00, 0x04, 0x00, 0x00, 0x00,
  0x01, 0x00, 0x00, 0x00, 0x04, 0x00, 0x00, 0x00, 0x00, 0x00, 0x00, 0x01,
  0x01, 0x00, 0x00, 0x00, 0x0e, 0x00, 0x00, 0x00, 0x01, 0x00, 0x00, 0x00,
  0x0d, 0x00, 0x00, 0x00, 0x00, 0x00, 0x0e, 0x00, 0x1a, 0x00, 0x14, 0x00,
  0x10, 0x00, 0x0c, 0x00, 0x0b, 0x00, 0x04, 0x00, 0x0e, 0x00, 0x00, 0x00,
  0x24, 0x00, 0x00, 0x00, 0x00, 0x00, 0x00, 0x02, 0x34, 0x00, 0x00, 0x00,
  0x38, 0x00, 0x00, 0x00, 0x01, 0x00, 0x00, 0x00, 0x00, 0x00, 0x0e, 0x00,
  0x18, 0x00, 0x17, 0x00, 0x10, 0x00, 0x0c, 0x00, 0x08, 0x00, 0x07, 0x00,
  0x0e, 0x00, 0x00, 0x00, 0x00, 0x00, 0x00, 0x01, 0x02, 0x00, 0x00, 0x00,
  0x01, 0x00, 0x00, 0x00, 0x01, 0x00, 0x00, 0x00, 0x00, 0x00, 0x00, 0x01,
  0x01, 0x00, 0x00, 0x00, 0x0d, 0x00, 0x00, 0x00, 0x03, 0x00, 0x00, 0x00,
  0x0c, 0x00, 0x00, 0x00, 0x0b, 0x00, 0x00, 0x00, 0x03, 0x00, 0x00, 0x00,
  0x00, 0x00, 0x0e, 0x00, 0x16, 0x00, 0x00, 0x00, 0x10, 0x00, 0x0c, 0x00,
  0x0b, 0x00, 0x04, 0x00, 0x0e, 0x00, 0x00, 0x00, 0x1c, 0x00, 0x00, 0x00,
  0x00, 0x00, 0x00, 0x01, 0x20, 0x00, 0x00, 0x00, 0x24, 0x00, 0x00, 0x00,
  0x00, 0x00, 0x0a, 0x00, 0x0c, 0x00, 0x00, 0x00, 0x08, 0x00, 0x04, 0x00,
  0x0a, 0x00, 0x00, 0x00, 0x01, 0x00, 0x00, 0x00, 0x01, 0x00, 0x00, 0x00,
  0x01, 0x00, 0x00, 0x00, 0x0c, 0x00, 0x00, 0x00, 0x03, 0x00, 0x00, 0x00,
  0x00, 0x00, 0x00, 0x00, 0x06, 0x00, 0x00, 0x00, 0x0a, 0x00, 0x00, 0x00,
  0x01, 0x00, 0x00, 0x00, 0x14, 0x00, 0x00, 0x00, 0x01, 0x00, 0x00, 0x00,
  0x00, 0x00, 0x00, 0x00, 0x15, 0x00, 0x00, 0x00, 0xb4, 0x09, 0x00, 0x00,
  0x50, 0x09, 0x00, 0x00, 0xfc, 0x08, 0x00, 0x00, 0x94, 0x08, 0x00, 0x00,
  0x3c, 0x08, 0x00, 0x00, 0xf8, 0x07, 0x00, 0x00, 0xac, 0x07, 0x00, 0x00,
  0x04, 0x07, 0x00, 0x00, 0x98, 0x06, 0x00, 0x00, 0x38, 0x06, 0x00, 0x00,
  0xc8, 0x05, 0x00, 0x00, 0x10, 0x05, 0x00, 0x00, 0x7c, 0x04, 0x00, 0x00,
  0x94, 0x03, 0x00, 0x00, 0x24, 0x03, 0x00, 0x00, 0xa0, 0x02, 0x00, 0x00,
  0x88, 0x01, 0x00, 0x00, 0x18, 0x01, 0x00, 0x00, 0xc4, 0x00, 0x00, 0x00,
  0x5c, 0x00, 0x00, 0x00, 0x04, 0x00, 0x00, 0x00, 0xb4, 0xf6, 0xff, 0xff,
  0x14, 0x00, 0x00, 0x00, 0x1c, 0x00, 0x00, 0x00, 0x1c, 0x00, 0x00, 0x00,
  0x15, 0x00, 0x00, 0x00, 0x34, 0x00, 0x00, 0x00, 0x02, 0x00, 0x00, 0x00,
  0xff, 0xff, 0xff, 0xff, 0x04, 0x00, 0x00, 0x00, 0x98, 0xf6, 0xff, 0xff,
  0x19, 0x00, 0x00, 0x00, 0x53, 0x74, 0x61, 0x74, 0x65, 0x66, 0x75, 0x6c,
  0x50, 0x61, 0x72, 0x74, 0x69, 0x74, 0x69, 0x6f, 0x6e, 0x65, 0x64, 0x43,
  0x61, 0x6c, 0x6c, 0x3a, 0x30, 0x00, 0x00, 0x00, 0x02, 0x00, 0x00, 0x00,
  0x01, 0x00, 0x00, 0x00, 0x04, 0x00, 0x00, 0x00, 0x08, 0xf7, 0xff, 0xff,
  0x14, 0x00, 0x00, 0x00, 0x1c, 0x00, 0x00, 0x00, 0x1c, 0x00, 0x00, 0x00,
  0x14, 0x00, 0x00, 0x00, 0x44, 0x00, 0x00, 0x00, 0x02, 0x00, 0x00, 0x00,
  0xff, 0xff, 0xff, 0xff, 0x04, 0x00, 0x00, 0x00, 0xec, 0xf6, 0xff, 0xff,
  0x2a, 0x00, 0x00, 0x00, 0x6d, 0x6f, 0x64, 0x65, 0x6c, 0x5f, 0x31, 0x2f,
  0x64, 0x65, 0x6e, 0x73, 0x65, 0x2f, 0x4d, 0x61, 0x74, 0x4d, 0x75, 0x6c,
  0x3b, 0x6d, 0x6f, 0x64, 0x65, 0x6c, 0x5f, 0x31, 0x2f, 0x64, 0x65, 0x6e,
  0x73, 0x65, 0x2f, 0x42, 0x69, 0x61, 0x73, 0x41, 0x64, 0x64, 0x00, 0x00,
  0x02, 0x00, 0x00, 0x00, 0x01, 0x00, 0x00, 0x00, 0x04, 0x00, 0x00, 0x00,
  0x6c, 0xf7, 0xff, 0xff, 0x14, 0x00, 0x00, 0x00, 0x1c, 0x00, 0x00, 0x00,
  0x1c, 0x00, 0x00, 0x00, 0x13, 0x00, 0x00, 0x00, 0x30, 0x00, 0x00, 0x00,
  0x02, 0x00, 0x00, 0x00, 0xff, 0xff, 0xff, 0xff, 0x40, 0x00, 0x00, 0x00,
  0x50, 0xf7, 0xff, 0xff, 0x17, 0x00, 0x00, 0x00, 0x6d, 0x6f, 0x64, 0x65,
  0x6c, 0x5f, 0x31, 0x2f, 0x66, 0x6c, 0x61, 0x74, 0x74, 0x65, 0x6e, 0x2f,
  0x52, 0x65, 0x73, 0x68, 0x61, 0x70, 0x65, 0x00, 0x02, 0x00, 0x00, 0x00,
  0x01, 0x00, 0x00, 0x00, 0x40, 0x00, 0x00, 0x00, 0xbc, 0xf7, 0xff, 0xff,
  0x14, 0x00, 0x00, 0x00, 0x24, 0x00, 0x00, 0x00, 0x24, 0x00, 0x00, 0x00,
  0x12, 0x00, 0x00, 0x00, 0x44, 0x00, 0x00, 0x00, 0x04, 0x00, 0x00, 0x00,
  0xff, 0xff, 0xff, 0xff, 0x01, 0x00, 0x00, 0x00, 0x04, 0x00, 0x00, 0x00,
  0x10, 0x00, 0x00, 0x00, 0xa8, 0xf7, 0xff, 0xff, 0x23, 0x00, 0x00, 0x00,
  0x6d, 0x6f, 0x64, 0x65, 0x6c, 0x5f, 0x31, 0x2f, 0x61, 0x76, 0x65, 0x72,
  0x61, 0x67, 0x65, 0x5f, 0x70, 0x6f, 0x6f, 0x6c, 0x69, 0x6e, 0x67, 0x32,
  0x64, 0x5f, 0x33, 0x2f, 0x41, 0x76, 0x67, 0x50, 0x6f, 0x6f, 0x6c, 0x00,
  0x04, 0x00, 0x00, 0x00, 0x01, 0x00, 0x00, 0x00, 0x01, 0x00, 0x00, 0x00,
  0x04, 0x00, 0x00, 0x00, 0x10, 0x00, 0x00, 0x00, 0x28, 0xf8, 0xff, 0xff,
  0x14, 0x00, 0x00, 0x00, 0x24, 0x00, 0x00, 0x00, 0x24, 0x00, 0x00, 0x00,
  0x11, 0x00, 0x00, 0x00, 0xec, 0x00, 0x00, 0x00, 0x04, 0x00, 0x00, 0x00,
  0xff, 0xff, 0xff, 0xff, 0x01, 0x00, 0x00, 0x00, 0x25, 0x00, 0x00, 0x00,
  0x10, 0x00, 0x00, 0x00, 0x14, 0xf8, 0xff, 0xff, 0xc8, 0x00, 0x00, 0x00,
  0x6d, 0x6f, 0x64, 0x65, 0x6c, 0x5f, 0x31, 0x2f, 0x61, 0x63, 0x74, 0x69,
  0x76, 0x61, 0x74, 0x69, 0x6f, 0x6e, 0x5f, 0x33, 0x2f, 0x52, 0x65, 0x6c,
  0x75, 0x3b, 0x6d, 0x6f, 0x64, 0x65, 0x6c, 0x5f, 0x31, 0x2f, 0x62, 0x61,
  0x74, 0x63, 0x68, 0x5f, 0x6e, 0x6f, 0x72, 0x6d, 0x61, 0x6c, 0x69, 0x7a,
  0x61, 0x74, 0x69, 0x6f, 0x6e, 0x5f, 0x35, 0x2f, 0x46, 0x75, 0x73, 0x65,
  0x64, 0x42, 0x61, 0x74, 0x63, 0x68, 0x4e, 0x6f, 0x72, 0x6d, 0x56, 0x33,
  0x3b, 0x6d, 0x6f, 0x64, 0x65, 0x6c, 0x5f, 0x31, 0x2f, 0x62, 0x61, 0x74,
  0x63, 0x68, 0x5f, 0x6e, 0x6f, 0x72, 0x6d, 0x61, 0x6c, 0x69, 0x7a, 0x61,
  0x74, 0x69, 0x6f, 0x6e, 0x5f, 0x34, 0x2f, 0x46, 0x75, 0x73, 0x65, 0x64,
  0x42, 0x61, 0x74, 0x63, 0x68, 0x4e, 0x6f, 0x72, 0x6d, 0x56, 0x33, 0x3b,
  0x6d, 0x6f, 0x64, 0x65, 0x6c, 0x5f, 0x31, 0x2f, 0x64, 0x65, 0x70, 0x74,
  0x68, 0x77, 0x69, 0x73, 0x65, 0x5f, 0x63, 0x6f, 0x6e, 0x76, 0x32, 0x64,
  0x5f, 0x31, 0x2f, 0x64, 0x65, 0x70, 0x74, 0x68, 0x77, 0x69, 0x73, 0x65,
  0x3b, 0x6d, 0x6f, 0x64, 0x65, 0x6c, 0x5f, 0x31, 0x2f, 0x73, 0x65, 0x70,
  0x61, 0x72, 0x61, 0x62, 0x6c, 0x65, 0x5f, 0x63, 0x6f, 0x6e, 0x76, 0x32,
  0x64, 0x5f, 0x31, 0x2f, 0x73, 0x65, 0x70, 0x61, 0x72, 0x61, 0x62, 0x6c,
  0x65, 0x5f, 0x63, 0x6f, 0x6e, 0x76, 0x32, 0x64, 0x00, 0x00, 0x00, 0x00,
  0x04, 0x00, 0x00, 0x00, 0x01, 0x00, 0x00, 0x00, 0x01, 0x00, 0x00, 0x00,
  0x25, 0x00, 0x00, 0x00, 0x10, 0x00, 0x00, 0x00, 0x3c, 0xf9, 0xff, 0xff,
  0x14, 0x00, 0x00, 0x00, 0x24, 0x00, 0x00, 0x00, 0x24, 0x00, 0x00, 0x00,
  0x10, 0x00, 0x00, 0x00, 0x58, 0x00, 0x00, 0x00, 0x04, 0x00, 0x00, 0x00,
  0xff, 0xff, 0xff, 0xff, 0x01, 0x00, 0x00, 0x00, 0x25, 0x00, 0x00, 0x00,
  0x10, 0x00, 0x00, 0x00, 0x28, 0xf9, 0xff, 0xff, 0x36, 0x00, 0x00, 0x00,
  0x6d, 0x6f, 0x64, 0x65, 0x6c, 0x5f, 0x31, 0x2f, 0x73, 0x65, 0x70, 0x61,
  0x72, 0x61, 0x62, 0x6c, 0x65, 0x5f, 0x63, 0x6f, 0x6e, 0x76, 0x32, 0x64,
  0x5f, 0x31, 0x2f, 0x73, 0x65, 0x70, 0x61, 0x72, 0x61, 0x62, 0x6c, 0x65,
  0x5f, 0x63, 0x6f, 0x6e, 0x76, 0x32, 0x64, 0x2f, 0x64, 0x65, 0x70, 0x74,
  0x68, 0x77, 0x69, 0x73, 0x65, 0x31, 0x00, 0x00, 0x04, 0x00, 0x00, 0x00,
  0x01, 0x00, 0x00, 0x00, 0x01, 0x00, 0x00, 0x00, 0x25, 0x00, 0x00, 0x00,
  0x10, 0x00, 0x00, 0x00, 0xbc, 0xf9, 0xff, 0xff, 0x14, 0x00, 0x00, 0x00,
  0x24, 0x00, 0x00, 0x00, 0x24, 0x00, 0x00, 0x00, 0x0f, 0x00, 0x00, 0x00,
  0x44, 0x00, 0x00, 0x00, 0x04, 0x00, 0x00, 0x00, 0xff, 0xff, 0xff, 0xff,
  0x01, 0x00, 0x00, 0x00, 0x25, 0x00, 0x00, 0x00, 0x10, 0x00, 0x00, 0x00,
  0xa8, 0xf9, 0xff, 0xff, 0x23, 0x00, 0x00, 0x00, 0x6d, 0x6f, 0x64, 0x65,
  0x6c, 0x5f, 0x31, 0x2f, 0x61, 0x76, 0x65, 0x72, 0x61, 0x67, 0x65, 0x5f,
  0x70, 0x6f, 0x6f, 0x6c, 0x69, 0x6e, 0x67, 0x32, 0x64, 0x5f, 0x32, 0x2f,
  0x41, 0x76, 0x67, 0x50, 0x6f, 0x6f, 0x6c, 0x00, 0x04, 0x00, 0x00, 0x00,
  0x01, 0x00, 0x00, 0x00, 0x01, 0x00, 0x00, 0x00, 0x25, 0x00, 0x00, 0x00,
  0x10, 0x00, 0x00, 0x00, 0x28, 0xfa, 0xff, 0xff, 0x14, 0x00, 0x00, 0x00,
  0x24, 0x00, 0x00, 0x00, 0x24, 0x00, 0x00, 0x00, 0x0e, 0x00, 0x00, 0x00,
  0xbc, 0x00, 0x00, 0x00, 0x04, 0x00, 0x00, 0x00, 0xff, 0xff, 0xff, 0xff,
  0x01, 0x00, 0x00, 0x00, 0x97, 0x00, 0x00, 0x00, 0x10, 0x00, 0x00, 0x00,
  0x14, 0xfa, 0xff, 0xff, 0x99, 0x00, 0x00, 0x00, 0x6d, 0x6f, 0x64, 0x65,
  0x6c, 0x5f, 0x31, 0x2f, 0x61, 0x63, 0x74, 0x69, 0x76, 0x61, 0x74, 0x69,
  0x6f, 0x6e, 0x5f, 0x32, 0x2f, 0x52, 0x65, 0x6c, 0x75, 0x3b, 0x6d, 0x6f,
  0x64, 0x65, 0x6c, 0x5f, 0x31, 0x2f, 0x62, 0x61, 0x74, 0x63, 0x68, 0x5f,
  0x6e, 0x6f, 0x72, 0x6d, 0x61, 0x6c, 0x69, 0x7a, 0x61, 0x74, 0x69, 0x6f,
  0x6e, 0x5f, 0x34, 0x2f, 0x46, 0x75, 0x73, 0x65, 0x64, 0x42, 0x61, 0x74,
  0x63, 0x68, 0x4e, 0x6f, 0x72, 0x6d, 0x56, 0x33, 0x3b, 0x6d, 0x6f, 0x64,
  0x65, 0x6c, 0x5f, 0x31, 0x2f, 0x64, 0x65, 0x70, 0x74, 0x68, 0x77, 0x69,
  0x73, 0x65, 0x5f, 0x63, 0x6f, 0x6e, 0x76, 0x32, 0x64, 0x5f, 0x31, 0x2f,
  0x64, 0x65, 0x70, 0x74, 0x68, 0x77, 0x69, 0x73, 0x65, 0x3b, 0x6d, 0x6f,
  0x64, 0x65, 0x6c, 0x5f, 0x31, 0x2f, 0x73, 0x65, 0x70, 0x61, 0x72, 0x61,
  0x62, 0x6c, 0x65, 0x5f, 0x63, 0x6f, 0x6e, 0x76, 0x32, 0x64, 0x5f, 0x31,
  0x2f, 0x73, 0x65, 0x70, 0x61, 0x72, 0x61, 0x62, 0x6c, 0x65, 0x5f, 0x63,
  0x6f, 0x6e, 0x76, 0x32, 0x64, 0x00, 0x00, 0x00, 0x04, 0x00, 0x00, 0x00,
  0x01, 0x00, 0x00, 0x00, 0x01, 0x00, 0x00, 0x00, 0x97, 0x00, 0x00, 0x00,
  0x10, 0x00, 0x00, 0x00, 0x0c, 0xfb, 0xff, 0xff, 0x14, 0x00, 0x00, 0x00,
  0x24, 0x00, 0x00, 0x00, 0x24, 0x00, 0x00, 0x00, 0x0d, 0x00, 0x00, 0x00,
  0x68, 0x00, 0x00, 0x00, 0x04, 0x00, 0x00, 0x00, 0xff, 0xff, 0xff, 0xff,
  0x3c, 0x00, 0x00, 0x00, 0x97, 0x00, 0x00, 0x00, 0x08, 0x00, 0x00, 0x00,
  0xf8, 0xfa, 0xff, 0xff, 0x47, 0x00, 0x00, 0x00, 0x6d, 0x6f, 0x64, 0x65,
  0x6c, 0x5f, 0x31, 0x2f, 0x62, 0x61, 0x74, 0x63, 0x68, 0x5f, 0x6e, 0x6f,
  0x72, 0x6d, 0x61, 0x6c, 0x69, 0x7a, 0x61, 0x74, 0x69, 0x6f, 0x6e, 0x5f,
  0x33, 0x2f, 0x46, 0x75, 0x73, 0x65, 0x64, 0x42, 0x61, 0x74, 0x63, 0x68,
  0x4e, 0x6f, 0x72, 0x6d, 0x56, 0x33, 0x3b, 0x6d, 0x6f, 0x64, 0x65, 0x6c,
  0x5f, 0x31, 0x2f, 0x63, 0x6f, 0x6e, 0x76, 0x32, 0x64, 0x5f, 0x31, 0x2f,
  0x43, 0x6f, 0x6e, 0x76, 0x32, 0x44, 0x31, 0x00, 0x04, 0x00, 0x00, 0x00,
  0x01, 0x00, 0x00, 0x00, 0x3c, 0x00, 0x00, 0x00, 0x97, 0x00, 0x00, 0x00,
  0x08, 0x00, 0x00, 0x00, 0xf6, 0xfb, 0xff, 0xff, 0x10, 0x00, 0x00, 0x00,
  0x10, 0x00, 0x00, 0x00, 0x0c, 0x00, 0x00, 0x00, 0x90, 0x00, 0x00, 0x00,
  0x70, 0xfb, 0xff, 0xff, 0x80, 0x00, 0x00, 0x00, 0x6d, 0x6f, 0x64, 0x65,
  0x6c, 0x5f, 0x31, 0x2f, 0x62, 0x61, 0x74, 0x63, 0x68, 0x5f, 0x6e, 0x6f,
  0x72, 0x6d, 0x61, 0x6c, 0x69, 0x7a, 0x61, 0x74, 0x69, 0x6f, 0x6e, 0x5f,
  0x34, 0x2f, 0x46, 0x75, 0x73, 0x65, 0x64, 0x42, 0x61, 0x74, 0x63, 0x68,
  0x4e, 0x6f, 0x72, 0x6d, 0x56, 0x33, 0x3b, 0x6d, 0x6f, 0x64, 0x65, 0x6c,
  0x5f, 0x31, 0x2f, 0x64, 0x65, 0x70, 0x74, 0x68, 0x77, 0x69, 0x73, 0x65,
  0x5f, 0x63, 0x6f, 0x6e, 0x76, 0x32, 0x64, 0x5f, 0x31, 0x2f, 0x64, 0x65,
  0x70, 0x74, 0x68, 0x77, 0x69, 0x73, 0x65, 0x3b, 0x6d, 0x6f, 0x64, 0x65,
  0x6c, 0x5f, 0x31, 0x2f, 0x73, 0x65, 0x70, 0x61, 0x72, 0x61, 0x62, 0x6c,
  0x65, 0x5f, 0x63, 0x6f, 0x6e, 0x76, 0x32, 0x64, 0x5f, 0x31, 0x2f, 0x73,
  0x65, 0x70, 0x61, 0x72, 0x61, 0x62, 0x6c, 0x65, 0x5f, 0x63, 0x6f, 0x6e,
  0x76, 0x32, 0x64, 0x31, 0x00, 0x00, 0x00, 0x00, 0x04, 0x00, 0x00, 0x00,
  0x01, 0x00, 0x00, 0x00, 0x3c, 0x00, 0x00, 0x00, 0x01, 0x00, 0x00, 0x00,
  0x10, 0x00, 0x00, 0x00, 0xaa, 0xfc, 0xff, 0xff, 0x10, 0x00, 0x00, 0x00,
  0x10, 0x00, 0x00, 0x00, 0x0b, 0x00, 0x00, 0x00, 0x54, 0x00, 0x00, 0x00,
  0x24, 0xfc, 0xff, 0xff, 0x46, 0x00, 0x00, 0x00, 0x6d, 0x6f, 0x64, 0x65,
  0x6c, 0x5f, 0x31, 0x2f, 0x62, 0x61, 0x74, 0x63, 0x68, 0x5f, 0x6e, 0x6f,
  0x72, 0x6d, 0x61, 0x6c, 0x69, 0x7a, 0x61, 0x74, 0x69, 0x6f, 0x6e, 0x5f,
  0x33, 0x2f, 0x46, 0x75, 0x73, 0x65, 0x64, 0x42, 0x61, 0x74, 0x63, 0x68,
  0x4e, 0x6f, 0x72, 0x6d, 0x56, 0x33, 0x3b, 0x6d, 0x6f, 0x64, 0x65, 0x6c,
  0x5f, 0x31, 0x2f, 0x63, 0x6f, 0x6e, 0x76, 0x32, 0x64, 0x5f, 0x31, 0x2f,
  0x43, 0x6f, 0x6e, 0x76, 0x32, 0x44, 0x00, 0x00, 0x01, 0x00, 0x00, 0x00,
  0x08, 0x00, 0x00, 0x00, 0x16, 0xfd, 0xff, 0xff, 0x10, 0x00, 0x00, 0x00,
  0x10, 0x00, 0x00, 0x00, 0x0a, 0x00, 0x00, 0x00, 0x38, 0x00, 0x00, 0x00,
  0x90, 0xfc, 0xff, 0xff, 0x2b, 0x00, 0x00, 0x00, 0x6d, 0x6f, 0x64, 0x65,
  0x6c, 0x5f, 0x31, 0x2f, 0x73, 0x65, 0x70, 0x61, 0x72, 0x61, 0x62, 0x6c,
  0x65, 0x5f, 0x63, 0x6f, 0x6e, 0x76, 0x32, 0x64, 0x5f, 0x31, 0x2f, 0x73,
  0x65, 0x70, 0x61, 0x72, 0x61, 0x62, 0x6c, 0x65, 0x5f, 0x63, 0x6f, 0x6e,
  0x76, 0x32, 0x64, 0x00, 0x04, 0x00, 0x00, 0x00, 0x10, 0x00, 0x00, 0x00,
  0x01, 0x00, 0x00, 0x00, 0x01, 0x00, 0x00, 0x00, 0x10, 0x00, 0x00, 0x00,
  0x72, 0xfd, 0xff, 0xff, 0x10, 0x00, 0x00, 0x00, 0x10, 0x00, 0x00, 0x00,
  0x09, 0x00, 0x00, 0x00, 0x44, 0x00, 0x00, 0x00, 0xec, 0xfc, 0xff, 0xff,
  0x35, 0x00, 0x00, 0x00, 0x6d, 0x6f, 0x64, 0x65, 0x6c, 0x5f, 0x31, 0x2f,
  0x73, 0x65, 0x70, 0x61, 0x72, 0x61, 0x62, 0x6c, 0x65, 0x5f, 0x63, 0x6f,
  0x6e, 0x76, 0x32, 0x64, 0x5f, 0x31, 0x2f, 0x73, 0x65, 0x70, 0x61, 0x72,
  0x61, 0x62, 0x6c, 0x65, 0x5f, 0x63, 0x6f, 0x6e, 0x76, 0x32, 0x64, 0x2f,
  0x64, 0x65, 0x70, 0x74, 0x68, 0x77, 0x69, 0x73, 0x65, 0x00, 0x00, 0x00,
  0x04, 0x00, 0x00, 0x00, 0x01, 0x00, 0x00, 0x00, 0x01, 0x00, 0x00, 0x00,
  0x10, 0x00, 0x00, 0x00, 0x10, 0x00, 0x00, 0x00, 0xda, 0xfd, 0xff, 0xff,
  0x10, 0x00, 0x00, 0x00, 0x10, 0x00, 0x00, 0x00, 0x08, 0x00, 0x00, 0x00,
  0x8c, 0x00, 0x00, 0x00, 0x54, 0xfd, 0xff, 0xff, 0x7f, 0x00, 0x00, 0x00,
  0x6d, 0x6f, 0x64, 0x65, 0x6c, 0x5f, 0x31, 0x2f, 0x62, 0x61, 0x74, 0x63,
  0x68, 0x5f, 0x6e, 0x6f, 0x72, 0x6d, 0x61, 0x6c, 0x69, 0x7a, 0x61, 0x74,
  0x69, 0x6f, 0x6e, 0x5f, 0x34, 0x2f, 0x46, 0x75, 0x73, 0x65, 0x64, 0x42,
  0x61, 0x74, 0x63, 0x68, 0x4e, 0x6f, 0x72, 0x6d, 0x56, 0x33, 0x3b, 0x6d,
  0x6f, 0x64, 0x65, 0x6c, 0x5f, 0x31, 0x2f, 0x64, 0x65, 0x70, 0x74, 0x68,
  0x77, 0x69, 0x73, 0x65, 0x5f, 0x63, 0x6f, 0x6e, 0x76, 0x32, 0x64, 0x5f,
  0x31, 0x2f, 0x64, 0x65, 0x70, 0x74, 0x68, 0x77, 0x69, 0x73, 0x65, 0x3b,
  0x6d, 0x6f, 0x64, 0x65, 0x6c, 0x5f, 0x31, 0x2f, 0x73, 0x65, 0x70, 0x61,
  0x72, 0x61, 0x62, 0x6c, 0x65, 0x5f, 0x63, 0x6f, 0x6e, 0x76, 0x32, 0x64,
  0x5f, 0x31, 0x2f, 0x73, 0x65, 0x70, 0x61, 0x72, 0x61, 0x62, 0x6c, 0x65,
  0x5f, 0x63, 0x6f, 0x6e, 0x76, 0x32, 0x64, 0x00, 0x01, 0x00, 0x00, 0x00,
  0x10, 0x00, 0x00, 0x00, 0x7e, 0xfe, 0xff, 0xff, 0x10, 0x00, 0x00, 0x00,
  0x10, 0x00, 0x00, 0x00, 0x07, 0x00, 0x00, 0x00, 0x24, 0x00, 0x00, 0x00,
  0xf8, 0xfd, 0xff, 0xff, 0x17, 0x00, 0x00, 0x00, 0x6d, 0x6f, 0x64, 0x65,
  0x6c, 0x5f, 0x31, 0x2f, 0x63, 0x6f, 0x6e, 0x76, 0x32, 0x64, 0x5f, 0x31,
  0x2f, 0x43, 0x6f, 0x6e, 0x76, 0x32, 0x44, 0x00, 0x04, 0x00, 0x00, 0x00,
  0x08, 0x00, 0x00, 0x00, 0x01, 0x00, 0x00, 0x00, 0x20, 0x00, 0x00, 0x00,
  0x01, 0x00, 0x00, 0x00, 0xc6, 0xfe, 0xff, 0xff, 0x10, 0x00, 0x00, 0x00,
  0x10, 0x00, 0x00, 0x00, 0x06, 0x00, 0x00, 0x00, 0x24, 0x00, 0x00, 0x00,
  0x40, 0xfe, 0xff, 0xff, 0x14, 0x00, 0x00, 0x00, 0x6d, 0x6f, 0x64, 0x65,
  0x6c, 0x5f, 0x31, 0x2f, 0x64, 0x65, 0x6e, 0x73, 0x65, 0x2f, 0x4d, 0x61,
  0x74, 0x4d, 0x75, 0x6c, 0x00, 0x00, 0x00, 0x00, 0x02, 0x00, 0x00, 0x00,
  0x04, 0x00, 0x00, 0x00, 0x40, 0x00, 0x00, 0x00, 0x06, 0xff, 0xff, 0xff,
  0x10, 0x00, 0x00, 0x00, 0x10, 0x00, 0x00, 0x00, 0x05, 0x00, 0x00, 0x00,
  0x3c, 0x00, 0x00, 0x00, 0x80, 0xfe, 0xff, 0xff, 0x2e, 0x00, 0x00, 0x00,
  0x6d, 0x6f, 0x64, 0x65, 0x6c, 0x5f, 0x31, 0x2f, 0x62, 0x61, 0x74, 0x63,
  0x68, 0x5f, 0x6e, 0x6f, 0x72, 0x6d, 0x61, 0x6c, 0x69, 0x7a, 0x61, 0x74,
  0x69, 0x6f, 0x6e, 0x5f, 0x35, 0x2f, 0x46, 0x75, 0x73, 0x65, 0x64, 0x42,
  0x61, 0x74, 0x63, 0x68, 0x4e, 0x6f, 0x72, 0x6d, 0x56, 0x33, 0x00, 0x00,
  0x01, 0x00, 0x00, 0x00, 0x10, 0x00, 0x00, 0x00, 0x5a, 0xff, 0xff, 0xff,
  0x10, 0x00, 0x00, 0x00, 0x10, 0x00, 0x00, 0x00, 0x04, 0x00, 0x00, 0x00,
  0x3c, 0x00, 0x00, 0x00, 0xd4, 0xfe, 0xff, 0xff, 0x2e, 0x00, 0x00, 0x00,
  0x6d, 0x6f, 0x64, 0x65, 0x6c, 0x5f, 0x31, 0x2f, 0x62, 0x61, 0x74, 0x63,
  0x68, 0x5f, 0x6e, 0x6f, 0x72, 0x6d, 0x61, 0x6c, 0x69, 0x7a, 0x61, 0x74,
  0x69, 0x6f, 0x6e, 0x5f, 0x34, 0x2f, 0x46, 0x75, 0x73, 0x65, 0x64, 0x42,
  0x61, 0x74, 0x63, 0x68, 0x4e, 0x6f, 0x72, 0x6d, 0x56, 0x33, 0x00, 0x00,
  0x01, 0x00, 0x00, 0x00, 0x10, 0x00, 0x00, 0x00, 0x00, 0x00, 0x0e, 0x00,
  0x18, 0x00, 0x14, 0x00, 0x13, 0x00, 0x0c, 0x00, 0x08, 0x00, 0x04, 0x00,
  0x0e, 0x00, 0x00, 0x00, 0x14, 0x00, 0x00, 0x00, 0x14, 0x00, 0x00, 0x00,
  0x03, 0x00, 0x00, 0x00, 0x00, 0x00, 0x00, 0x02, 0x24, 0x00, 0x00, 0x00,
  0x3c, 0xff, 0xff, 0xff, 0x15, 0x00, 0x00, 0x00, 0x6d, 0x6f, 0x64, 0x65,
  0x6c, 0x5f, 0x31, 0x2f, 0x66, 0x6c, 0x61, 0x74, 0x74, 0x65, 0x6e, 0x2f,
  0x43, 0x6f, 0x6e, 0x73, 0x74, 0x00, 0x00, 0x00, 0x01, 0x00, 0x00, 0x00,
  0x02, 0x00, 0x00, 0x00, 0x00, 0x00, 0x0e, 0x00, 0x14, 0x00, 0x10, 0x00,
  0x00, 0x00, 0x0c, 0x00, 0x08, 0x00, 0x04, 0x00, 0x0e, 0x00, 0x00, 0x00,
  0x10, 0x00, 0x00, 0x00, 0x10, 0x00, 0x00, 0x00, 0x02, 0x00, 0x00, 0x00,
  0x34, 0x00, 0x00, 0x00, 0x88, 0xff, 0xff, 0xff, 0x24, 0x00, 0x00, 0x00,
  0x6d, 0x6f, 0x64, 0x65, 0x6c, 0x5f, 0x31, 0x2f, 0x64, 0x65, 0x6e, 0x73,
  0x65, 0x2f, 0x42, 0x69, 0x61, 0x73, 0x41, 0x64, 0x64, 0x2f, 0x52, 0x65,
  0x61, 0x64, 0x56, 0x61, 0x72, 0x69, 0x61, 0x62, 0x6c, 0x65, 0x4f, 0x70,
  0x00, 0x00, 0x00, 0x00, 0x01, 0x00, 0x00, 0x00, 0x04, 0x00, 0x00, 0x00,
  0x14, 0x00, 0x18, 0x00, 0x14, 0x00, 0x00, 0x00, 0x10, 0x00, 0x0c, 0x00,
  0x08, 0x00, 0x00, 0x00, 0x00, 0x00, 0x04, 0x00, 0x14, 0x00, 0x00, 0x00,
  0x14, 0x00, 0x00, 0x00, 0x28, 0x00, 0x00, 0x00, 0x28, 0x00, 0x00, 0x00,
  0x01, 0x00, 0x00, 0x00, 0x40, 0x00, 0x00, 0x00, 0x04, 0x00, 0x00, 0x00,
  0xff, 0xff, 0xff, 0xff, 0x3c, 0x00, 0x00, 0x00, 0x97, 0x00, 0x00, 0x00,
  0x01, 0x00, 0x00, 0x00, 0x04, 0x00, 0x04, 0x00, 0x04, 0x00, 0x00, 0x00,
  0x19, 0x00, 0x00, 0x00, 0x73, 0x65, 0x72, 0x76, 0x69, 0x6e, 0x67, 0x5f,
  0x64, 0x65, 0x66, 0x61, 0x75, 0x6c, 0x74, 0x5f, 0x69, 0x6e, 0x70, 0x75,
  0x74, 0x5f, 0x32, 0x3a, 0x30, 0x00, 0x00, 0x00, 0x04, 0x00, 0x00, 0x00,
  0x01, 0x00, 0x00, 0x00, 0x3c, 0x00, 0x00, 0x00, 0x97, 0x00, 0x00, 0x00,
  0x01, 0x00, 0x00, 0x00, 0x06, 0x00, 0x00, 0x00, 0x60, 0x00, 0x00, 0x00,
  0x44, 0x00, 0x00, 0x00, 0x34, 0x00, 0x00, 0x00, 0x24, 0x00, 0x00, 0x00,
  0x14, 0x00, 0x00, 0x00, 0x04, 0x00, 0x00, 0x00, 0xc4, 0xff, 0xff, 0xff,
  0x19, 0x00, 0x00, 0x00, 0x00, 0x00, 0x00, 0x19, 0xd0, 0xff, 0xff, 0xff,
  0x09, 0x00, 0x00, 0x00, 0x00, 0x00, 0x00, 0x09, 0xdc, 0xff, 0xff, 0xff,
  0x16, 0x00, 0x00, 0x00, 0x00, 0x00, 0x00, 0x16, 0xe8, 0xff, 0xff, 0xff,
  0x01, 0x00, 0x00, 0x00, 0x00, 0x00, 0x00, 0x01, 0xf4, 0xff, 0xff, 0xff,
  0x04, 0x00, 0x00, 0x00, 0x00, 0x00, 0x00, 0x04, 0x0c, 0x00, 0x0c, 0x00,
  0x0b, 0x00, 0x00, 0x00, 0x00, 0x00, 0x04, 0x00, 0x0c, 0x00, 0x00, 0x00,
  0x03, 0x00, 0x00, 0x00, 0x00, 0x00, 0x00, 0x03
};

#endif //MODEL_TFLITE_FLOAT_H
